<pad>	0
<unk>	0
<s>	0
</s>	0
<sep>	0
<cls>	0
<mask>	0
<0x00>	0
<0x01>	0
<0x02>	0
<0x03>	0
<0x04>	0
<0x05>	0
<0x06>	0
<0x07>	0
<0x08>	0
<0x09>	0
<0x0A>	0
<0x0B>	0
<0x0C>	0
<0x0D>	0
<0x0E>	0
<0x0F>	0
<0x10>	0
<0x11>	0
<0x12>	0
<0x13>	0
<0x14>	0
<0x15>	0
<0x16>	0
<0x17>	0
<0x18>	0
<0x19>	0
<0x1A>	0
<0x1B>	0
<0x1C>	0
<0x1D>	0
<0x1E>	0
<0x1F>	0
<0x20>	0
<0x21>	0
<0x22>	0
<0x23>	0
<0x24>	0
<0x25>	0
<0x26>	0
<0x27>	0
<0x28>	0
<0x29>	0
<0x2A>	0
<0x2B>	0
<0x2C>	0
<0x2D>	0
<0x2E>	0
<0x2F>	0
<0x30>	0
<0x31>	0
<0x32>	0
<0x33>	0
<0x34>	0
<0x35>	0
<0x36>	0
<0x37>	0
<0x38>	0
<0x39>	0
<0x3A>	0
<0x3B>	0
<0x3C>	0
<0x3D>	0
<0x3E>	0
<0x3F>	0
<0x40>	0
<0x41>	0
<0x42>	0
<0x43>	0
<0x44>	0
<0x45>	0
<0x46>	0
<0x47>	0
<0x48>	0
<0x49>	0
<0x4A>	0
<0x4B>	0
<0x4C>	0
<0x4D>	0
<0x4E>	0
<0x4F>	0
<0x50>	0
<0x51>	0
<0x52>	0
<0x53>	0
<0x54>	0
<0x55>	0
<0x56>	0
<0x57>	0
<0x58>	0
<0x59>	0
<0x5A>	0
<0x5B>	0
<0x5C>	0
<0x5D>	0
<0x5E>	0
<0x5F>	0
<0x60>	0
<0x61>	0
<0x62>	0
<0x63>	0
<0x64>	0
<0x65>	0
<0x66>	0
<0x67>	0
<0x68>	0
<0x69>	0
<0x6A>	0
<0x6B>	0
<0x6C>	0
<0x6D>	0
<0x6E>	0
<0x6F>	0
<0x70>	0
<0x71>	0
<0x72>	0
<0x73>	0
<0x74>	0
<0x75>	0
<0x76>	0
<0x77>	0
<0x78>	0
<0x79>	0
<0x7A>	0
<0x7B>	0
<0x7C>	0
<0x7D>	0
<0x7E>	0
<0x7F>	0
<0x80>	0
<0x81>	0
<0x82>	0
<0x83>	0
<0x84>	0
<0x85>	0
<0x86>	0
<0x87>	0
<0x88>	0
<0x89>	0
<0x8A>	0
<0x8B>	0
<0x8C>	0
<0x8D>	0
<0x8E>	0
<0x8F>	0
<0x90>	0
<0x91>	0
<0x92>	0
<0x93>	0
<0x94>	0
<0x95>	0
<0x96>	0
<0x97>	0
<0x98>	0
<0x99>	0
<0x9A>	0
<0x9B>	0
<0x9C>	0
<0x9D>	0
<0x9E>	0
<0x9F>	0
<0xA0>	0
<0xA1>	0
<0xA2>	0
<0xA3>	0
<0xA4>	0
<0xA5>	0
<0xA6>	0
<0xA7>	0
<0xA8>	0
<0xA9>	0
<0xAA>	0
<0xAB>	0
<0xAC>	0
<0xAD>	0
<0xAE>	0
<0xAF>	0
<0xB0>	0
<0xB1>	0
<0xB2>	0
<0xB3>	0
<0xB4>	0
<0xB5>	0
<0xB6>	0
<0xB7>	0
<0xB8>	0
<0xB9>	0
<0xBA>	0
<0xBB>	0
<0xBC>	0
<0xBD>	0
<0xBE>	0
<0xBF>	0
<0xC0>	0
<0xC1>	0
<0xC2>	0
<0xC3>	0
<0xC4>	0
<0xC5>	0
<0xC6>	0
<0xC7>	0
<0xC8>	0
<0xC9>	0
<0xCA>	0
<0xCB>	0
<0xCC>	0
<0xCD>	0
<0xCE>	0
<0xCF>	0
<0xD0>	0
<0xD1>	0
<0xD2>	0
<0xD3>	0
<0xD4>	0
<0xD5>	0
<0xD6>	0
<0xD7>	0
<0xD8>	0
<0xD9>	0
<0xDA>	0
<0xDB>	0
<0xDC>	0
<0xDD>	0
<0xDE>	0
<0xDF>	0
<0xE0>	0
<0xE1>	0
<0xE2>	0
<0xE3>	0
<0xE4>	0
<0xE5>	0
<0xE6>	0
<0xE7>	0
<0xE8>	0
<0xE9>	0
<0xEA>	0
<0xEB>	0
<0xEC>	0
<0xED>	0
<0xEE>	0
<0xEF>	0
<0xF0>	0
<0xF1>	0
<0xF2>	0
<0xF3>	0
<0xF4>	0
<0xF5>	0
<0xF6>	0
<0xF7>	0
<0xF8>	0
<0xF9>	0
<0xFA>	0
<0xFB>	0
<0xFC>	0
<0xFD>	0
<0xFE>	0
<0xFF>	0
..	-0
영화	-1
▁영화	-2
▁이	-3
▁아	-4
...	-5
ᄏᄏ	-6
▁그	-7
▁보	-8
▁재	-9
!!	-10
니다	-11
▁정	-12
▁나	-13
는데	-14
너무	-15
▁다	-16
▁좋	-17
▁하	-18
▁없	-19
▁어	-20
▁너무	-21
▁사	-22
▁진	-23
▁내	-24
▁감	-25
▁재미	-26
▁연	-27
▁있	-28
....	-29
▁지	-30
으로	-31
지만	-32
하고	-33
▁최	-34
▁한	-35
▁시	-36
네요	-37
▁안	-38
▁1	-39
▁정말	-40
▁스	-41
▁만	-42
▁가	-43
에서	-44
▁재밌	-45
▁기	-46
▁봤	-47
▁평	-48
▁대	-49
▁전	-50
▁진짜	-51
▁연기	-52
▁마	-53
하는	-54
▁무	-55
▁모	-56
▁수	-57
▁여	-58
▁생	-59
▁잘	-60
어요	-61
▁주	-62
▁최고	-63
▁않	-64
▁더	-65
▁평점	-66
ᄏᄏᄏᄏ	-67
드라	-68
습니다	-69
▁오	-70
토리	-71
이다	-72
▁개	-73
▁제	-74
▁인	-75
하다	-76
▁이런	-77
▁말	-78
▁배	-79
드라마	-80
▁생각	-81
~~	-82
▁왜	-83
▁자	-84
들이	-85
▁같	-86
▁못	-87
▁스토리	-88
▁소	-89
▁남	-90
까지	-91
▁알	-92
▁본	-93
▁느	-94
ᅲᅲ	-95
▁볼	-96
▁유	-97
▁미	-98
하게	-99
▁감동	-100
▁보고	-101
▁별	-102
▁일	-103
이라	-104
▁비	-105
▁것	-106
보다	-107
▁장	-108
었다	-109
▁쓰	-110
▁우	-111
▁지루	-112
▁드라마	-113
;;	-114
▁많	-115
▁작	-116
??	-117
▁ᄏᄏ	-118
▁중	-119
▁그냥	-120
▁재미있	-121
▁공	-122
▁부	-123
▁아니	-124
▁배우	-125
레기	-126
▁2	-127
▁사람	-128
▁조	-129
해서	-130
▁내용	-131
면서	-132
▁뭐	-133
▁역	-134
▁10	-135
▁만들	-136
▁완	-137
▁감독	-138
▁끝	-139
▁저	-140
▁애	-141
적인	-142
▁좀	-143
렇게	-144
▁재미없	-145
다는	-146
▁고	-147
리고	-148
▁해	-149
▁사랑	-150
▁쓰레기	-151
▁명	-152
▁되	-153
▁참	-154
▁영화를	-155
▁반	-156
▁보는	-157
,,	-158
▁영	-159
^^	-160
▁웃	-161
▁결	-162
보고	-163
▁예	-164
▁다시	-165
ᄒᄒ	-166
▁봐	-167
▁좋아	-168
액션	-169
지막	-170
▁상	-171
▁거	-172
라고	-173
▁시간	-174
▁싶	-175
으면	-176
▁실	-177
▁매	-178
▁좋은	-179
▁신	-180
▁눈	-181
▁처	-182
▁바	-183
입니다	-184
▁이거	-185
들의	-186
▁영화는	-187
▁노	-188
▁영화가	-189
▁작품	-190
▁봤는데	-191
▁불	-192
하지	-193
▁없는	-194
▁살	-195
▁이건	-196
OO	-197
▁원	-198
▁기대	-199
▁최고의	-200
▁내가	-201
인공	-202
지는	-203
▁마지막	-204
▁난	-205
▁좋았	-206
다가	-207
▁액션	-208
▁완전	-209
!!!	-210
▁있는	-211
▁3	-212
▁하나	-213
다고	-214
▁코	-215
▁할	-216
▁넘	-217
▁의	-218
야기	-219
▁성	-220
▁처음	-221
▁때	-222
▁도	-223
어서	-224
없는	-225
적이	-226
▁죽	-227
▁한국	-228
▁추	-229
같은	-230
▁후	-231
▁없다	-232
▁지금	-233
세요	-234
▁몰	-235
했다	-236
▁나오	-237
▁하는	-238
▁현	-239
들은	-240
인데	-241
▁괜	-242
!!!!	-243
▁이게	-244
▁이렇게	-245
에게	-246
▁최악	-247
▁김	-248
▁극	-249
ᅳᅳ	-250
▁모르	-251
합니다	-252
▁세	-253
▁아깝	-254
▁별로	-255
▁또	-256
라는	-257
적으로	-258
부터	-259
대로	-260
▁이해	-261
▁멋	-262
▁강	-263
▁허	-264
겠다	-265
이나	-266
▁관	-267
▁연출	-268
▁초	-269
연기	-270
▁분	-271
▁짜	-272
있는	-273
▁위	-274
▁돈	-275
▁두	-276
▁느낌	-277
▁동	-278
▁심	-279
한다	-280
▁화	-281
▁명작	-282
▁따	-283
▁잼	-284
▁이야기	-285
▁구	-286
▁역시	-287
▁우리	-288
▁평점이	-289
▁로	-290
▁기억	-291
▁재밌게	-292
▁했	-293
▁뭔	-294
▁음	-295
되는	-296
▁캐	-297
▁많이	-298
▁괜찮	-299
▁당	-300
정도	-301
▁아이	-302
▁들	-303
▁그래	-304
▁장면	-305
지도	-306
배우	-307
주는	-308
▁이영화	-309
""	-310
▁여자	-311
문에	-312
▁엄	-313
▁아름	-314
▁만든	-315
▁에	-316
▁그리고	-317
▁요	-318
▁잔	-319
리는	-320
▁발	-321
▁아까	-322
▁그런	-323
▁와	-324
▁차	-325
▁보여	-326
▁꼭	-327
▁막	-328
재미	-329
▁주인공	-330
사람	-331
았다	-332
드는	-333
▁아닌	-334
▁마음	-335
▁슬	-336
▁공포	-337
▁단	-338
것도	-339
▁포	-340
필요	-341
ᄏᄏᄏᄏᄏᄏᄏᄏ	-342
▁특	-343
00	-344
▁귀	-345
▁같은	-346
만에	-347
▁울	-348
▁일본	-349
진짜	-350
▁박	-351
▁졸	-352
▁설	-353
▁유치	-354
▁볼만	-355
을까	-356
하나	-357
가는	-358
아서	-359
▁표	-360
▁무슨	-361
▁없고	-362
▁줄	-363
▁아무	-364
▁ᅲᅲ	-365
▁힘	-366
▁현실	-367
▁존	-368
없이	-369
▁점	-370
▁망	-371
........	-372
ᄏᄏᄏ	-373
▁결말	-374
었는데	-375
였다	-376
▁ᄏᄏᄏ	-377
▁이상	-378
인가	-379
하기	-380
▁서	-381
▁소재	-382
▁아깝다	-383
▁흥	-384
없다	-385
시간	-386
▁몰입	-387
▁보면	-388
▁다른	-389
하면	-390
ᅮᅮ	-391
▁가장	-392
▁보기	-393
▁짱	-394
나는	-395
▁누	-396
니까	-397
▁매력	-398
▁과	-399
▁반전	-400
▁속	-401
▁남자	-402
▁.	-403
구나	-404
▁리	-405
▁절	-406
▁뻔	-407
▁짜증	-408
▁가슴	-409
하지만	-410
보는	-411
▁..	-412
▁선	-413
▁OO	-414
▁걸	-415
▁말이	-416
▁영화다	-417
▁눈물	-418
▁낮	-419
▁얼	-420
▁애니	-421
▁빠	-422
▁솔	-423
▁스릴	-424
▁맞	-425
미디	-426
인지	-427
이고	-428
▁높	-429
▁대한	-430
▁계	-431
스럽	-432
▁인생	-433
▁충	-434
는다	-435
▁긴	-436
▁ᄒᄒ	-437
▁원작	-438
▁드	-439
▁정도	-440
▁인간	-441
재밌	-442
▁억	-443
릭터	-444
봐도	-445
▁방	-446
▁있다	-447
는지	-448
▁ᄏ	-449
▁만들어	-450
▁영상	-451
아요	-452
더라	-453
었던	-454
에는	-455
▁전개	-456
▁몇	-457
리즈	-458
려고	-459
▁솔직	-460
▁많은	-461
▁극장	-462
지마	-463
▁음악	-464
스러	-465
지않	-466
▁집	-467
지고	-468
▁4	-469
나서	-470
▁돌	-471
▁게	-472
▁적	-473
▁필요	-474
▁'	-475
▁건	-476
▁머	-477
▁모든	-478
▁한번	-479
▁굿	-480
처럼	-481
▁간	-482
▁아름다	-483
▁듯	-484
▁9	-485
▁아직	-486
▁ᅳᅳ	-487
▁끝까지	-488
▁피	-489
정말	-490
▁새	-491
메이	-492
▁순	-493
▁수준	-494
▁문	-495
점이	-496
▁8	-497
다니	-498
▁억지	-499
었음	-500
▁근	-501
나오	-502
밖에	-503
▁욕	-504
▁찾	-505
들을	-506
▁이제	-507
▁하지만	-508
된다	-509
▁하고	-510
▁올	-511
▁외	-512
▁봐도	-513
▁재밋	-514
▁행	-515
▁프	-516
▁솔직히	-517
▁받	-518
▁편	-519
▁파	-520
떨어	-521
중에	-522
▁모두	-523
▁언	-524
▁...	-525
스터	-526
▁실망	-527
▁엄청	-528
떻게	-529
▁추천	-530
▁열	-531
▁뭔가	-532
▁전혀	-533
나라	-534
▁7	-535
▁경	-536
▁찍	-537
▁아주	-538
타임	-539
기도	-540
▁캐릭터	-541
▁5	-542
했던	-543
▁연기력	-544
▁코미디	-545
▁좋다	-546
▁딱	-547
▁여운	-548
이는	-549
▁긴장	-550
▁호	-551
주고	-552
▁봤다	-553
준다	-554
을때	-555
장면	-556
▁같다	-557
.....	-558
▁갈	-559
▁공감	-560
▁독	-561
▁출	-562
리가	-563
▁ᄏᄏᄏᄏ	-564
▁치	-565
는거	-566
주인공	-567
에도	-568
▁먹	-569
▁약	-570
▁개봉	-571
스트	-572
▁대박	-573
감독	-574
▁놀	-575
▁버	-576
건지	-577
▁대단	-578
▁답	-579
때문에	-580
이랑	-581
▁배우들	-582
▁계속	-583
▁영화의	-584
이지	-585
만들	-586
▁나온	-587
▁최악의	-588
수록	-589
친구	-590
▁달	-591
▁가족	-592
▁이걸	-593
했는데	-594
▁엉	-595
▁어떻게	-596
생각	-597
점도	-598
▁모습	-599
▁영화에	-600
이가	-601
▁재미있게	-602
▁크	-603
▁내내	-604
▁교	-605
▁믿	-606
영화는	-607
▁표현	-608
라도	-609
이라는	-610
▁흥미	-611
▁손	-612
▁등	-613
▁재밌다	-614
▁함	-615
없고	-616
▁대사	-617
▁아니라	-618
▁야	-619
기는	-620
▁않고	-621
수가	-622
▁즐	-623
▁잔잔	-624
어야	-625
▁레	-626
▁질	-627
▁20	-628
▁내용이	-629
었어요	-630
하네요	-631
▁그래도	-632
던데	-633
엔딩	-634
최고	-635
▁제목	-636
아니	-637
▁악	-638
있다	-639
▁싸	-640
하네	-641
스토리	-642
▁나오는	-643
▁어디	-644
내내	-645
내용	-646
봤는데	-647
▁연기가	-648
▁삶	-649
라리	-650
▁그렇	-651
▁기분	-652
▁담	-653
▁베	-654
▁카	-655
▁진심	-656
▁물	-657
▁아니다	-658
▁아쉽	-659
▁조금	-660
▁떨어	-661
▁느껴	-662
어도	-663
한테	-664
~~~	-665
▁않은	-666
▁보다	-667
전에	-668
기에	-669
▁-	-670
영화가	-671
리오	-672
▁잠	-673
▁시리즈	-674
▁긴장감	-675
해요	-676
보면	-677
▁연기도	-678
성이	-679
하면서	-680
▁만드는	-681
▁재미없다	-682
▁잊	-683
▁아쉬	-684
들도	-685
이라고	-686
▁요즘	-687
▁자체	-688
▁스릴러	-689
ᄃᄃ	-690
▁메	-691
리스	-692
▁아름다운	-693
▁막장	-694
▁떠	-695
만큼	-696
▁개인	-697
▁봐야	-698
▁오랜	-699
대체	-700
▁근데	-701
같다	-702
으나	-703
▁제일	-704
▁0	-705
▁네	-706
▁천	-707
▁제대로	-708
훌륭	-709
이란	-710
인듯	-711
▁앞	-712
▁부족	-713
▁나는	-714
▁나름	-715
▁목	-716
▁홍	-717
▁나왔	-718
▁중간	-719
▁제작	-720
▁재미도	-721
▁알바	-722
▁내용도	-723
▁보다가	-724
이상	-725
▁노래	-726
만한	-727
기가	-728
난다	-729
▁않는	-730
▁잼있	-731
10	-732
▁정신	-733
▁날	-734
▁아까운	-735
년대	-736
▁아니고	-737
▁데	-738
치는	-739
▁웃기	-740
▁어설	-741
▁형	-742
▁미국	-743
▁감독이	-744
▁이유	-745
▁디	-746
ᄍᄍ	-747
▁시작	-748
▁스토리가	-749
▁각	-750
싶다	-751
▁삼	-752
▁타	-753
▁때문에	-754
▁왜이	-755
점은	-756
▁킬	-757
▁된	-758
▁영화라고	-759
거리	-760
▁훌륭	-761
▁시간이	-762
▁복	-763
▁싶다	-764
할수	-765
▁따뜻	-766
해도	-767
▁국	-768
라이	-769
▁뒤	-770
▁그러	-771
진다	-772
에요	-773
▁의미	-774
나고	-775
▁될	-776
▁통	-777
▁나와	-778
▁남는	-779
▁영화로	-780
▁살아	-781
▁출연	-782
▁너무나	-783
▁로맨	-784
▁보게	-785
▁싶은	-786
~~~~	-787
감동	-788
영화를	-789
군요	-790
▁뻔한	-791
마다	-792
더니	-793
▁느끼	-794
나리오	-795
▁케	-796
았는데	-797
▁차라리	-798
▁감정	-799
적이고	-800
기를	-801
이네	-802
▁모르겠	-803
▁절대	-804
▁아직도	-805
▁티	-806
하는데	-807
스팅	-808
▁세상	-809
▁스토리도	-810
▁6	-811
▁뭘	-812
나요	-813
▁어린	-814
▁작가	-815
▁특히	-816
▁무서	-817
▁산	-818
▁싫	-819
▁무엇	-820
▁신선	-821
▁영화입니다	-822
▁수작	-823
스러운	-824
▁글	-825
소리	-826
▁재밌어요	-827
로운	-828
▁^^	-829
▁보면서	-830
▁그저	-831
▁주는	-832
▁여운이	-833
▁""	-834
으로도	-835
학교	-836
▁나도	-837
▁영화였	-838
었습니다	-839
▁무섭	-840
▁안되	-841
▁감독의	-842
▁괜찮은	-843
사랑	-844
▁되는	-845
▁친구	-846
▁좋고	-847
▁판	-848
이런	-849
♥♥	-850
▁얼마	-851
▁장난	-852
▁도대체	-853
없음	-854
▁C	-855
▁사실	-856
▁행복	-857
▁황	-858
▁희	-859
▁ᅲ	-860
▁옛	-861
▁어이	-862
▁훨	-863
해야	-864
▁변	-865
▁부분	-866
▁멋진	-867
이야	-868
▁t	-869
▁점수	-870
▁B	-871
점을	-872
▁만화	-873
메이션	-874
▁걍	-875
▁갑	-876
▁깊	-877
▁관객	-878
▁용	-879
▁좋아하는	-880
지가	-881
▁시청	-882
▁언제	-883
▁좋았다	-884
▁자신	-885
▁이해가	-886
▁우리나라	-887
싶은	-888
▁답답	-889
나게	-890
???	-891
▁없음	-892
이네요	-893
▁빼	-894
▁첨	-895
▁확	-896
▁오랜만에	-897
▁빨	-898
▁봤던	-899
▁토	-900
▁전쟁	-901
한데	-902
▁봤습니다	-903
▁니	-904
▁인상	-905
▁허접	-906
;;;	-907
_-	-908
▁시나리오	-909
▁소름	-910
▁초반	-911
▁깨	-912
▁어색	-913
▁입	-914
인이	-915
성도	-916
▁양	-917
것이	-918
▁마지막에	-919
▁킬링	-920
▁재미가	-921
치고	-922
▁생각이	-923
▁청	-924
▁슬프	-925
▁배우들의	-926
oo	-927
▁힘들	-928
한거	-929
▁분위	-930
▁추억	-931
▁준	-932
▁어떤	-933
▁완벽	-934
▁종	-935
▁최고다	-936
▁길	-937
▁결국	-938
아깝	-939
▁지루하고	-940
부분	-941
▁시대	-942
▁낚	-943
▁둘	-944
디오	-945
▁총	-946
동안	-947
▁궁	-948
▁배경	-949
이지만	-950
▁영화관	-951
▁헐	-952
▁다큐	-953
,,,	-954
▁안타	-955
▁잡	-956
▁엔딩	-957
▁오늘	-958
▁뛰	-959
구만	-960
▁OOO	-961
▁귀여	-962
▁없이	-963
놓고	-964
▁흐	-965
▁들어	-966
아까	-967
▁이딴	-968
▁함께	-969
들에게	-970
▁지루함	-971
점대	-972
▁지루한	-973
▁어릴	-974
▁아름답	-975
▁환	-976
럽게	-977
▁문제	-978
▁졸작	-979
▁큰	-980
▁못한	-981
리지	-982
다면	-983
▁스타	-984
▁역사	-985
▁범	-986
▁임	-987
▁당시	-988
▁보는내내	-989
을듯	-990
▁유쾌	-991
▁개인적으로	-992
▁태	-993
▁식	-994
▁팬	-995
▁왠	-996
▁클	-997
▁진부	-998
좋아	-999
▁만들었	-1000
▁암	-1001
▁있었	-1002
▁강추	-1003
▁혼	-1004
▁찾아	-1005
▁"	-1006
~!	-1007
▁러	-1008
▁뿐	-1009
▁아무리	-1010
건가	-1011
나마	-1012
▁예술	-1013
그냥	-1014
는게	-1015
보니	-1016
▁영화도	-1017
▁킬링타임	-1018
▁꿈	-1019
▁코믹	-1020
낭비	-1021
보단	-1022
▁연기는	-1023
평점	-1024
▁그렇게	-1025
▁애니메이션	-1026
▁진정	-1027
그래	-1028
▁개연	-1029
시길	-1030
텐데	-1031
▁주연	-1032
▁보세요	-1033
▁돌아	-1034
▁공포영화	-1035
▁맘	-1036
▁얼마나	-1037
▁책	-1038
▁지루하다	-1039
▁오래	-1040
▁민	-1041
구요	-1042
▁재밌는	-1043
▁포스터	-1044
주의	-1045
▁웃음	-1046
▁몸	-1047
레이	-1048
▁ᄒ	-1049
▁설정	-1050
▁기억에	-1051
쓰레기	-1052
▁영화라	-1053
▁캐스팅	-1054
▁후회	-1055
▁사람이	-1056
있고	-1057
지루	-1058
▁폭	-1059
작품	-1060
▁더빙	-1061
▁몰입도	-1062
▁제발	-1063
▁백	-1064
하며	-1065
▁보지	-1066
▁얘	-1067
들과	-1068
▁충격	-1069
▁안되는	-1070
▁옛날	-1071
▁주제	-1072
▁브	-1073
▁지나	-1074
▁충분	-1075
▁여러	-1076
마디	-1077
한영화	-1078
▁낫	-1079
▁한국영화	-1080
▁T	-1081
▁알고	-1082
▁패	-1083
!!!!!!!!	-1084
당히	-1085
st	-1086
▁엄마	-1087
만든	-1088
▁좋아요	-1089
길래	-1090
이버	-1091
▁않았	-1092
가지	-1093
했음	-1094
▁궁금	-1095
▁극장에서	-1096
같이	-1097
▁주고	-1098
려는	-1099
▁보지마	-1100
▁꽤	-1101
▁것이	-1102
▁같이	-1103
▁병	-1104
학생	-1105
▁어느	-1106
▁하나도	-1107
인줄	-1108
▁집중	-1109
▁매우	-1110
▁있고	-1111
▁모르겠다	-1112
▁채	-1113
자기	-1114
▁미친	-1115
▁터	-1116
▁재밌음	-1117
하시	-1118
▁군	-1119
말이	-1120
▁먼	-1121
렸다	-1122
▁굳	-1123
▁색	-1124
▁잔인	-1125
▁괴	-1126
웠다	-1127
▁커	-1128
ᅲᅲᅲᅲ	-1129
▁뛰어	-1130
▁중국	-1131
▁느낌이	-1132
버린	-1133
▁빠져	-1134
▁한다	-1135
르는	-1136
▁ᅮᅮ	-1137
▁여기	-1138
▁흘	-1139
▁봤어요	-1140
▁감동적이	-1141
것같	-1142
▁상상	-1143
▁순수	-1144
▁은	-1145
꿀잼	-1146
▁불쌍	-1147
▁영화중	-1148
▁따라	-1149
▁말도	-1150
▁투	-1151
거지	-1152
력이	-1153
▁탄	-1154
▁이름	-1155
▁풀	-1156
야지	-1157
▁광	-1158
▁후반	-1159
▁나올	-1160
▁하지	-1161
좋은	-1162
성을	-1163
▁비슷	-1164
▁영화네요	-1165
편이	-1166
이야기	-1167
했지만	-1168
▁엉성	-1169
▁블	-1170
▁마음이	-1171
▁끌	-1172
함을	-1173
▁위해	-1174
......	-1175
▁돋	-1176
▁첫	-1177
전개	-1178
▁걸작	-1179
▁이쁘	-1180
▁눈물이	-1181
수있	-1182
자체	-1183
▁않는다	-1184
▁너	-1185
▁약간	-1186
▁그만	-1187
굉장	-1188
이거	-1189
▁대체	-1190
기만	-1191
????	-1192
▁숨	-1193
봤다	-1194
▁여주인공	-1195
▁얼굴	-1196
▁위한	-1197
해지는	-1198
▁b	-1199
▁사람들	-1200
▁영상미	-1201
▁번	-1202
워서	-1203
자가	-1204
▁프로	-1205
▁,	-1206
▁감동도	-1207
▁훨씬	-1208
▁없었다	-1209
▁o	-1210
▁똥	-1211
노잼	-1212
이라도	-1213
▁읽	-1214
가서	-1215
듯한	-1216
▁갈수록	-1217
▁감사	-1218
▁똑	-1219
이었다	-1220
것을	-1221
▁이정도	-1222
▁실화	-1223
▁비교	-1224
▁히	-1225
리를	-1226
라서	-1227
으니	-1228
▁그나마	-1229
▁내용은	-1230
▁왕	-1231
▁키	-1232
▁가슴이	-1233
▁!	-1234
그리고	-1235
▁로맨스	-1236
▁철	-1237
▁굉장	-1238
▁누가	-1239
▁g	-1240
▁전체	-1241
느낌	-1242
대한	-1243
시절	-1244
▁연기를	-1245
겠지만	-1246
▁벌	-1247
▁취	-1248
멜로	-1249
인생	-1250
함이	-1251
재밋	-1252
▁19	-1253
▁단순	-1254
▁재미없음	-1255
▁S	-1256
▁죄	-1257
▁CG	-1258
라면	-1259
▁그래서	-1260
▁기억이	-1261
보게	-1262
▁것을	-1263
▁있을	-1264
시키	-1265
▁알았	-1266
▁존나	-1267
▁보여주는	-1268
타지	-1269
▁장르	-1270
▁맛	-1271
지지	-1272
▁초딩	-1273
▁감동이	-1274
▁흔	-1275
겠지	-1276
년도	-1277
▁오글	-1278
▁비디오	-1279
▁갖	-1280
▁어렸	-1281
▁없어	-1282
▁네이버	-1283
보기	-1284
▁노잼	-1285
▁발연기	-1286
▁밖에	-1287
▁상황	-1288
▁어설픈	-1289
아이	-1290
재미있	-1291
린다	-1292
수준	-1293
이건	-1294
년이	-1295
한번	-1296
▁200	-1297
▁것도	-1298
▁느낄	-1299
ᄋᄋ	-1300
▁티비	-1301
▁재밌고	-1302
▁c	-1303
▁화려	-1304
스럽다	-1305
ood	-1306
▁인물	-1307
▁알게	-1308
▁s	-1309
▁한마디	-1310
▁사람들이	-1311
나온	-1312
든다	-1313
▁다음	-1314
이라면	-1315
려서	-1316
머니	-1317
▁바로	-1318
말고	-1319
▁대해	-1320
개도	-1321
연히	-1322
▁딸	-1323
그런	-1324
인의	-1325
▁시즌	-1326
▁이미	-1327
버지	-1328
론가	-1329
▁이것	-1330
▁영화였다	-1331
▁풍	-1332
다시	-1333
▁귀엽	-1334
▁쓰레기영화	-1335
▁다들	-1336
적이다	-1337
▁않다	-1338
▁....	-1339
편은	-1340
으면서	-1341
▁결말이	-1342
▁영화관에서	-1343
었고	-1344
짜리	-1345
잖아	-1346
▁등장	-1347
마지막	-1348
▁늘	-1349
▁트	-1350
거같	-1351
주세요	-1352
▁같아요	-1353
▁섹	-1354
▁송	-1355
완전	-1356
▁성룡	-1357
▁좋겠	-1358
▁ᄏᄏᄏᄏᄏᄏᄏᄏ	-1359
;;;;	-1360
▁테	-1361
감이	-1362
되고	-1363
▁생각보다	-1364
▁스토리는	-1365
다른	-1366
하하	-1367
▁30	-1368
▁독특	-1369
▁보니	-1370
▁애들	-1371
▁으	-1372
정이	-1373
▁보았	-1374
▁꼬	-1375
▁멍	-1376
▁감동적인	-1377
건데	-1378
스가	-1379
▁이후	-1380
▁잘봤	-1381
▁평가	-1382
▁킬링타임용	-1383
▁온	-1384
▁잘못	-1385
▁간만에	-1386
영화의	-1387
er	-1388
▁~	-1389
땜에	-1390
해라	-1391
▁두번	-1392
▁상당히	-1393
▁항	-1394
거야	-1395
▁ᄍᄍ	-1396
▁교훈	-1397
▁맘에	-1398
▁사회	-1399
▁훈	-1400
▁전부	-1401
어가	-1402
아깝다	-1403
▁생각을	-1404
여자	-1405
이팅	-1406
정도로	-1407
▁잔잔한	-1408
▁다운	-1409
▁아님	-1410
▁해서	-1411
▁영화임	-1412
▁그리	-1413
▁틀	-1414
▁?	-1415
▁직	-1416
아닌	-1417
▁높은	-1418
▁삼류	-1419
▁존재	-1420
▁여배우	-1421
▁했는데	-1422
분들	-1423
졌다	-1424
▁별점	-1425
스타	-1426
▁아쉽다	-1427
▁라	-1428
▁쓸	-1429
▁당신	-1430
▁좋은데	-1431
수를	-1432
중간	-1433
할때	-1434
▁거의	-1435
▁뭐야	-1436
▁마이	-1437
▁그대로	-1438
모르	-1439
여서	-1440
▁중간에	-1441
▁휴	-1442
거나	-1443
▁혼자	-1444
나오는	-1445
,.	-1446
▁세계	-1447
▁진정한	-1448
▁혹	-1449
워요	-1450
▁감동을	-1451
▁있을까	-1452
▁어울	-1453
▁정도로	-1454
▁배우들이	-1455
▁다르	-1456
▁윤	-1457
▁기다	-1458
보다는	-1459
▁재미는	-1460
하자	-1461
간다	-1462
▁소설	-1463
▁뭐지	-1464
▁같은데	-1465
▁굉장히	-1466
▁마음에	-1467
▁봐서	-1468
▁있지만	-1469
▁재미있어요	-1470
▁빵	-1471
본다	-1472
어나	-1473
▁하다	-1474
▁이영화를	-1475
▁평점을	-1476
▁슬픈	-1477
▁어른	-1478
에서도	-1479
였음	-1480
▁자기	-1481
▁저런	-1482
▁제가	-1483
▁100	-1484
▁영화인데	-1485
▁허무	-1486
▁나와서	-1487
▁보고싶	-1488
▁구성	-1489
▁실제	-1490
▁재미있는	-1491
시대	-1492
▁몇번	-1493
▁자연	-1494
▁볼만한	-1495
이게	-1496
▁멜로	-1497
▁재미있다	-1498
▁각본	-1499
▁준다	-1500
▁봤지만	-1501
▁재밌네요	-1502
댓글	-1503
들어	-1504
아야	-1505
▁잃	-1506
▁예상	-1507
을텐데	-1508
▁착	-1509
가고	-1510
▁나의	-1511
▁했다	-1512
................	-1513
라니	-1514
▁개그	-1515
었지만	-1516
영화다	-1517
▁권	-1518
▁밑	-1519
을수	-1520
▁압	-1521
▁볼수	-1522
▁좀비	-1523
지를	-1524
▁더욱	-1525
▁어쩌	-1526
하냐	-1527
▁낮은	-1528
▁O	-1529
에선	-1530
▁에로	-1531
▁질질	-1532
▁ᅳ	-1533
▁봣	-1534
▁쳐	-1535
에서는	-1536
▁흑	-1537
▁멋있	-1538
▁방송	-1539
▁이번	-1540
▁감독님	-1541
▁90	-1542
▁가치	-1543
음악	-1544
이트	-1545
▁극장판	-1546
▁생각하게	-1547
년전	-1548
랑스	-1549
▁뭐냐	-1550
▁믿고	-1551
▁빨리	-1552
▁(	-1553
▁듣	-1554
던가	-1555
다는게	-1556
▁빛	-1557
▁멋지	-1558
▁까	-1559
▁맨	-1560
예요	-1561
▁불편	-1562
▁있어서	-1563
와서	-1564
▁장면이	-1565
저히	-1566
▁끝나	-1567
▁예쁘	-1568
▁묘	-1569
▁운	-1570
일이	-1571
▁재미없는	-1572
▁갑자기	-1573
▁밀	-1574
시다	-1575
▁상영	-1576
때마다	-1577
▁봄	-1578
▁머리	-1579
▁항상	-1580
▁시청률	-1581
▁슈	-1582
▁겁	-1583
고는	-1584
기대	-1585
▁확실	-1586
▁TV	-1587
▁평범	-1588
▁판타지	-1589
▁써	-1590
인다	-1591
~!!	-1592
▁뭐가	-1593
▁여주	-1594
▁있어	-1595
▁중요	-1596
이라니	-1597
▁어디서	-1598
속에	-1599
-_-	-1600
▁원작을	-1601
리의	-1602
에겐	-1603
▁그녀	-1604
▁새로운	-1605
▁흥행	-1606
현실	-1607
▁봐라	-1608
▁예고	-1609
▁즐거	-1610
▁해도	-1611
▁자체가	-1612
▁탄탄	-1613
▁화면	-1614
▁평론가	-1615
내가	-1616
▁역대	-1617
▁있었다	-1618
▁벗	-1619
도록	-1620
,,,,	-1621
▁생각해	-1622
▁훌륭한	-1623
리티	-1624
사가	-1625
▁누구	-1626
▁못하는	-1627
▁크리스	-1628
▁너무너무	-1629
▁M	-1630
메디	-1631
▁만드	-1632
▁의도	-1633
보면서	-1634
▁빈	-1635
▁꿀잼	-1636
▁봤음	-1637
▁저는	-1638
▁필	-1639
▁처음부터	-1640
▁빌	-1641
러운	-1642
했어요	-1643
았음	-1644
하니	-1645
▁사람은	-1646
▁충분히	-1647
▁놓	-1648
▁회	-1649
남자	-1650
들아	-1651
하지않	-1652
▁있는데	-1653
▁향	-1654
▁흠	-1655
▁리얼	-1656
스럽고	-1657
▁그런지	-1658
▁영화보다	-1659
▁꺼	-1660
봐서	-1661
유의	-1662
▁아닐	-1663
▁가지고	-1664
▁이런영화	-1665
우드	-1666
▁돋보	-1667
▁성우	-1668
▁전형	-1669
▁그러나	-1670
▁대단한	-1671
▁보여주	-1672
스의	-1673
없어	-1674
립니다	-1675
코미디	-1676
▁왔	-1677
근데	-1678
▁tv	-1679
▁감성	-1680
▁된다	-1681
▁안타깝	-1682
▁없어서	-1683
▁살인	-1684
무리	-1685
이코	-1686
▁프랑스	-1687
▁능	-1688
거다	-1689
진진	-1690
▁비해	-1691
▁주인공이	-1692
▁그때	-1693
▁일단	-1694
▁개연성	-1695
▁분위기	-1696
았던	-1697
효과	-1698
▁점점	-1699
▁잘만들	-1700
당한	-1701
민국	-1702
조건	-1703
했고	-1704
▁한심	-1705
영화중	-1706
▁아닌가	-1707
▁합니다	-1708
in	-1709
▁헤	-1710
▁됐	-1711
으며	-1712
▁짝	-1713
▁good	-1714
▁ᄉ	-1715
▁금	-1716
▁맥	-1717
시리즈	-1718
들만	-1719
하지도	-1720
별로	-1721
최악	-1722
▁것은	-1723
▁순간	-1724
▁좋네요	-1725
웃음	-1726
지금	-1727
▁댓글	-1728
▁진행	-1729
▁아까움	-1730
기고	-1731
일까	-1732
▁검	-1733
▁급	-1734
신이	-1735
짜증	-1736
한게	-1737
▁더럽게	-1738
▁관람	-1739
▁나이	-1740
▁시절	-1741
▁201	-1742
▁쉽	-1743
▁몰랐	-1744
▁선택	-1745
▁소리	-1746
었으면	-1747
▁씨	-1748
처음	-1749
▁수가	-1750
▁식상	-1751
▁어려	-1752
▁헐리	-1753
아도	-1754
▁엉망	-1755
▁자극	-1756
만으로도	-1757
▁사람들은	-1758
되어	-1759
히려	-1760
▁없네	-1761
▁젊	-1762
조차	-1763
▁카메	-1764
▁엄청난	-1765
▁이영화는	-1766
▁섬	-1767
내는	-1768
봐야	-1769
사회	-1770
▁훈훈	-1771
▁한마디로	-1772
▁놈	-1773
▁루	-1774
편의	-1775
▁어쩔	-1776
▁그림	-1777
▁하게	-1778
▁홍콩	-1779
것같다	-1780
▁어릴때	-1781
애니	-1782
저씨	-1783
▁만족	-1784
▁참고	-1785
▁보는데	-1786
▁케이	-1787
촬영	-1788
하긴	-1789
어지는	-1790
▁그닥	-1791
▁여전	-1792
▁좋은영화	-1793
▁찌	-1794
▁다시봐도	-1795
인물	-1796
▁80	-1797
▁망작	-1798
▁참신	-1799
▁-_-	-1800
▁사랑을	-1801
▁안타까	-1802
▁짧	-1803
그러	-1804
▁가는	-1805
▁얘기	-1806
▁원래	-1807
▁감독은	-1808
▁아쉬운	-1809
▁묻	-1810
▁전개가	-1811
▁재밌는데	-1812
▁흥미진진	-1813
났다	-1814
이냐	-1815
추천	-1816
▁범죄	-1817
▁m	-1818
▁겨	-1819
▁뮤	-1820
▁승	-1821
파이	-1822
▁먹먹	-1823
▁줄거리	-1824
▁평점은	-1825
했습니다	-1826
▁페	-1827
대박	-1828
▁영웅	-1829
▁힘든	-1830
▁좋겠다	-1831
막장	-1832
▁이것도	-1833
▁재밌었다	-1834
▁깔	-1835
리게	-1836
▁진지	-1837
▁편집	-1838
▁지금까지	-1839
▁북	-1840
▁안나	-1841
▁안보	-1842
▁영화인	-1843
▁뜬	-1844
▁쓴	-1845
많은	-1846
이면	-1847
▁감상	-1848
▁그게	-1849
▁만점	-1850
▁멍청	-1851
▁자꾸	-1852
▁해야	-1853
//	-1854
방송	-1855
▁미안	-1856
하다고	-1857
▁따뜻한	-1858
▁모르고	-1859
.......	-1860
없네	-1861
▁나쁜	-1862
▁아빠	-1863
▁돈주고	-1864
▁인간의	-1865
▁창	-1866
▁대한민국	-1867
▁갔	-1868
년에	-1869
▁끝내	-1870
연출	-1871
▁결혼	-1872
지마라	-1873
하는거	-1874
▁무조건	-1875
만이	-1876
▁병맛	-1877
보세요	-1878
▁도저히	-1879
▁로맨틱	-1880
오는	-1881
▁불륜	-1882
▁액션도	-1883
▁오글거	-1884
▁후반부	-1885
▁a	-1886
▁법	-1887
겠네	-1888
당시	-1889
스런	-1890
시고	-1891
▁ᄃᄃ	-1892
▁물론	-1893
▁있음	-1894
그램	-1895
▁소중	-1896
▁죽음	-1897
▁진실	-1898
였는데	-1899
영화로	-1900
▁그래픽	-1901
▁우연히	-1902
하여	-1903
▁과거	-1904
메이크	-1905
시는	-1906
▁그럴	-1907
▁별루	-1908
▁좋음	-1909
▁학교	-1910
▁것이다	-1911
▁완벽한	-1912
▁평점에	-1913
ᄏᄏᄏᄏᄏᄏᄏᄏᄏᄏᄏᄏᄏᄏᄏᄏ	-1914
▁대작	-1915
▁웃긴	-1916
▁골	-1917
어로	-1918
이하	-1919
▁아버지	-1920
▁억지로	-1921
▁기대하고	-1922
▁좋았어요	-1923
님의	-1924
영상	-1925
▁알려	-1926
▁이리	-1927
▁초등	-1928
▁있다는	-1929
▁괜히	-1930
▁친	-1931
▁전설	-1932
▁최근	-1933
▁무서운	-1934
▁안된다	-1935
▁d	-1936
우는	-1937
▁가볍	-1938
▁바보	-1939
▁저질	-1940
▁배우가	-1941
▁넣	-1942
명작	-1943
자의	-1944
▁없을	-1945
▁희망	-1946
▁봤네요	-1947
▁오히려	-1948
▁핵	-1949
랄까	-1950
스를	-1951
▁가능	-1952
▁미화	-1953
▁느끼게	-1954
▁스타일	-1955
▁없네요	-1956
▁견	-1957
움이	-1958
▁깜	-1959
따위	-1960
실망	-1961
▁느꼈	-1962
▁천재	-1963
▁환상	-1964
것이다	-1965
▁이야기를	-1966
것은	-1967
내고	-1968
함과	-1969
▁되어	-1970
▁하면	-1971
▁내인생	-1972
님이	-1973
▁바람	-1974
▁사라	-1975
▁요소	-1976
▁목소리	-1977
였습니다	-1978
▁전형적인	-1979
봐라	-1980
▁흘러	-1981
▁줘	-1982
있게	-1983
▁분명	-1984
▁유명	-1985
▁어설프	-1986
▁완성도	-1987
ST	-1988
공포	-1989
▁SF	-1990
▁메세	-1991
▁설명	-1992
안되는	-1993
▁모르는	-1994
▁재미없어	-1995
.5	-1996
▁덕	-1997
▁독립	-1998
▁바라	-1999
▁신기	-2000
▁죽는	-2001
그래도	-2002
▁예전에	-2003
▁듯한	-2004
▁전기	-2005
하는게	-2006
대의	-2007
작가	-2008
▁나쁘	-2009
▁낫다	-2010
▁동화	-2011
▁싫어	-2012
▁잊혀	-2013
▁유치한	-2014
▁만들었다	-2015
▁아무것도	-2016
심을	-2017
지게	-2018
프로	-2019
▁복수	-2020
▁나라	-2021
▁유머	-2022
보다가	-2023
▁입니다	-2024
리다	-2025
예산	-2026
인간	-2027
▁다행	-2028
같은데	-2029
▁이런거	-2030
▁웃겨	-2031
▁저도	-2032
▁전달	-2033
보는데	-2034
▁알았다	-2035
▁지루해	-2036
▁영화에서	-2037
네여	-2038
심이	-2039
▁!!	-2040
▁노출	-2041
▁코메디	-2042
▁노력	-2043
▁연출이	-2044
웠던	-2045
▁인정	-2046
▁전문	-2047
안하고	-2048
▁연출력	-2049
▁화이팅	-2050
▁리메이크	-2051
▁아이들이	-2052
▁처음으로	-2053
식이	-2054
평가	-2055
▁서로	-2056
▁돈이	-2057
▁성장	-2058
▁전작	-2059
▁즐겁	-2060
▁어렸을때	-2061
▁재미있고	-2062
--	-2063
나면	-2064
편을	-2065
▁영원	-2066
▁이러	-2067
▁허술	-2068
▁모습이	-2069
▁놀라	-2070
▁우울	-2071
▁중반	-2072
▁풀어	-2073
됩니다	-2074
최고의	-2075
▁비슷한	-2076
▁이상한	-2077
▁알았는데	-2078
▁끼	-2079
▁멀	-2080
세가	-2081
자들	-2082
▁뜬금	-2083
▁ost	-2084
▁지금도	-2085
▁촌	-2086
기엔	-2087
어울	-2088
역시	-2089
▁장면은	-2090
▁재미없고	-2091
▁탈	-2092
▁팔	-2093
아먹	-2094
▁관계	-2095
▁말고	-2096
▁아오	-2097
▁촬영	-2098
많이	-2099
화가	-2100
▁경찰	-2101
▁아프	-2102
▁청춘	-2103
▁앞으로	-2104
▁재밌어	-2105
▁합	-2106
▁현재	-2107
▁다운받	-2108
▁좋았습니다	-2109
he	-2110
▁찬	-2111
분이	-2112
점준	-2113
▁게임	-2114
▁중에	-2115
▁행동	-2116
더군요	-2117
리아	-2118
반전	-2119
▁거지	-2120
▁깊은	-2121
▁부모	-2122
봅니다	-2123
▁말하고	-2124
▁부족한	-2125
▁작품이	-2126
▁D	-2127
고싶	-2128
줄알	-2129
ᅲᅲᅲ	-2130
만하면	-2131
▁보여준	-2132
▁특유의	-2133
▁유치하고	-2134
▁영화였습니다	-2135
▁워	-2136
▁이런걸	-2137
▁화려한	-2138
▁면	-2139
대사	-2140
스로	-2141
▁그의	-2142
▁아마	-2143
재밌게	-2144
▁왜이리	-2145
▁스토리에	-2146
?)	-2147
르고	-2148
소한	-2149
하겠	-2150
드가	-2151
만의	-2152
무슨	-2153
였던	-2154
▁하는데	-2155
▁보고나서	-2156
강추	-2157
▁라는	-2158
▁못보	-2159
영화에	-2160
▁같네요	-2161
인거	-2162
▁좋았고	-2163
자는	-2164
치게	-2165
▁가득	-2166
▁명작이다	-2167
▁최악이다	-2168
▁그려	-2169
▁만큼	-2170
▁사건	-2171
▁이어	-2172
▁ᄒᄒᄒ	-2173
▁류	-2174
▁학	-2175
▁피해	-2176
하면서도	-2177
▁너무나도	-2178
▁무엇보다	-2179
▁증	-2180
그라	-2181
▁어렵	-2182
▁이야기가	-2183
▁전체적으로	-2184
▁그렇고	-2185
▁나에게	-2186
▁잘만든	-2187
▁아니지만	-2188
▁재밌었어요	-2189
던지	-2190
분에	-2191
▁먼저	-2192
▁해피	-2193
▁진부한	-2194
▁시간낭비	-2195
감을	-2196
물이	-2197
자를	-2198
▁누군	-2199
▁또한	-2200
▁뭔지	-2201
▁스케	-2202
아니고	-2203
▁마음을	-2204
▁ᅮ	-2205
려면	-2206
인은	-2207
▁그랬	-2208
▁돌려	-2209
▁비추	-2210
▁여성	-2211
▁지난	-2212
배우들	-2213
점준다	-2214
▁만들지	-2215
▁모습을	-2216
▁플	-2217
걸까	-2218
극장	-2219
마저	-2220
인을	-2221
해주	-2222
▁않을	-2223
▁잘생	-2224
▁아닐까	-2225
▁힐	-2226
가요	-2227
개봉	-2228
놓은	-2229
져서	-2230
~^^	-2231
▁본다	-2232
▁드라마가	-2233
▁생각한다	-2234
상을	-2235
세계	-2236
정을	-2237
지못	-2238
▁애들이	-2239
▁뒷	-2240
▁응	-2241
▁접	-2242
리에	-2243
▁귀신	-2244
▁왠지	-2245
었네요	-2246
▁반전이	-2247
▁않았다	-2248
▁드라마를	-2249
기다	-2250
기억	-2251
다운	-2252
▁어찌	-2253
▁귀여운	-2254
▁부분이	-2255
▁여자가	-2256
▁영화중에	-2257
▁짐	-2258
번째	-2259
보이	-2260
▁삶을	-2261
▁성공	-2262
▁자유	-2263
사람이	-2264
시간이	-2265
하는지	-2266
한다는	-2267
▁월	-2268
었나	-2269
좋다	-2270
▁12	-2271
▁안맞	-2272
▁이래	-2273
▁정치	-2274
▁그런데	-2275
▁못하고	-2276
▁이런게	-2277
▁인상깊	-2278
▁자신의	-2279
로는	-2280
좋고	-2281
▁나만	-2282
▁마치	-2283
▁않음	-2284
▁졸라	-2285
이에요	-2286
▁안나오	-2287
▁대단하다	-2288
▁매력적인	-2289
▁영화이다	-2290
▁왜이렇게	-2291
▁이영화가	-2292
or	-2293
▁춤	-2294
로서	-2295
한듯	-2296
▁cg	-2297
봤어요	-2298
▁잘봤습니다	-2299
▁다소	-2300
수있는	-2301
였어요	-2302
해주는	-2303
▁좋았음	-2304
모습	-2305
일뿐	-2306
▁15	-2307
▁미래	-2308
▁밑에	-2309
▁이연	-2310
▁조연	-2311
있는데	-2312
했으면	-2313
▁해주는	-2314
▁같습니다	-2315
▁샤	-2316
▁얻	-2317
▁퍼	-2318
마음	-2319
이제	-2320
▁가끔	-2321
▁남아	-2322
▁사이	-2323
▁알겠	-2324
▁이젠	-2325
▁소재는	-2326
▁제작비	-2327
▁보고싶은	-2328
알바	-2329
장이	-2330
절한	-2331
▁눈을	-2332
▁메시	-2333
▁실패	-2334
▁나온다	-2335
▁사랑이	-2336
▁케이블	-2337
▁뜨	-2338
아아	-2339
이해	-2340
할듯	-2341
▁러브	-2342
▁심리	-2343
▁아는	-2344
▁취향	-2345
면서도	-2346
▁별로다	-2347
▁허접한	-2348
성애	-2349
..?	-2350
▁나를	-2351
▁나머	-2352
▁황당	-2353
▁느껴지는	-2354
▁논	-2355
▁늙	-2356
내요	-2357
새끼	-2358
스릴	-2359
심히	-2360
▁낭비	-2361
▁눈이	-2362
▁드는	-2363
▁미소	-2364
나온다	-2365
▁감동적	-2366
▁있었던	-2367
▁확실히	-2368
ᄏᄏᄏᄏᄏ	-2369
▁지금봐도	-2370
수도	-2371
특히	-2372
▁;;	-2373
▁짱짱	-2374
지도않	-2375
.2	-2376
▁다가	-2377
▁외국	-2378
▁철학	-2379
점짜리	-2380
▁카메라	-2381
▁좋았는데	-2382
가족	-2383
발이	-2384
▁알아	-2385
만으로	-2386
사람들	-2387
▁감사합니다	-2388
▁웬	-2389
한건	-2390
▁와닿	-2391
닝타임	-2392
▁심심	-2393
스럽게	-2394
스는	-2395
시켜	-2396
▁감탄	-2397
▁아놔	-2398
▁한계	-2399
▁내용을	-2400
▁사람을	-2401
▁어린이	-2402
▁프로그램	-2403
▁짓	-2404
소재	-2405
움을	-2406
▁고민	-2407
▁나서	-2408
▁했지만	-2409
▁보지마세요	-2410
▁:	-2411
어라	-2412
었을	-2413
저럭	-2414
▁아닌데	-2415
▁저예산	-2416
▁스토리와	-2417
보여	-2418
사는	-2419
▁느낀	-2420
▁든다	-2421
▁맞는	-2422
▁예전	-2423
▁의외	-2424
없어서	-2425
▁아니면	-2426
▁짜증나	-2427
▁스토리를	-2428
▁아름답고	-2429
▁끊	-2430
순간	-2431
지컬	-2432
쩐다	-2433
터리	-2434
▁넘어	-2435
하세요	-2436
▁OST	-2437
▁나오고	-2438
▁어이없는	-2439
▁처음이다	-2440
▁곳	-2441
▁젤	-2442
더만	-2443
▁시도	-2444
▁여전히	-2445
▁예고편	-2446
▁영화지만	-2447
▁감동적이고	-2448
려다	-2449
명이	-2450
▁같음	-2451
▁대충	-2452
▁이하	-2453
▁젊은	-2454
지않는	-2455
▁영화보고	-2456
니아	-2457
▁예쁜	-2458
▁유일	-2459
▁화가	-2460
도없고	-2461
▁감정이	-2462
대가	-2463
▁해준	-2464
▁소재를	-2465
▁연기에	-2466
▁밤	-2467
되지	-2468
소년	-2469
▁글쎄	-2470
▁했던	-2471
퀄리티	-2472
▁슬프다	-2473
▁A	-2474
▁씁	-2475
▁엑	-2476
거냐	-2477
말로	-2478
(?)	-2479
▁ᄉᄇ	-2480
▁오락	-2481
럭저럭	-2482
하기만	-2483
▁그들의	-2484
▁보이는	-2485
▁난다	-2486
이렇게	-2487
▁끝나고	-2488
▁세상에	-2489
▁아저씨	-2490
▁액션이	-2491
▁어색한	-2492
▁제작진	-2493
▁중간중간	-2494
▁딴	-2495
럽다	-2496
해보	-2497
▁사극	-2498
▁해주	-2499
식으로	-2500
▁독특한	-2501
▁유쾌한	-2502
▁ᄏᄏᄏᄏᄏ	-2503
▁꼴	-2504
▁붙	-2505
있네	-2506
▁리뷰	-2507
▁종교	-2508
더라도	-2509
▁어이가	-2510
과는	-2511
▁겁나	-2512
▁남주	-2513
▁일어	-2514
▁찍은	-2515
영화도	-2516
▁역시나	-2517
▁이유가	-2518
▁드라마는	-2519
▁떨어지는	-2520
▁꾸	-2521
▁가서	-2522
▁굳이	-2523
▁하루	-2524
▁호러	-2525
만드는	-2526
▁기대를	-2527
▁매력이	-2528
▁보는게	-2529
▁흥미롭	-2530
▁까지	-2531
▁용서	-2532
하다는	-2533
▁재미를	-2534
▁쩔	-2535
겟다	-2536
구려	-2537
무서	-2538
▁그럼	-2539
하지마	-2540
▁아까워	-2541
▁짜증나는	-2542
▁G	-2543
다지	-2544
있음	-2545
티비	-2546
했을	-2547
ᄒᄒᄒ	-2548
▁과연	-2549
▁이기	-2550
▁적당	-2551
▁남는다	-2552
았습니다	-2553
▁아름답다	-2554
▁하나하나	-2555
나올	-2556
서야	-2557
▁굿굿	-2558
▁내생	-2559
▁마라	-2560
▁조폭	-2561
▁한편	-2562
있어요	-2563
▁재미있음	-2564
▁+	-2565
▁녹	-2566
▁폐	-2567
대는	-2568
사를	-2569
하던	-2570
▁기본	-2571
▁슬픔	-2572
▁시선	-2573
▁연애	-2574
▁통해	-2575
▁그런가	-2576
▁싸이코	-2577
▁있다면	-2578
▁그럭저럭	-2579
▁연기력이	-2580
▁<	-2581
끼리	-2582
들고	-2583
유치	-2584
으론	-2585
▁라이	-2586
▁연예	-2587
▁특별	-2588
았어요	-2589
▁액션은	-2590
▁영화냐	-2591
▁주인공의	-2592
▁겉	-2593
▁풋	-2594
▁헛	-2595
▁보러	-2596
▁블랙	-2597
▁살짝	-2598
▁시원	-2599
▁역할	-2600
▁평생	-2601
보고싶	-2602
지네요	-2603
▁기분이	-2604
▁나왔으면	-2605
▁보고싶다	-2606
▁씬	-2607
리도	-2608
먹고	-2609
펑펑	-2610
▁사는	-2611
▁전에	-2612
▁봤다가	-2613
▁전기세가	-2614
▁w	-2615
▁돼	-2616
디어	-2617
와르	-2618
위해	-2619
▁가진	-2620
▁모자	-2621
버렸다	-2622
▁순수한	-2623
▁안되고	-2624
▁평범한	-2625
시아	-2626
할까	-2627
화를	-2628
▁미스	-2629
▁전편	-2630
에서의	-2631
▁어릴적	-2632
결말	-2633
레스	-2634
른다	-2635
상이	-2636
즈니	-2637
트가	-2638
▁분노	-2639
▁섹시	-2640
▁채널	-2641
이라서	-2642
한다면	-2643
▁소름끼	-2644
▁볼때마다	-2645
▁사랑하는	-2646
▁생각합니다	-2647
▁밥	-2648
나이	-2649
었어	-2650
주얼	-2651
▁슈퍼	-2652
지않은	-2653
▁보기엔	-2654
▁안하고	-2655
▁재밋게	-2656
▁저렇게	-2657
▁봤었는데	-2658
▁I	-2659
기로	-2660
씨가	-2661
었네	-2662
▁결론	-2663
▁고전	-2664
▁깔끔	-2665
▁다만	-2666
▁산만	-2667
▁상처	-2668
▁소녀	-2669
▁후속	-2670
▁귀엽고	-2671
▁연기와	-2672
**	-2673
ou	-2674
▁짠	-2675
▁칼	-2676
아라	-2677
▁안됨	-2678
▁올라	-2679
▁포장	-2680
으로서	-2681
▁소름돋	-2682
▁티비에서	-2683
▁재밌었는데	-2684
▁뭉	-2685
▁밝	-2686
▁십	-2687
▁톰	-2688
듯이	-2689
원이	-2690
▁레이	-2691
▁영환	-2692
▁되었다	-2693
▁작품성	-2694
▁진심으로	-2695
▁쇼	-2696
는가	-2697
안되	-2698
▁개판	-2699
▁스트	-2700
▁볼만함	-2701
▁사랑에	-2702
▁없지만	-2703
▁재밌습니다	-2704
an	-2705
까진	-2706
▁무지	-2707
▁자막	-2708
구하고	-2709
하려는	-2710
▁공감이	-2711
▁몰입이	-2712
▁보시길	-2713
▁수준이	-2714
▁지루하지	-2715
▁추천합니다	-2716
▁덜	-2717
▁침	-2718
기의	-2719
돌아	-2720
▁고생	-2721
▁무협	-2722
▁부끄	-2723
▁비극	-2724
▁압권	-2725
▁사랑과	-2726
▁음악이	-2727
▁잼있게	-2728
▁격	-2729
걸로	-2730
나가	-2731
래기	-2732
오빠	-2733
이유	-2734
▁흐름	-2735
평점이	-2736
▁다큐멘	-2737
▁말이필요	-2738
▁재밌었음	-2739
▁축	-2740
▁깊이	-2741
▁나타	-2742
▁난해	-2743
▁아침	-2744
▁신선한	-2745
▁있습니다	-2746
무비	-2747
었지	-2748
이터	-2749
줌마	-2750
▁그지	-2751
▁놀랍	-2752
▁힐링	-2753
▁볼수록	-2754
▁오그라	-2755
▁이건뭐	-2756
더라구요	-2757
▁만들어진	-2758
▁필요없는	-2759
bb	-2760
▁썩	-2761
아주	-2762
어진	-2763
이의	-2764
▁되게	-2765
연기도	-2766
▁마무리	-2767
▁추억의	-2768
!!!!!	-2769
나와	-2770
제목	-2771
한국	-2772
▁거짓	-2773
▁몸매	-2774
▁수도	-2775
▁스포	-2776
버리고	-2777
▁가볍게	-2778
▁그렇다	-2779
▁뮤지컬	-2780
▁어렸을	-2781
▁현실을	-2782
▁엘	-2783
같음	-2784
명의	-2785
무섭	-2786
▁미치	-2787
▁아련	-2788
▁오버	-2789
▁전투	-2790
했다는	-2791
▁더이상	-2792
▁상상력	-2793
▁재미없네	-2794
20	-2795
▁꼽	-2796
▁징	-2797
들에	-2798
따라	-2799
봤음	-2800
▁눈빛	-2801
▁사기	-2802
▁재난	-2803
▁감동과	-2804
▁시간을	-2805
▁열심히	-2806
▁등장인물	-2807
▁좋습니다	-2808
물을	-2809
버렸	-2810
이크	-2811
진심	-2812
쵝오	-2813
▁포기	-2814
▁표절	-2815
▁형편	-2816
연기가	-2817
▁소재로	-2818
▁이유는	-2819
▁정말로	-2820
?!	-2821
▁잇	-2822
▁챙	-2823
▁활	-2824
가능	-2825
시킨	-2826
▁동생	-2827
▁막판	-2828
▁불쾌	-2829
▁일상	-2830
▁있나	-2831
▁크게	-2832
▁표정	-2833
▁희생	-2834
년전에	-2835
▁배우의	-2836
▁소재가	-2837
▁처음엔	-2838
웠음	-2839
▁남녀	-2840
▁되고	-2841
▁보시	-2842
▁정서	-2843
▁좋을	-2844
▁폭력	-2845
점주는	-2846
▁슬프고	-2847
▁아닌듯	-2848
▁이정도면	-2849
▁해피엔딩	-2850
99	-2851
▁쉬	-2852
라스	-2853
리기	-2854
이니	-2855
▁군대	-2856
▁부터	-2857
▁설레	-2858
▁어제	-2859
▁스케일	-2860
▁우리가	-2861
▁하네요	-2862
▁농	-2863
그렇	-2864
표현	-2865
▁감명	-2866
▁같아	-2867
▁북한	-2868
▁이때	-2869
▁태어	-2870
▁현대	-2871
▁홍보	-2872
▁봤으면	-2873
▁던	-2874
겹다	-2875
느라	-2876
만화	-2877
전쟁	-2878
정신	-2879
지말	-2880
친다	-2881
한것	-2882
▁그립	-2883
▁심각	-2884
▁이루	-2885
▁조잡	-2886
속에서	-2887
재미없	-2888
▁제목이	-2889
▁맡	-2890
▁윌	-2891
가가	-2892
류의	-2893
수는	-2894
의미	-2895
▁드러	-2896
▁말을	-2897
▁쉽게	-2898
▁싫다	-2899
▁쓸데	-2900
▁없나	-2901
▁끝나는	-2902
▁디즈니	-2903
▁이연걸	-2904
▁퀄리티	-2905
▁필요한	-2906
영화라고	-2907
재밌어요	-2908
▁생각나는	-2909
▁i	-2910
▁몽	-2911
아님	-2912
지의	-2913
해준	-2914
▁그린	-2915
▁떠나	-2916
▁악역	-2917
까지는	-2918
지않고	-2919
하시는	-2920
▁그다지	-2921
▁뛰어난	-2922
▁연출도	-2923
▁지루해서	-2924
줘서	-2925
▁강렬	-2926
▁김기	-2927
▁말로	-2928
▁반성	-2929
▁혹시	-2930
좋아요	-2931
캐릭터	-2932
▁멋지다	-2933
▁반전도	-2934
▁아이들	-2935
▁음악도	-2936
재미없다	-2937
▁잤	-2938
▁줬	-2939
▁쩌	-2940
나왔	-2941
르노	-2942
우리	-2943
▁건지	-2944
▁두고	-2945
▁삶의	-2946
▁아나	-2947
▁만들고	-2948
▁좋았던	-2949
▁ᄌ	-2950
거운	-2951
도가	-2952
와는	-2953
▁40	-2954
▁선생	-2955
▁악당	-2956
▁이쁜	-2957
▁인터	-2958
거리는	-2959
아까운	-2960
하다가	-2961
▁봐야할	-2962
▁여기서	-2963
▁필요없다	-2964
▁재미있네요	-2965
▁늦	-2966
▁뜻	-2967
안에	-2968
엄마	-2969
이자	-2970
히는	-2971
▁ᄋᄋ	-2972
▁새벽	-2973
▁싶어	-2974
▁의문	-2975
▁의심	-2976
▁있지	-2977
보는게	-2978
사람은	-2979
장면이	-2980
겼다	-2981
구니	-2982
자단	-2983
▁나은	-2984
▁스티	-2985
▁역겨	-2986
▁오랫	-2987
▁있게	-2988
▁평이	-2989
▁풋풋	-2990
▁몇번을	-2991
▁비주얼	-2992
▁재밌네	-2993
▁액션영화	-2994
▁익	-2995
있어	-2996
▁그것	-2997
▁말할	-2998
▁무시	-2999
▁보이	-3000
▁지구	-3001
봣는데	-3002
,2	-3003
.1	-3004
▁뇌	-3005
트콤	-3006
▁라고	-3007
수없는	-3008
영화라	-3009
▁사람의	-3010
감도	-3011
두고	-3012
자고	-3013
중의	-3014
해진	-3015
▁가까	-3016
▁받아	-3017
▁벌써	-3018
▁소장	-3019
▁죄다	-3020
▁지금은	-3021
▁초반에	-3022
▁재미있었다	-3023
독교	-3024
▁않게	-3025
▁외계	-3026
▁통쾌	-3027
▁펑펑	-3028
인가요	-3029
▁결말도	-3030
▁언제나	-3031
▁뉴	-3032
▁닥	-3033
▁컨	-3034
란다	-3035
시에	-3036
이를	-3037
이며	-3038
하려	-3039
▁니콜	-3040
▁동물	-3041
▁스크	-3042
▁씁쓸	-3043
하기도	-3044
▁인생을	-3045
ad	-3046
▁체	-3047
▁퇴	-3048
관계	-3049
밋밋	-3050
을거	-3051
한지	-3052
▁국민	-3053
▁나가	-3054
▁능력	-3055
▁둘다	-3056
▁올해	-3057
▁나중에	-3058
▁몰라도	-3059
▁싸구려	-3060
▁하면서	-3061
re	-3062
▁끄	-3063
▁찡	-3064
불가	-3065
수의	-3066
식을	-3067
오글	-3068
이후	-3069
피소	-3070
▁그걸	-3071
감독이	-3072
영화임	-3073
자체가	-3074
▁드럽게	-3075
▁이해할	-3076
▁좋아서	-3077
on	-3078
그인	-3079
점주	-3080
▁광고	-3081
▁깨닫	-3082
▁발전	-3083
▁성인	-3084
▁일반	-3085
▁"""	-3086
▁연기자	-3087
▁있어요	-3088
▁다시한번	-3089
▁불구하고	-3090
▁끔	-3091
▁좌	-3092
가락	-3093
일본	-3094
줘야	-3095
찝찝	-3096
하신	-3097
▁뒤로	-3098
▁분들	-3099
▁속편	-3100
▁에휴	-3101
▁일부	-3102
▁어려운	-3103
▁웃기고	-3104
▁인생의	-3105
▁영화라는	-3106
▁나옴	-3107
▁남을	-3108
▁무언	-3109
▁방금	-3110
▁섬세	-3111
▁죽여	-3112
▁결말은	-3113
▁누구나	-3114
▁이제야	-3115
▁영화보는	-3116
▁헐리우드	-3117
▁쪽	-3118
▁흡	-3119
괜찮	-3120
나도	-3121
버리	-3122
작이	-3123
하셨	-3124
007	-3125
▁생애	-3126
▁시각	-3127
▁이뻐	-3128
▁할말	-3129
▁낮아서	-3130
▁단순한	-3131
▁떠나서	-3132
▁마이너	-3133
▁시사회	-3134
▁어머니	-3135
▁엉성한	-3136
봤습니다	-3137
▁일본영화	-3138
▁현실적인	-3139
▁폴	-3140
▁푹	-3141
로도	-3142
마스	-3143
봐요	-3144
이션	-3145
져요	-3146
학년	-3147
▁괴물	-3148
▁단연	-3149
▁시걸	-3150
▁신경	-3151
▁않아	-3152
▁에이	-3153
▁연결	-3154
▁좀더	-3155
더라면	-3156
랍니다	-3157
아니다	-3158
▁느낌을	-3159
▁납	-3160
▁움	-3161
사의	-3162
우고	-3163
하구	-3164
▁살다	-3165
▁아픔	-3166
아까워	-3167
▁모든게	-3168
▁못했다	-3169
▁냉	-3170
▁쌍	-3171
드의	-3172
성에	-3173
함에	-3174
▁70	-3175
▁고등	-3176
▁본방	-3177
▁존경	-3178
▁쵝오	-3179
겠네요	-3180
한다고	-3181
▁베스트	-3182
▁산으로	-3183
▁점수를	-3184
▁청소년	-3185
▁그렇다고	-3186
▁영화에요	-3187
▁사랑스러운	-3188
▁^	-3189
▁f	-3190
▁줌	-3191
겠음	-3192
눈물	-3193
만점	-3194
아가	-3195
000	-3196
▁고통	-3197
▁되지	-3198
▁우주	-3199
▁하이	-3200
내용도	-3201
아니라	-3202
었는지	-3203
했는지	-3204
▁마세요	-3205
▁무엇을	-3206
▁뻔하고	-3207
▁시대를	-3208
▁지루할	-3209
▁생각없이	-3210
▁ᄋ	-3211
▁잭	-3212
계속	-3213
남는	-3214
여운	-3215
▁18	-3216
▁때문	-3217
▁밋밋	-3218
▁시시	-3219
▁왜케	-3220
▁특수	-3221
하려고	-3222
▁옛날에	-3223
▁좋아할	-3224
▁아직까지	-3225
봤던	-3226
불어	-3227
하라	-3228
▁대표	-3229
▁많다	-3230
▁생생	-3231
▁외모	-3232
▁전반	-3233
▁한데	-3234
처구니	-3235
...?	-3236
▁눈물을	-3237
▁이따위	-3238
▁있어야	-3239
."	-3240
▁쥐	-3241
았고	-3242
▁잊을	-3243
재밌다	-3244
하다니	-3245
▁견자단	-3246
▁없는데	-3247
▁있네요	-3248
▁작가가	-3249
▁정신병	-3250
배우들의	-3251
▁생각하고	-3252
▁꽝	-3253
계의	-3254
시작	-3255
인들	-3256
으로써	-3257
▁느와르	-3258
▁싶네요	-3259
▁없다는	-3260
▁출연진	-3261
▁볼만하다	-3262
▁기대안하고	-3263
at	-3264
답답	-3265
도안	-3266
애들	-3267
▁끝난	-3268
▁다니	-3269
▁발로	-3270
▁울고	-3271
아까움	-3272
캐스팅	-3273
▁쓰래기	-3274
▁이거보고	-3275
▁싱	-3276
따구	-3277
만드	-3278
했네	-3279
▁놀랐	-3280
▁다양	-3281
▁바뀌	-3282
▁복잡	-3283
▁아들	-3284
스릴러	-3285
▁느끼는	-3286
▁로그인	-3287
▁스스로	-3288
▁하는지	-3289
▁잔잔하고	-3290
▁빡	-3291
거임	-3292
에만	-3293
온다	-3294
▁내려	-3295
▁무비	-3296
▁볼게	-3297
▁슬퍼	-3298
겠어요	-3299
봤지만	-3300
▁대부분	-3301
▁만든다	-3302
▁보니까	-3303
▁보았다	-3304
▁에피소	-3305
▁이쁘고	-3306
▁러닝타임	-3307
▁시간가는	-3308
▁앤	-3309
▁흉	-3310
과의	-3311
되서	-3312
럽고	-3313
부족	-3314
▁맨날	-3315
▁명품	-3316
▁못할	-3317
▁살고	-3318
▁섹스	-3319
▁타임	-3320
가지고	-3321
아버지	-3322
였지만	-3323
▁봣는데	-3324
▁사랑의	-3325
▁의미를	-3326
▁즐겁게	-3327
▁탄탄한	-3328
▁할말이	-3329
▁배우들도	-3330
BS	-3331
▁푸	-3332
♡♡	-3333
간의	-3334
거면	-3335
노래	-3336
셔서	-3337
씬은	-3338
이로	-3339
장난	-3340
▁거기	-3341
▁빼고	-3342
▁상업	-3343
집니다	-3344
▁ᅲᅲᅲ	-3345
▁않지만	-3346
▁있으면	-3347
▁닮	-3348
로우	-3349
소설	-3350
지어	-3351
▁높다	-3352
▁문화	-3353
▁민망	-3354
▁반복	-3355
▁발견	-3356
▁인도	-3357
▁찝찝	-3358
리스마	-3359
▁남자가	-3360
▁시트콤	-3361
▁아쉬움	-3362
▁집에서	-3363
▁쓰레기다	-3364
.4	-3365
▁뽑	-3366
▁쫌	-3367
석이	-3368
성은	-3369
아프	-3370
▁50	-3371
▁검색	-3372
▁딱히	-3373
▁떠오	-3374
▁뭉클	-3375
▁안돼	-3376
▁연속	-3377
▁은근	-3378
줍니다	-3379
▁아이돌	-3380
▁작품을	-3381
▁재밋다	-3382
▁헐리웃	-3383
▁다시보고	-3384
▁신선하고	-3385
▁떡	-3386
나옴	-3387
어주	-3388
호가	-3389
"""	-3390
▁극치	-3391
▁남겨	-3392
▁동안	-3393
▁먹고	-3394
▁묘사	-3395
▁영국	-3396
▁코난	-3397
▁편견	-3398
갈수록	-3399
시키는	-3400
았지만	-3401
으니까	-3402
▁김기덕	-3403
▁더러운	-3404
▁말하는	-3405
▁본영화	-3406
▁비현실	-3407
▁사랑은	-3408
▁안보고	-3409
▁울었다	-3410
▁전문가	-3411
날때	-3412
저도	-3413
제작	-3414
트맨	-3415
▁가져	-3416
▁공부	-3417
▁눈에	-3418
▁단지	-3419
▁아류	-3420
▁작은	-3421
▁주변	-3422
▁한참	-3423
차라리	-3424
▁대사가	-3425
▁덕분에	-3426
▁빠져들	-3427
▁어처구니	-3428
▁영화인듯	-3429
▁이런영화가	-3430
ar	-3431
려요	-3432
씨의	-3433
쳐서	-3434
편도	-3435
ver	-3436
▁거슬	-3437
▁경험	-3438
▁국내	-3439
▁무척	-3440
▁믿을	-3441
▁속에	-3442
▁지켜	-3443
▁흔한	-3444
급영화	-3445
▁같아서	-3446
▁멍청한	-3447
▁본다면	-3448
▁아깝지	-3449
▁작품이다	-3450
▁기대했는데	-3451
▁재미없어요	-3452
▁최고입니다	-3453
~~~~~~~~	-3454
▁E	-3455
▁꽃	-3456
▁멘	-3457
▁섞	-3458
나다	-3459
받고	-3460
양이	-3461
인트	-3462
ing	-3463
▁갈등	-3464
▁과장	-3465
▁노답	-3466
▁신파	-3467
▁우와	-3468
거같다	-3469
스러움	-3470
에대한	-3471
재밌음	-3472
▁의외로	-3473
▁표현한	-3474
▁긴장감도	-3475
▁아쉽네요	-3476
▁지루하게	-3477
▁영화였어요	-3478
ll	-3479
가를	-3480
영이	-3481
▁다룬	-3482
▁불러	-3483
▁쩐다	-3484
▁최강	-3485
▁허세	-3486
내용이	-3487
▁남자의	-3488
▁생각나	-3489
▁영화들	-3490
▁몰입해서	-3491
▁장면에서	-3492
ie	-3493
관이	-3494
아직	-3495
우기	-3496
▁새롭	-3497
▁어휴	-3498
▁찌질	-3499
▁007	-3500
▁기독교	-3501
▁더불어	-3502
▁안타깝다	-3503
bs	-3504
리언	-3505
이스	-3506
쳤다	-3507
하진	-3508
▁11	-3509
▁관심	-3510
▁끌어	-3511
▁높아	-3512
▁바꿔	-3513
▁어우	-3514
▁조합	-3515
▁직접	-3516
비디오	-3517
용으로	-3518
▁마이클	-3519
▁위대한	-3520
▁독립영화	-3521
▁모르겠고	-3522
▁업	-3523
만을	-3524
설정	-3525
키는	-3526
▁미모	-3527
▁세월	-3528
▁제이	-3529
▁죽은	-3530
▁the	-3531
▁게다가	-3532
▁음악과	-3533
▁이후로	-3534
▁히어로	-3535
♥♥♥♥	-3536
▁따뜻해지는	-3537
▁사랑이야기	-3538
▁쿠	-3539
냐고	-3540
제가	-3541
제발	-3542
▁망쳐	-3543
▁보길	-3544
▁아역	-3545
▁우정	-3546
▁짝퉁	-3547
▁처럼	-3548
▁박수를	-3549
▁빼고는	-3550
▁쓰레기같은	-3551
▁됨	-3552
▁척	-3553
▁컴	-3554
거라	-3555
기분	-3556
긴다	-3557
미가	-3558
이래	-3559
▁똑같	-3560
▁레전	-3561
▁못해	-3562
▁미드	-3563
▁와우	-3564
▁조용	-3565
▁치밀	-3566
▁할까	-3567
시간에	-3568
었을까	-3569
하겠다	-3570
▁무섭다	-3571
▁이해하기	-3572
것만	-3573
어이	-3574
▁13	-3575
▁기가	-3576
▁꿈을	-3577
▁보긴	-3578
▁여행	-3579
▁제로	-3580
▁특이	-3581
▁학생	-3582
▁해리	-3583
했네요	-3584
▁봤더니	-3585
▁아줌마	-3586
▁좋았을	-3587
▁힘들다	-3588
▁흥미로운	-3589
▁재미있었어요	-3590
▁낳	-3591
▁센	-3592
버트	-3593
성치	-3594
젠장	-3595
▁방법	-3596
▁않나	-3597
▁오바	-3598
▁웃김	-3599
▁자살	-3600
버리는	-3601
▁감정을	-3602
▁웃음이	-3603
▁인간이	-3604
▁좋지만	-3605
겠습니다	-3606
▁잊혀지지	-3607
▁[	-3608
▁ᄀ	-3609
가슴	-3610
식의	-3611
영환	-3612
인도	-3613
해지	-3614
▁결과	-3615
▁고마	-3616
▁달달	-3617
▁많아	-3618
▁슬펐	-3619
▁암튼	-3620
끝까지	-3621
장에서	-3622
▁!!!	-3623
▁몰입감	-3624
▁볼거리	-3625
▁생각하는	-3626
▁유쾌하고	-3627
▁재밌다고	-3628
▁초등학생	-3629
▁좋아하는데	-3630
느니	-3631
라가	-3632
사이	-3633
살다	-3634
▁기술	-3635
▁깜짝	-3636
▁늘어	-3637
▁비판	-3638
▁조선	-3639
▁죽을	-3640
이영화	-3641
▁나오면	-3642
▁들었다	-3643
▁완전히	-3644
▁우리의	-3645
▁원작의	-3646
▁즐거운	-3647
드립니다	-3648
▁카리스마	-3649
!!!!!!!!!!!!!!!!	-3650
▁갠	-3651
것들	-3652
그리	-3653
려나	-3654
로만	-3655
시즌	-3656
▁겨울	-3657
▁로봇	-3658
▁박진	-3659
▁인내	-3660
긴한데	-3661
▁아이가	-3662
▁개연성이	-3663
▁연기력도	-3664
▁왠만하면	-3665
▁학교에서	-3666
ov	-3667
▁런	-3668
▁팀	-3669
갔다	-3670
먹는	-3671
버그	-3672
자나	-3673
체가	-3674
함은	-3675
▁타이	-3676
소리가	-3677
편보다	-3678
0000	-3679
▁넘치는	-3680
▁보인다	-3681
▁없었던	-3682
▁한번쯤	-3683
▁좋았지만	-3684
▁모르겠지만	-3685
ᅲᅲᅲᅲᅲᅲᅲᅲ	-3686
냄새	-3687
대를	-3688
배경	-3689
세상	-3690
원작	-3691
임을	-3692
테일	-3693
했나	-3694
▁가면	-3695
▁가벼	-3696
▁많고	-3697
▁모를	-3698
▁안본	-3699
▁움직	-3700
▁정의	-3701
▁좋게	-3702
▁챙겨	-3703
▁않을까	-3704
지마세요	-3705
▁좋았으나	-3706
VD	-3707
▁뱀	-3708
▁썼	-3709
머리	-3710
몰입	-3711
엇다	-3712
했어	-3713
▁보며	-3714
▁이용	-3715
▁커플	-3716
▁투자	-3717
년만에	-3718
버스터	-3719
▁못한다	-3720
▁반개도	-3721
▁손발이	-3722
▁이유를	-3723
▁작품은	-3724
▁행복한	-3725
사람들이	-3726
▁보고나면	-3727
▁봉	-3728
▁탁	-3729
▁탐	-3730
요일	-3731
이걸	-3732
적은	-3733
▁관한	-3734
▁교육	-3735
▁못생	-3736
▁아닙	-3737
▁야동	-3738
▁이정	-3739
감독의	-3740
그대로	-3741
야말로	-3742
▁느껴진다	-3743
▁보여주고	-3744
▁옆	-3745
받은	-3746
사수	-3747
성의	-3748
이들	-3749
▁깨달	-3750
▁끝이	-3751
▁레알	-3752
▁영혼	-3753
▁필름	-3754
그래서	-3755
본영화	-3756
인들이	-3757
▁대해서	-3758
▁봤을때	-3759
▁역대급	-3760
▁우리는	-3761
▁재미와	-3762
▁재미잇	-3763
▁포르노	-3764
▁유치하다	-3765
▁좋아해서	-3766
▁p	-3767
▁엽	-3768
러디	-3769
루스	-3770
명을	-3771
슬프	-3772
아쉽	-3773
언니	-3774
였고	-3775
이러	-3776
편에	-3777
▁개뿔	-3778
▁따로	-3779
▁올려	-3780
▁이도	-3781
▁일품	-3782
▁잠깐	-3783
배우가	-3784
없네요	-3785
점이다	-3786
▁그렇지	-3787
▁멋있다	-3788
▁스크린	-3789
▁할머니	-3790
▁사람들의	-3791
▁좋겠어요	-3792
▁다큐멘터리	-3793
니깐	-3794
상황	-3795
얘기	-3796
와의	-3797
요즘	-3798
있나	-3799
▁만나	-3800
▁예뻐	-3801
되었다	-3802
▁보여줬	-3803
▁알바들	-3804
▁잔인한	-3805
▁이제서야	-3806
▁짜증난다	-3807
▁평점보고	-3808
om	-3809
▁멈	-3810
▁옷	-3811
놈들	-3812
무지	-3813
비가	-3814
함의	-3815
▁내면	-3816
▁빌려	-3817
▁아동	-3818
▁악마	-3819
▁이럴	-3820
▁착한	-3821
▁풍경	-3822
기에는	-3823
▁주성치	-3824
▁참으로	-3825
▁하나의	-3826
▁개연성도	-3827
▁어린시절	-3828
▁지나치게	-3829
▁l	-3830
▁쏘	-3831
▁픽	-3832
다음	-3833
모든	-3834
소녀	-3835
시청	-3836
억지	-3837
요소	-3838
주가	-3839
▁담아	-3840
▁설마	-3841
▁어지	-3842
▁지겨	-3843
▁개막장	-3844
▁모르게	-3845
▁죽이고	-3846
▁있었지만	-3847
▁엠	-3848
▁쩝	-3849
▁콜	-3850
분은	-3851
아무	-3852
역사	-3853
정은	-3854
후반	-3855
▁겨우	-3856
▁김민	-3857
▁당연	-3858
▁무리	-3859
▁신비	-3860
▁없지	-3861
▁일이	-3862
▁자주	-3863
▁주말	-3864
점정도	-3865
하던데	-3866
학교때	-3867
해진다	-3868
했다고	-3869
,.,.	-3870
..^^	-3871
▁똑같은	-3872
좋아하는	-3873
▁드립니다	-3874
▁부족하다	-3875
.........	-3876
▁육	-3877
▁콩	-3878
동생	-3879
버림	-3880
보네	-3881
운드	-3882
▁기발	-3883
▁대중	-3884
▁드림	-3885
▁떠올	-3886
▁뭐라	-3887
▁힘이	-3888
보다도	-3889
지말고	-3890
▁1,2	-3891
▁레전드	-3892
▁명작이	-3893
▁없어요	-3894
▁잘하고	-3895
▁지루했다	-3896
zz	-3897
▁술	-3898
년의	-3899
도는	-3900
뻔한	-3901
솔직	-3902
토록	-3903
▁그거	-3904
▁달라	-3905
▁올리	-3906
▁응원	-3907
▁인해	-3908
되네요	-3909
들이랑	-3910
▁가슴에	-3911
▁감동의	-3912
▁볼수있	-3913
▁왜이래	-3914
▁이쁘다	-3915
▁중요한	-3916
▁무섭지도	-3917
▁캐릭터가	-3918
▁이런영화를	-3919
속의	-3920
임스	-3921
▁간다	-3922
▁감히	-3923
▁김수	-3924
▁몇몇	-3925
▁바꾸	-3926
▁세련	-3927
▁싶을	-3928
▁아기	-3929
▁아픈	-3930
▁여태	-3931
▁이민	-3932
장면은	-3933
▁가치가	-3934
▁다시는	-3935
▁문제가	-3936
▁스파이	-3937
▁영화네	-3938
▁점수가	-3939
사람들은	-3940
▁긴장감이	-3941
▁보여준다	-3942
▁인상적이	-3943
▁보았습니다	-3944
사건	-3945
생활	-3946
이기	-3947
인과	-3948
▁데이	-3949
▁둘이	-3950
▁보자	-3951
▁보통	-3952
▁봤을	-3953
▁삶에	-3954
▁새끼	-3955
▁설득	-3956
▁숨겨	-3957
▁욕망	-3958
▁우려	-3959
있어서	-3960
▁뿐이다	-3961
▁싶은데	-3962
▁이해안	-3963
▁장르가	-3964
▁재미없게	-3965
▁탑	-3966
는건	-3967
대단	-3968
레딧	-3969
신은	-3970
아나	-3971
얼굴	-3972
자연	-3973
점줌	-3974
▁강력	-3975
▁높게	-3976
▁대본	-3977
▁도전	-3978
▁못함	-3979
▁아예	-3980
▁양심	-3981
▁인기	-3982
듭니다	-3983
▁그녀의	-3984
▁색다른	-3985
▁소름이	-3986
▁현실성	-3987
지도않고	-3988
▁괜찮은데	-3989
▁앞으로도	-3990
▁웃기지도	-3991
▁진부하고	-3992
능력	-3993
님들	-3994
다큐	-3995
만은	-3996
문제	-3997
임새	-3998
▁영어	-3999
▁이끌	-4000
▁짝이	-4001
▁할리	-4002
어떻게	-4003
▁199	-4004
▁DVD	-4005
▁뛰어넘	-4006
▁속에서	-4007
▁위해서	-4008
▁있는지	-4009
▁자신이	-4010
▁정도의	-4011
▁하는거	-4012
▁답답하고	-4013
▁알겠는데	-4014
▁없습니다	-4015
▁시간가는줄	-4016
▁한국영화는	-4017
11	-4018
▁맹	-4019
▁쏟	-4020
더빙	-4021
우가	-4022
원의	-4023
▁변태	-4024
▁빈약	-4025
▁상관	-4026
▁성격	-4027
▁제시	-4028
▁치고	-4029
▁하늘	-4030
겁니다	-4031
려다가	-4032
연기력	-4033
ᄒᄒᄒᄒ	-4034
▁모두가	-4035
▁비하면	-4036
▁생각함	-4037
▁아까울	-4038
▁연출과	-4039
것같아요	-4040
▁스토리의	-4041
▁아름다움	-4042
▁재밌던데	-4043
▁e	-4044
▁빅	-4045
▁엿	-4046
러워	-4047
로써	-4048
삭제	-4049
씬이	-4050
초반	-4051
포터	-4052
▁감흥	-4053
▁방영	-4054
▁수고	-4055
▁해결	-4056
▁해라	-4057
▁화끈	-4058
▁효과	-4059
분들은	-4060
▁노래도	-4061
▁동성애	-4062
▁말아먹	-4063
▁심하게	-4064
▁있구나	-4065
▁전개도	-4066
▁전설의	-4067
▁모르겠음	-4068
▁안타까운	-4069
▁말도안되는	-4070
▁h	-4071
▁옥	-4072
▁찰	-4073
니당	-4074
모두	-4075
세기	-4076
연이	-4077
▁그건	-4078
▁돈을	-4079
▁볼때	-4080
▁알수	-4081
▁이소	-4082
▁클레	-4083
년도에	-4084
는영화	-4085
보니까	-4086
하고자	-4087
▁나오지	-4088
▁보려고	-4089
▁수준의	-4090
▁오랜만	-4091
▁유명한	-4092
▁감동적이다	-4093
▁k	-4094
▁낙	-4095
▁웨	-4096
기지	-4097
았을	-4098
이리	-4099
추기	-4100
출연	-4101
..1	-4102
▁21	-4103
▁받을	-4104
▁안봤	-4105
▁의리	-4106
▁조니	-4107
들이나	-4108
▁감명깊	-4109
▁깨닫게	-4110
▁배우를	-4111
▁예쁘고	-4112
▁자신을	-4113
마지막에	-4114
▁분위기가	-4115
.,	-4116
▁끈	-4117
감은	-4118
부작	-4119
인것	-4120
짱짱	-4121
티브	-4122
▁공짜	-4123
▁기회	-4124
▁블록	-4125
▁사진	-4126
▁심오	-4127
▁안쓰	-4128
▁야구	-4129
▁어두	-4130
▁여름	-4131
▁충실	-4132
▁테러	-4133
스타일	-4134
▁세상을	-4135
▁영원히	-4136
▁잼있어요	-4137
▁막장드라마	-4138
▁명작입니다	-4139
겨서	-4140
음이	-4141
.^^	-4142
▁낮게	-4143
▁대화	-4144
▁비밀	-4145
▁안볼	-4146
▁인디	-4147
▁잊지	-4148
▁최초	-4149
하는건	-4150
했으나	-4151
▁않네요	-4152
▁연예인	-4153
▁있었는데	-4154
ᄏᄏᄏᄏᄏᄏ	-4155
▁남자주인공	-4156
라기	-4157
멘타	-4158
바로	-4159
보자	-4160
애가	-4161
어디	-4162
절대	-4163
▁둘째	-4164
▁류승	-4165
▁만한	-4166
▁빠진	-4167
..;;	-4168
▁관객을	-4169
▁그당시	-4170
▁분들은	-4171
▁살면서	-4172
▁연기잘	-4173
▁죽는줄	-4174
▁평점조	-4175
▁한심한	-4176
스토리도	-4177
▁떨어진다	-4178
▁여러가지	-4179
▁주인공은	-4180
▁하나같이	-4181
▁/	-4182
▁y	-4183
▁씹	-4184
▁헬	-4185
관람	-4186
치가	-4187
▁볼거	-4188
▁살려	-4189
▁선동	-4190
▁울컥	-4191
▁작위	-4192
인데도	-4193
▁기다려	-4194
▁내가본	-4195
▁답답한	-4196
▁미스터	-4197
▁유치함	-4198
▁만들어도	-4199
▁보지마라	-4200
▁생각나서	-4201
▁이상하게	-4202
영화입니다	-4203
▁깎	-4204
▁떨	-4205
드시	-4206
리카	-4207
뭔가	-4208
미네	-4209
빨리	-4210
어린	-4211
좋음	-4212
통령	-4213
▁갖고	-4214
▁결정	-4215
▁무술	-4216
▁베드	-4217
▁어쩜	-4218
▁잔뜩	-4219
▁전율	-4220
▁조작	-4221
▁집에	-4222
다는거	-4223
다는걸	-4224
▁가슴을	-4225
▁결말을	-4226
▁노래가	-4227
▁반전은	-4228
▁보다는	-4229
▁여운을	-4230
▁오래된	-4231
▁원작이	-4232
▁잘어울	-4233
▁잼있다	-4234
▁하는게	-4235
보는내내	-4236
▁무엇인지	-4237
▁생각하면	-4238
▁K	-4239
받는	-4240
세포	-4241
신을	-4242
왔다	-4243
지다	-4244
▁sf	-4245
▁남은	-4246
▁유지	-4247
▁잔혹	-4248
▁젠장	-4249
나와서	-4250
~!!!	-4251
▁구성이	-4252
▁느낄수	-4253
▁다양한	-4254
▁애들은	-4255
▁여자의	-4256
▁죽이는	-4257
▁최고임	-4258
▁패러디	-4259
▁핵노잼	-4260
해주세요	-4261
▁2014	-4262
▁시리즈중	-4263
▁아닙니다	-4264
▁에피소드	-4265
▁영화보면서	-4266
▁ᄏᄏᄏᄏᄏᄏ	-4267
▁캬	-4268
개인	-4269
게요	-4270
그만	-4271
상은	-4272
였어	-4273
제로	-4274
종일	-4275
OOO	-4276
▁~~	-4277
▁기준	-4278
▁배역	-4279
▁지났	-4280
▁찍어	-4281
▁그것도	-4282
▁무서워	-4283
▁봅니다	-4284
▁생각할	-4285
▁소소한	-4286
▁어쩔수	-4287
▁이것이	-4288
▁자체는	-4289
▁첫사랑	-4290
▁훈훈한	-4291
▁만들다니	-4292
▁L	-4293
▁넌	-4294
▁묵	-4295
▁왤	-4296
▁칭	-4297
▁홀	-4298
때문	-4299
르게	-4300
뭐야	-4301
분의	-4302
이쁘	-4303
잡고	-4304
장을	-4305
▁게이	-4306
▁결코	-4307
▁낚시	-4308
▁듣고	-4309
▁봐줄	-4310
▁부실	-4311
▁사고	-4312
▁오빠	-4313
▁제외	-4314
▁집착	-4315
▁하네	-4316
▁할수	-4317
으로는	-4318
▁나쁘지	-4319
▁만들면	-4320
▁비디오로	-4321
▁시청률이	-4322
▁연기력은	-4323
▁훌륭하다	-4324
▁마지막까지	-4325
▁억지스러운	-4326
????????	-4327
▁N	-4328
▁n	-4329
▁낭	-4330
▁휘	-4331
라인	-4332
력을	-4333
로드	-4334
만다	-4335
볼만	-4336
서는	-4337
씨는	-4338
아쉬	-4339
오늘	-4340
이어	-4341
▁다루	-4342
▁다를	-4343
▁스페	-4344
▁안에	-4345
▁연극	-4346
▁위로	-4347
▁장애	-4348
▁한명	-4349
▁해석	-4350
♥♥♥	-4351
겠다는	-4352
레이션	-4353
점대는	-4354
▁느꼈다	-4355
▁느낌의	-4356
▁두번째	-4357
▁식상한	-4358
▁어이없	-4359
▁최근에	-4360
▁했으면	-4361
▁흥미로	-4362
배우들이	-4363
없는영화	-4364
▁극장가서	-4365
▁바랍니다	-4366
▁특수효과	-4367
▁P	-4368
▁났	-4369
▁됬	-4370
▁펼	-4371
건만	-4372
냈다	-4373
누나	-4374
는대	-4375
박한	-4376
번은	-4377
주연	-4378
지면	-4379
지요	-4380
허접	-4381
▁놓고	-4382
▁뭘까	-4383
▁빼면	-4384
▁안습	-4385
▁웃고	-4386
▁자식	-4387
▁탄생	-4388
것같은	-4389
▁실제로	-4390
▁잼나게	-4391
▁지나도	-4392
▁질리지	-4393
▁짜임새	-4394
▁처음에	-4395
▁감정이입	-4396
▁겪	-4397
▁택	-4398
같고	-4399
나네	-4400
든지	-4401
뭥미	-4402
아는	-4403
퓨터	-4404
하군	-4405
형님	-4406
형래	-4407
▁모험	-4408
▁무한	-4409
▁오로	-4410
으로만	-4411
이었음	-4412
파이어	-4413
▁명작을	-4414
▁소재도	-4415
▁영화와	-4416
▁재밌을	-4417
▁기대이상	-4418
▁정말이지	-4419
▁재미도없고	-4420
▁재미없었다	-4421
▁크리스마스	-4422
▁재미있습니다	-4423
▁웰	-4424
▁튀	-4425
레인	-4426
묘한	-4427
부를	-4428
빼고	-4429
아름	-4430
어여	-4431
정의	-4432
▁끝났	-4433
▁달리	-4434
▁도망	-4435
▁범인	-4436
▁손에	-4437
▁아래	-4438
▁있던	-4439
▁짧은	-4440
▁최민	-4441
▁파워	-4442
▁헤어	-4443
나오고	-4444
솔직히	-4445
연기는	-4446
이였다	-4447
해주고	-4448
▁디테일	-4449
▁매력을	-4450
▁별로임	-4451
▁의미가	-4452
▁추억이	-4453
▁한번도	-4454
미네이터	-4455
생각없이	-4456
▁어설프고	-4457
▁이야기는	-4458
▁생각했는데	-4459
▁W	-4460
▁뿌	-4461
과서	-4462
구성	-4463
년작	-4464
루즈	-4465
장한	-4466
티즌	-4467
팩트	-4468
후회	-4469
▁기자	-4470
▁길게	-4471
▁넘게	-4472
▁다섯	-4473
▁담배	-4474
▁등등	-4475
▁정작	-4476
감독님	-4477
기전에	-4478
만큼은	-4479
점에서	-4480
▁많아서	-4481
▁소중한	-4482
▁영화화	-4483
▁이래서	-4484
▁제임스	-4485
▁주기도	-4486
▁몰입도가	-4487
▁스트레스	-4488
▁블록버스터	-4489
12	-4490
30	-4491
▁F	-4492
▁몬	-4493
▁앉	-4494
굿굿	-4495
되면	-4496
복을	-4497
스포	-4498
취향	-4499
커플	-4500
▁14	-4501
▁거부	-4502
▁들고	-4503
▁만남	-4504
▁매일	-4505
▁본지	-4506
▁살린	-4507
▁어째	-4508
▁열정	-4509
▁웃겼	-4510
▁팬이	-4511
웠지만	-4512
인줄알	-4513
있었다	-4514
적이지	-4515
전개가	-4516
줄이야	-4517
▁거기에	-4518
▁거짓말	-4519
▁나머지	-4520
▁대놓고	-4521
▁데리고	-4522
▁수많은	-4523
▁아무런	-4524
▁이런건	-4525
▁주제를	-4526
▁따뜻하고	-4527
▁살다살다	-4528
▁엉성하고	-4529
▁짜증나서	-4530
▁최고였다	-4531
거든	-4532
나의	-4533
버려	-4534
어리	-4535
음을	-4536
트의	-4537
혼자	-4538
▁비행	-4539
▁쓰고	-4540
▁안된	-4541
점만점	-4542
ᅮᅮᅮᅮ	-4543
▁감동은	-4544
▁낚였다	-4545
▁막판에	-4546
▁반전을	-4547
▁보다니	-4548
▁부분도	-4549
▁새벽에	-4550
▁스티븐	-4551
▁심지어	-4552
▁아니야	-4553
▁살아가는	-4554
▁시리즈는	-4555
▁어울리는	-4556
▁;	-4557
▁=	-4558
▁혐	-4559
공감	-4560
긴장	-4561
니퍼	-4562
대해	-4563
리면	-4564
매력	-4565
부가	-4566
선생	-4567
하길	-4568
▁시끄	-4569
▁일깨	-4570
▁정확	-4571
▁조절	-4572
▁주기	-4573
▁틀어	-4574
면에서	-4575
웠어요	-4576
▁그자체	-4577
▁로버트	-4578
▁많은데	-4579
▁소설을	-4580
재미없음	-4581
▁그저그런	-4582
▁떨어지고	-4583
▁보기에는	-4584
▁영화인가	-4585
▁만들었는지	-4586
..........	-4587
en	-4588
vd	-4589
▁를	-4590
▁샘	-4591
가의	-4592
국영	-4593
덕화	-4594
라의	-4595
마이	-4596
바이	-4597
아빠	-4598
▁60	-4599
▁강한	-4600
▁고맙	-4601
▁내게	-4602
▁본게	-4603
▁사투	-4604
▁생활	-4605
▁열받	-4606
▁잼잇	-4607
▁조카	-4608
부분이	-4609
어버린	-4610
자들의	-4611
자들이	-4612
해지고	-4613
▁교훈을	-4614
▁그만큼	-4615
▁보지말	-4616
▁봤을까	-4617
▁역사를	-4618
▁영상과	-4619
보고싶다	-4620
▁돋보이는	-4621
▁아름답게	-4622
▁영화자체	-4623
▁유일하게	-4624
▁좋겠네요	-4625
개는	-4626
낸다	-4627
데이	-4628
드를	-4629
문화	-4630
야할	-4631
이도	-4632
조금	-4633
피스	-4634
▁가르	-4635
▁가지	-4636
▁감각	-4637
▁끔찍	-4638
▁단편	-4639
▁답이	-4640
▁때려	-4641
▁못봐	-4642
▁보던	-4643
▁서부	-4644
▁안가	-4645
▁언니	-4646
▁예능	-4647
▁정체	-4648
▁형사	-4649
보이는	-4650
엇는데	-4651
해야지	-4652
▁가벼운	-4653
▁당신은	-4654
▁동시에	-4655
▁이상의	-4656
▁집중이	-4657
▁한국인	-4658
웠습니다	-4659
▁봤는데도	-4660
▁생각으로	-4661
it	-4662
▁X	-4663
▁껐	-4664
강호	-4665
개그	-4666
드로	-4667
뢰매	-4668
리네	-4669
보지	-4670
시면	-4671
신의	-4672
쓰고	-4673
어용	-4674
오브	-4675
으신	-4676
이에	-4677
정한	-4678
치노	-4679
했지	-4680
100	-4681
▁개념	-4682
▁다이	-4683
▁다크	-4684
▁독일	-4685
▁명화	-4686
▁무료	-4687
▁뭐니	-4688
▁본거	-4689
▁시키	-4690
▁야한	-4691
▁유아	-4692
▁재능	-4693
▁짜집	-4694
갑니다	-4695
메이드	-4696
어가는	-4697
였으면	-4698
점으로	-4699
점주고	-4700
▁돌아가	-4701
▁러시아	-4702
▁뭐하나	-4703
▁배트맨	-4704
▁브루스	-4705
▁웃기다	-4706
▁이보다	-4707
▁작가님	-4708
▁최고로	-4709
거같아요	-4710
▁다운받아	-4711
▁아까웠다	-4712
▁어느정도	-4713
▁집중해서	-4714
80	-4715
ut	-4716
▁첩	-4717
관객	-4718
나니	-4719
는듯	-4720
또한	-4721
래곤	-4722
성과	-4723
시오	-4724
오오	-4725
▁가고	-4726
▁꼬마	-4727
▁낮네	-4728
▁동양	-4729
▁로코	-4730
▁빵빵	-4731
▁아내	-4732
▁애기	-4733
▁이병	-4734
▁익숙	-4735
▁한숨	-4736
건가요	-4737
관에서	-4738
잖아요	-4739
▁괜찮음	-4740
▁교과서	-4741
▁놀라운	-4742
▁당연히	-4743
▁됩니다	-4744
▁많은걸	-4745
▁연출은	-4746
▁영화만	-4747
▁원작에	-4748
▁장면도	-4749
▁제이슨	-4750
▁중에서	-4751
▁하길래	-4752
▁하나로	-4753
있습니다	-4754
▁말하고자	-4755
▁본방사수	-4756
▁어색하고	-4757
▁재밌다는	-4758
▁처음에는	-4759
▁클레멘타	-4760
▁한국에서	-4761
▁팝	-4762
가에	-4763
겠죠	-4764
동차	-4765
리며	-4766
버스	-4767
분을	-4768
빠진	-4769
싸움	-4770
햇다	-4771
▁감안	-4772
▁담겨	-4773
▁목숨	-4774
▁받은	-4775
▁수입	-4776
▁쓰는	-4777
▁영향	-4778
▁위험	-4779
▁이야	-4780
▁있네	-4781
▁적절	-4782
▁폭풍	-4783
나네요	-4784
만들어	-4785
심으로	-4786
최악의	-4787
하는것	-4788
▁나에겐	-4789
▁내용과	-4790
▁또다른	-4791
▁머리가	-4792
▁별로고	-4793
▁액션을	-4794
▁여주가	-4795
▁이따구	-4796
▁있다니	-4797
▁참신한	-4798
영화인데	-4799
▁볼수있는	-4800
▁아쉽지만	-4801
!!!!!!	-4802
▁케이블에서	-4803
ᄏᄏᄏᄏᄏᄏᄏ	-4804
▁쥬	-4805
게임	-4806
성우	-4807
여행	-4808
중훈	-4809
▁읽어	-4810
▁정우	-4811
▁즐겨	-4812
▁플롯	-4813
▁혹은	-4814
기까지	-4815
는데도	-4816
봤네요	-4817
에게는	-4818
▁감독을	-4819
▁그립다	-4820
▁기대했	-4821
▁모든걸	-4822
▁못하다	-4823
▁약간의	-4824
▁엄마가	-4825
▁영상이	-4826
▁이해를	-4827
▁적당히	-4828
▁조니뎁	-4829
▁피해자	-4830
긴하지만	-4831
스토리가	-4832
영화보다	-4833
▁이상하고	-4834
▁잘봤어요	-4835
▁여자주인공	-4836
▁재미없어서	-4837
걱정	-4838
악한	-4839
였네	-4840
정화	-4841
프닝	-4842
하러	-4843
후의	-4844
▁be	-4845
▁낮지	-4846
▁두려	-4847
▁먼가	-4848
▁아버	-4849
▁유발	-4850
▁형님	-4851
있네요	-4852
하고싶	-4853
하자는	-4854
했을때	-4855
▁남네요	-4856
▁너무도	-4857
▁배우도	-4858
▁숨겨진	-4859
▁찾아볼	-4860
▁초딩때	-4861
▁친구가	-4862
하는영화	-4863
▁궁금하다	-4864
▁나름대로	-4865
▁배경음악	-4866
▁재밌어서	-4867
▁태어나서	-4868
낮은	-4869
도를	-4870
드리	-4871
분한	-4872
오래	-4873
위에	-4874
자와	-4875
▁같고	-4876
▁낮아	-4877
▁디워	-4878
▁봤네	-4879
▁으리	-4880
▁착각	-4881
▁하여	-4882
▁확인	-4883
포스터	-4884
▁갑니다	-4885
▁내생에	-4886
▁보기에	-4887
▁싶어요	-4888
▁싸우는	-4889
▁영화같	-4890
▁이딴걸	-4891
▁일부러	-4892
▁진짜로	-4893
▁출연한	-4894
▁케릭터	-4895
▁한편의	-4896
▁괜찮았다	-4897
▁만든영화	-4898
▁매력적이	-4899
▁배우들은	-4900
▁아니라고	-4901
▁포스터가	-4902
▁해리포터	-4903
▁킬링타임용으로	-4904
-^	-4905
as	-4906
▁굴	-4907
▁낯	-4908
▁댄	-4909
▁덤	-4910
▁옹	-4911
상의	-4912
스키	-4913
아치	-4914
장르	-4915
쟁이	-4916
초에	-4917
▁거북	-4918
▁꽤나	-4919
▁새로	-4920
▁손색	-4921
▁신의	-4922
▁자세	-4923
▁잠시	-4924
▁책을	-4925
▁추격	-4926
▁프레	-4927
도대체	-4928
스럽지	-4929
아저씨	-4930
어야지	-4931
었다는	-4932
한마디	-4933
▁ᄍᄍᄍ	-4934
▁괜찮다	-4935
▁귀여워	-4936
▁높아서	-4937
▁아니지	-4938
▁아류작	-4939
▁여러번	-4940
▁영환데	-4941
▁유일한	-4942
▁인생에	-4943
▁잼있음	-4944
▁특별한	-4945
▁하다가	-4946
도아니고	-4947
▁영화인지	-4948
▁재밋어요	-4949
▁여주인공이	-4950
es	-4951
ᅲᅮ	-4952
▁늑	-4953
느껴	-4954
로의	-4955
만도	-4956
미는	-4957
스에	-4958
은데	-4959
이름	-4960
일듯	-4961
졸작	-4962
함도	-4963
▁과학	-4964
▁근래	-4965
▁끼워	-4966
▁난잡	-4967
▁말았	-4968
▁부르	-4969
▁애매	-4970
▁주윤	-4971
▁호기	-4972
?...	-4973
▁가족의	-4974
▁공포물	-4975
▁놀랍다	-4976
▁반드시	-4977
▁소재와	-4978
▁심형래	-4979
▁않아서	-4980
▁여자는	-4981
▁이소룡	-4982
▁재미로	-4983
▁짜증만	-4984
▁컴퓨터	-4985
▁한국의	-4986
▁마이너스	-4987
▁마지막이	-4988
▁이드라마	-4989
▁이런영화는	-4990
.3	-4991
▁깡	-4992
▁벤	-4993
개가	-4994
상수	-4995
스크	-4996
싫어	-4997
웃기	-4998
적임	-4999
정우	-5000
직한	-5001
진이	-5002
치곤	-5003
▁개성	-5004
▁낮다	-5005
▁망한	-5006
▁밀려	-5007
▁안될	-5008
▁앞뒤	-5009
▁이은	-5010
▁중독	-5011
▁추리	-5012
▁판단	-5013
들한테	-5014
부터가	-5015
하더라	-5016
▁나오네	-5017
▁분들이	-5018
▁불편한	-5019
▁사람도	-5020
▁아깝고	-5021
▁엔딩이	-5022
▁예쁘다	-5023
▁인터넷	-5024
▁일깨워	-5025
▁있다고	-5026
▁한다는	-5027
▁다시보니	-5028
▁마음으로	-5029
▁보았는데	-5030
▁불쌍하다	-5031
▁아쉬움이	-5032
.0	-5033
is	-5034
▁>	-5035
▁틈	-5036
▁헌	-5037
▁혁	-5038
따뜻	-5039
성기	-5040
아내	-5041
중이	-5042
지현	-5043
테러	-5044
▁관련	-5045
▁남기	-5046
▁달콤	-5047
▁실력	-5048
▁애국	-5049
▁위대	-5050
▁첨엔	-5051
속으로	-5052
애들이	-5053
었구나	-5054
하나도	-5055
▁dvd	-5056
▁나왔다	-5057
▁네티즌	-5058
▁매니아	-5059
▁멋있는	-5060
▁몰랐다	-5061
▁배우는	-5062
▁어우러	-5063
▁장면을	-5064
▁적어도	-5065
▁전쟁의	-5066
▁제목만	-5067
▁짜증남	-5068
▁봐도봐도	-5069
▁쓸데없이	-5070
▁여자친구	-5071
▁염	-5072
▁컬	-5073
같아	-5074
웃김	-5075
인건	-5076
있던	-5077
주일	-5078
죽는	-5079
팔이	-5080
▁빵터	-5081
▁서양	-5082
▁압도	-5083
▁유럽	-5084
▁자랑	-5085
▁주지	-5086
▁지겹	-5087
▁탈출	-5088
▁편안	-5089
▁했음	-5090
▁화장	-5091
왔는데	-5092
▁단순히	-5093
▁부모님	-5094
▁생각도	-5095
▁잘하는	-5096
▁제니퍼	-5097
▁현실이	-5098
하지마라	-5099
▁그야말로	-5100
▁리얼리티	-5101
▁수작이다	-5102
▁오랫만에	-5103
▁시나리오가	-5104
▁최고의영화	-5105
▁터미네이터	-5106
▁R	-5107
▁객	-5108
드만	-5109
라노	-5110
민이	-5111
부로	-5112
선을	-5113
으리	-5114
줄은	-5115
지나	-5116
▁공간	-5117
▁남편	-5118
▁다신	-5119
▁땜에	-5120
▁맞춰	-5121
▁싶지	-5122
▁언젠	-5123
▁없게	-5124
▁책임	-5125
▁타고	-5126
▁흑인	-5127
으려고	-5128
중에서	-5129
하거나	-5130
▁감동받	-5131
▁강렬한	-5132
▁다르게	-5133
▁되네요	-5134
▁떨어짐	-5135
▁봤다면	-5136
▁사실을	-5137
▁시간에	-5138
▁없었음	-5139
▁지금의	-5140
시나리오	-5141
▁웃으면서	-5142
▁잔잔하게	-5143
▁ᄇ	-5144
▁곧	-5145
▁든	-5146
▁링	-5147
▁벨	-5148
림이	-5149
보영	-5150
부는	-5151
어색	-5152
언제	-5153
있을	-5154
쯧쯧	-5155
패스	-5156
▁극복	-5157
▁꿈꾸	-5158
▁로빈	-5159
▁못미	-5160
▁바다	-5161
▁배신	-5162
▁부탁	-5163
▁실험	-5164
▁아냐	-5165
▁아우	-5166
▁읽고	-5167
▁케빈	-5168
▁하아	-5169
▁하품	-5170
는거야	-5171
생각이	-5172
▁you	-5173
▁대통령	-5174
▁박중훈	-5175
▁본건데	-5176
▁아들이	-5177
▁아무도	-5178
▁알겠다	-5179
▁액션과	-5180
▁여자들	-5181
▁후속작	-5182
▁희망을	-5183
▁아이들과	-5184
▁영상미가	-5185
▁이해할수	-5186
▁아까운영화	-5187
▁한국영화의	-5188
▁곽	-5189
▁님	-5190
때는	-5191
때매	-5192
래도	-5193
부의	-5194
분위	-5195
스케	-5196
안됨	-5197
엇음	-5198
여주	-5199
유리	-5200
전을	-5201
전이	-5202
점수	-5203
졌음	-5204
▁것에	-5205
▁나랑	-5206
▁만약	-5207
▁묻어	-5208
▁받는	-5209
▁별반	-5210
▁외로	-5211
▁인형	-5212
▁잊고	-5213
재미도	-5214
▁그동안	-5215
▁사운드	-5216
▁얼굴이	-5217
▁잊혀지	-5218
▁희대의	-5219
같은영화	-5220
극장에서	-5221
재미있게	-5222
하지않고	-5223
...^^	-5224
▁궁금해서	-5225
▁영화라니	-5226
▁전체적인	-5227
▁주인공들	-5228
▁사람들에게	-5229
▁재미없다고	-5230
▁ᄏᄏᄏᄏᄏᄏᄏ	-5231
▁떼	-5232
▁밖	-5233
▁숙	-5234
보내	-5235
세여	-5236
식은	-5237
엄청	-5238
이여	-5239
이프	-5240
중반	-5241
지네	-5242
차별	-5243
▁극단	-5244
▁당황	-5245
▁루즈	-5246
▁마무	-5247
▁맛이	-5248
▁무게	-5249
▁미쳤	-5250
▁반담	-5251
▁보내	-5252
▁삶이	-5253
▁서울	-5254
▁스텝	-5255
▁안들	-5256
▁열연	-5257
▁줘야	-5258
▁호구	-5259
정적인	-5260
화이팅	-5261
▁도무지	-5262
▁멋지고	-5263
▁안간다	-5264
▁없나요	-5265
▁울리는	-5266
▁이토록	-5267
▁일본은	-5268
▁하하하	-5269
▁기억나는	-5270
▁내용인지	-5271
▁영화였음	-5272
▁짜증나고	-5273
▁하나하나가	-5274
▁엔	-5275
노답	-5276
들로	-5277
로맨	-5278
리나	-5279
말도	-5280
먹은	-5281
못해	-5282
버릴	-5283
범죄	-5284
불쌍	-5285
신고	-5286
잡을	-5287
추억	-5288
해선	-5289
희가	-5290
▁of	-5291
▁김혜	-5292
▁끌고	-5293
▁무너	-5294
▁빠른	-5295
▁왤케	-5296
▁자본	-5297
▁진리	-5298
▁집어	-5299
▁클래	-5300
▁힘내	-5301
만하다	-5302
배우의	-5303
습니까	-5304
인들의	-5305
인지도	-5306
좋았다	-5307
▁개노잼	-5308
▁귀엽다	-5309
▁다보고	-5310
▁사랑해	-5311
▁이름을	-5312
▁이뻐서	-5313
▁재밋음	-5314
▁주제가	-5315
▁줍니다	-5316
▁한개도	-5317
▁허술한	-5318
▁혹시나	-5319
▁흐르는	-5320
▁뱀파이어	-5321
▁할리우드	-5322
▁모르겠네요	-5323
90	-5324
▁깍	-5325
▁띄	-5326
▁품	-5327
▁효	-5328
딩때	-5329
라라	-5330
므로	-5331
사와	-5332
아픈	-5333
장의	-5334
▁냄새	-5335
▁리즈	-5336
▁무난	-5337
▁뭥미	-5338
▁받고	-5339
▁배급	-5340
▁빨갱	-5341
▁사상	-5342
▁생긴	-5343
▁선물	-5344
▁아놀	-5345
▁아파	-5346
▁오브	-5347
▁폐지	-5348
내용은	-5349
라는게	-5350
싶은데	-5351
했다면	-5352
▁4.4	-5353
▁나이가	-5354
▁때마다	-5355
▁만화책	-5356
▁사이코	-5357
▁시간때	-5358
▁시간만	-5359
▁실화를	-5360
▁안봐도	-5361
▁어른이	-5362
▁왜이러	-5363
▁전개와	-5364
▁정도면	-5365
▁짜증이	-5366
▁사랑해요	-5367
▁괜찮았는데	-5368
▁작품입니다	-5369
▁쭉	-5370
▁햇	-5371
되게	-5372
드림	-5373
들여	-5374
미국	-5375
사에	-5376
살아	-5377
살인	-5378
상영	-5379
판이	-5380
▁담은	-5381
▁따위	-5382
▁맞지	-5383
▁생에	-5384
▁싸움	-5385
▁이준	-5386
▁잤다	-5387
▁즐길	-5388
▁평균	-5389
▁프리	-5390
분들이	-5391
뿐이다	-5392
아닌가	-5393
아직도	-5394
었다고	-5395
할만한	-5396
▁가득한	-5397
▁괜찮고	-5398
▁나네요	-5399
▁다르다	-5400
▁들어가	-5401
▁듭니다	-5402
▁스포츠	-5403
▁울면서	-5404
▁잘못된	-5405
▁장국영	-5406
▁저평가	-5407
기도하고	-5408
▁2000	-5409
▁나레이션	-5410
▁생각난다	-5411
▁시간아깝다	-5412
▁재미있는데	-5413
▁V	-5414
갈때	-5415
높은	-5416
느끼	-5417
더더	-5418
둥이	-5419
루토	-5420
마자	-5421
무시	-5422
비슷	-5423
싫다	-5424
쓰는	-5425
어의	-5426
저리	-5427
..!	-5428
▁각색	-5429
▁고뇌	-5430
▁김치	-5431
▁꼭보	-5432
▁내돈	-5433
▁달려	-5434
▁담담	-5435
▁대신	-5436
▁두근	-5437
▁마약	-5438
▁망치	-5439
▁맞아	-5440
▁벗어	-5441
▁본듯	-5442
▁부담	-5443
▁엑스	-5444
▁찍고	-5445
▁참나	-5446
▁파괴	-5447
▁폭발	-5448
들끼리	-5449
모르고	-5450
있지만	-5451
점부터	-5452
▁내용의	-5453
▁반전에	-5454
▁설정이	-5455
▁아진짜	-5456
▁없으면	-5457
▁우뢰매	-5458
▁이름이	-5459
▁점수는	-5460
▁정도가	-5461
▁좋다고	-5462
▁최고봉	-5463
▁뜬금없는	-5464
▁볼만했다	-5465
▁아깝네요	-5466
▁자극적인	-5467
▁재밌었던	-5468
▁갓	-5469
▁는	-5470
▁땡	-5471
▁뗄	-5472
▁쿵	-5473
경이	-5474
시원	-5475
오랜	-5476
좋게	-5477
준호	-5478
질이	-5479
하균	-5480
히고	-5481
▁기존	-5482
▁바탕	-5483
▁빛을	-5484
▁사무	-5485
▁소피	-5486
▁어떨	-5487
▁이성	-5488
▁저급	-5489
▁혐오	-5490
▁흑백	-5491
▁흡입	-5492
거같음	-5493
납니다	-5494
리네요	-5495
분동안	-5496
분만에	-5497
▁개그맨	-5498
▁내용에	-5499
▁드디어	-5500
▁매력에	-5501
▁봐야지	-5502
▁불쌍한	-5503
▁스릴도	-5504
▁시대에	-5505
▁않았던	-5506
▁어렵다	-5507
▁없다고	-5508
▁영원한	-5509
▁인생은	-5510
▁인생이	-5511
▁일본의	-5512
▁최소한	-5513
▁황당한	-5514
▁기대없이	-5515
▁믿고보는	-5516
▁쓸데없는	-5517
▁사랑합니다	-5518
ow	-5519
▁뚝	-5520
▁뽀	-5521
▁킹	-5522
가리	-5523
고생	-5524
그럼	-5525
까요	-5526
데체	-5527
든가	-5528
리와	-5529
불허	-5530
서도	-5531
소름	-5532
시가	-5533
위원	-5534
의를	-5535
줬다	-5536
코믹	-5537
▁깊게	-5538
▁망친	-5539
▁몽환	-5540
▁박수	-5541
▁사용	-5542
▁손발	-5543
▁어둡	-5544
▁왜곡	-5545
▁우연	-5546
▁잠이	-5547
▁정상	-5548
▁탁월	-5549
▁하시	-5550
▁한방	-5551
그러나	-5552
스러워	-5553
아무리	-5554
임에도	-5555
했을까	-5556
▁결론은	-5557
▁당시에	-5558
▁뭐하는	-5559
▁미국의	-5560
▁불가능	-5561
▁영화나	-5562
▁영화야	-5563
▁이병헌	-5564
▁현실과	-5565
▁갠적으로	-5566
▁언제봐도	-5567
▁탄탄하고	-5568
al	-5569
ic	-5570
▁곱	-5571
▁꿀	-5572
▁웅	-5573
구가	-5574
귀여	-5575
께요	-5576
남기	-5577
도의	-5578
리엄	-5579
모로	-5580
번을	-5581
슨이	-5582
없지	-5583
웠고	-5584
이죠	-5585
진않	-5586
형제	-5587
▁기타	-5588
▁끝에	-5589
▁말자	-5590
▁몰라	-5591
▁뭐고	-5592
▁민폐	-5593
▁반대	-5594
▁수면	-5595
▁암걸	-5596
▁유행	-5597
▁이수	-5598
▁일베	-5599
▁조화	-5600
▁짐캐	-5601
▁컨셉	-5602
▁평소	-5603
게하는	-5604
는거지	-5605
답니다	-5606
제대로	-5607
▁ᄃᄃᄃ	-5608
▁공짜로	-5609
▁그것을	-5610
▁느낌은	-5611
▁다세포	-5612
▁빛나는	-5613
▁어쩌면	-5614
▁오프닝	-5615
▁이제는	-5616
▁재개봉	-5617
▁적절한	-5618
▁헛웃음	-5619
▁마지막회	-5620
▁무엇인가	-5621
▁웰메이드	-5622
▁이도저도	-5623
▁포스터만	-5624
쓰레기영화	-5625
▁전반적으로	-5626
;;;;;;;;	-5627
▁H	-5628
▁뭣	-5629
감과	-5630
났음	-5631
되나	-5632
롭고	-5633
발견	-5634
없나	-5635
였나	-5636
이든	-5637
자리	-5638
조연	-5639
할지	-5640
▁강간	-5641
▁걱정	-5642
▁겉멋	-5643
▁과대	-5644
▁나무	-5645
▁녹아	-5646
▁담백	-5647
▁동네	-5648
▁망가	-5649
▁매미	-5650
▁밤에	-5651
▁원조	-5652
▁일으	-5653
▁장동	-5654
까지도	-5655
라이언	-5656
여운이	-5657
연기를	-5658
▁감독과	-5659
▁고양이	-5660
▁공감할	-5661
▁그것이	-5662
▁시대의	-5663
▁역겨운	-5664
▁인간은	-5665
▁점수준	-5666
▁지겹다	-5667
▁짜집기	-5668
▁첨부터	-5669
했었는데	-5670
▁나오는데	-5671
▁진지하게	-5672
▁초등학교	-5673
▁추천하고	-5674
▁만들었을까	-5675
▁재미있었습니다	-5676
od	-5677
ot	-5678
▁땅	-5679
▁컸	-5680
간에	-5681
그랬	-5682
대고	-5683
란티	-5684
먹을	-5685
박죽	-5686
슨의	-5687
아노	-5688
우스	-5689
있지	-5690
졌던	-5691
존나	-5692
질않	-5693
▁갖다	-5694
▁개콘	-5695
▁담긴	-5696
▁무겁	-5697
▁임창	-5698
▁절망	-5699
▁힘을	-5700
았으면	-5701
주기도	-5702
죽박죽	-5703
지루함	-5704
▁감독도	-5705
▁공감도	-5706
▁끝날때	-5707
▁내생애	-5708
▁배경이	-5709
▁살인마	-5710
▁아깝네	-5711
▁안어울	-5712
▁은근히	-5713
▁자동차	-5714
▁적당한	-5715
▁좋을듯	-5716
▁주윤발	-5717
▁친구랑	-5718
▁풋풋한	-5719
▁느낌이다	-5720
▁못보겠다	-5721
▁봐야하는	-5722
▁시작부터	-5723
▁억지감동	-5724
▁엄청나게	-5725
,3	-5726
▁ᄡ	-5727
▁땐	-5728
▁붕	-5729
▁쫓	-5730
▁탓	-5731
▁핸	-5732
나쁜	-5733
랜드	-5734
법한	-5735
선이	-5736
아지	-5737
앗다	-5738
여진	-5739
원은	-5740
웨이	-5741
위한	-5742
이딴	-5743
일을	-5744
자로	-5745
주면	-5746
질질	-5747
카프	-5748
하디	-5749
▁국가	-5750
▁김태	-5751
▁늦게	-5752
▁데뷔	-5753
▁뒤에	-5754
▁먹는	-5755
▁앞에	-5756
▁없냐	-5757
▁예수	-5758
▁오우	-5759
▁요새	-5760
▁줄리	-5761
▁즐기	-5762
▁키스	-5763
▁파격	-5764
같아서	-5765
겠는데	-5766
그렇게	-5767
되는데	-5768
었다면	-5769
적으론	-5770
코메디	-5771
평론가	-5772
하니까	-5773
~~^^	-5774
▁누군가	-5775
▁돈내고	-5776
▁못봐주	-5777
▁무섭고	-5778
▁뭐라고	-5779
▁세상이	-5780
▁않은데	-5781
▁어디로	-5782
▁왠만한	-5783
▁제목을	-5784
내용인지	-5785
드라마가	-5786
▁Good	-5787
▁다행이다	-5788
▁둘째치고	-5789
▁드라마의	-5790
▁만들어서	-5791
▁소중함을	-5792
▁시작해서	-5793
▁유치해서	-5794
▁이런류의	-5795
▁장난하냐	-5796
▁재미있어	-5797
▁할아버지	-5798
재미있어요	-5799
▁재미있었음	-5800
▁ᄆ	-5801
▁쪼	-5802
▁쫄	-5803
★★	-5804
나름	-5805
늦게	-5806
답게	-5807
리한	-5808
물로	-5809
전혀	-5810
져야	-5811
즈의	-5812
호감	-5813
▁가정	-5814
▁개나	-5815
▁개똥	-5816
▁김희	-5817
▁깡패	-5818
▁말투	-5819
▁매끄	-5820
▁불안	-5821
▁여친	-5822
▁역량	-5823
▁이다	-5824
▁이렇	-5825
▁절로	-5826
▁점이	-5827
▁죽고	-5828
▁최소	-5829
▁축구	-5830
▁피터	-5831
▁흔들	-5832
레이드	-5833
있으면	-5834
졌어요	-5835
▁가까운	-5836
▁괜찮게	-5837
▁만점에	-5838
▁명불허	-5839
▁무거운	-5840
▁보라고	-5841
▁안무서	-5842
▁양아치	-5843
▁없는게	-5844
▁외계인	-5845
▁의도가	-5846
▁진지한	-5847
지않는다	-5848
▁100%	-5849
▁목소리가	-5850
▁아이들의	-5851
▁인상적인	-5852
▁전쟁영화	-5853
▁사람이라면	-5854
...........	-5855
CG	-5856
▁곰	-5857
▁앨	-5858
▁콘	-5859
▁협	-5860
놨네	-5861
더맨	-5862
라에	-5863
모를	-5864
받을	-5865
보긴	-5866
았네	-5867
인게	-5868
일의	-5869
잖은	-5870
지에	-5871
짬뽕	-5872
탈출	-5873
하실	-5874
함께	-5875
▁거품	-5876
▁고어	-5877
▁로드	-5878
▁만난	-5879
▁박신	-5880
▁버려	-5881
▁자고	-5882
▁정보	-5883
▁좋네	-5884
▁짜릿	-5885
간만에	-5886
시대에	-5887
애들은	-5888
적이라	-5889
▁가족이	-5890
▁그들이	-5891
▁기대가	-5892
▁느끼고	-5893
▁드래곤	-5894
▁명복을	-5895
▁무언가	-5896
▁버리고	-5897
▁스타뎀	-5898
▁어두운	-5899
▁요소가	-5900
▁자기가	-5901
▁정도는	-5902
▁제시카	-5903
▁질질끌	-5904
▁찾아서	-5905
으면서도	-5906
있는영화	-5907
카프리오	-5908
▁마지막엔	-5909
▁포스터에	-5910
19	-5911
TV	-5912
nd	-5913
▁널	-5914
가네	-5915
국의	-5916
끝나	-5917
다르	-5918
대에	-5919
들러	-5920
뚱맞	-5921
랐다	-5922
말을	-5923
얼마	-5924
없을	-5925
역할	-5926
우의	-5927
장애	-5928
정쩡	-5929
프레	-5930
?..	-5931
▁가수	-5932
▁분량	-5933
▁세번	-5934
▁실감	-5935
▁잃은	-5936
▁잠들	-5937
▁죄송	-5938
▁줄수	-5939
같아요	-5940
까지만	-5941
란티노	-5942
맙시다	-5943
ovie	-5944
▁귀여움	-5945
▁말고는	-5946
▁말아야	-5947
▁명장면	-5948
▁수준을	-5949
▁안본다	-5950
▁애초에	-5951
▁어거지	-5952
▁이만한	-5953
거같은데	-5954
시간동안	-5955
▁괜찮았음	-5956
▁꼭보세요	-5957
▁만들어라	-5958
▁영화예요	-5959
▁유쾌하게	-5960
▁짜증나게	-5961
▁흘러가는	-5962
▁땀	-5963
▁맴	-5964
▁빙	-5965
▁앵	-5966
▁칠	-5967
기법	-5968
기와	-5969
도로	-5970
됐다	-5971
란한	-5972
로로	-5973
뭐냐	-5974
뭐지	-5975
민의	-5976
바라	-5977
사실	-5978
셔야	-5979
아누	-5980
워즈	-5981
잇는	-5982
전의	-5983
점에	-5984
트를	-5985
▁,,	-5986
▁:)	-5987
▁가히	-5988
▁건가	-5989
▁기획	-5990
▁길이	-5991
▁깨알	-5992
▁나중	-5993
▁단어	-5994
▁보신	-5995
▁아담	-5996
▁어리	-5997
▁장진	-5998
▁첩보	-5999
▁치유	-6000
▁하도	-6001
▁환경	-6002
감독은	-6003
보지마	-6004
봐야지	-6005
빕니다	-6006
생각을	-6007
파치노	-6008
▁가능한	-6009
▁동영상	-6010
▁떨어지	-6011
▁보기가	-6012
▁보시면	-6013
▁보았던	-6014
▁설득력	-6015
▁시청자	-6016
▁영상도	-6017
▁요즘은	-6018
▁잊을수	-6019
▁작가의	-6020
▁잘한다	-6021
▁조금은	-6022
▁한국판	-6023
▁한번더	-6024
▁화장실	-6025
우리나라	-6026
▁기대이하	-6027
▁만들어낸	-6028
▁말그대로	-6029
▁배경으로	-6030
▁사랑하고	-6031
▁산만하고	-6032
▁순수하고	-6033
▁않았지만	-6034
▁이것보단	-6035
▁이해불가	-6036
개인적으로	-6037
▁볼만합니다	-6038
▁생각해보게	-6039
▁좋았을텐데	-6040
▁캐릭터들이	-6041
▁드라마입니다	-6042
▁아무생각없이	-6043
▁벅	-6044
▁쌩	-6045
▁죠	-6046
▁팍	-6047
것에	-6048
동원	-6049
만족	-6050
미스	-6051
바람	-6052
보구	-6053
신도	-6054
체적	-6055
치지	-6056
타고	-6057
▁갔다	-6058
▁객관	-6059
▁난리	-6060
▁단체	-6061
▁모욕	-6062
▁베리	-6063
▁빼곤	-6064
▁삶과	-6065
▁암울	-6066
▁예측	-6067
▁조차	-6068
▁졸업	-6069
▁판타	-6070
▁하하	-6071
기억이	-6072
못하는	-6073
시간을	-6074
아니면	-6075
점이상	-6076
종일관	-6077
줬으면	-6078
필버그	-6079
하시고	-6080
▁교훈도	-6081
▁나을듯	-6082
▁놀랐다	-6083
▁라스트	-6084
▁명작은	-6085
▁모습은	-6086
▁보게된	-6087
▁볼려고	-6088
▁선생님	-6089
▁싶었다	-6090
▁싶었던	-6091
▁알았음	-6092
▁영화이	-6093
▁흥미를	-6094
너무너무	-6095
좋은영화	-6096
▁괜찮네요	-6097
▁뜬금없이	-6098
▁연출력이	-6099
▁영화인줄	-6100
▁제작비가	-6101
▁충격적인	-6102
▁평점조절	-6103
▁좋아하지만	-6104
▁감동적이네요	-6105
▁x	-6106
▁린	-6107
▁및	-6108
▁옳	-6109
▁털	-6110
못한	-6111
볼수	-6112
부지	-6113
살이	-6114
스와	-6115
승전	-6116
시기	-6117
안타	-6118
예술	-6119
일러	-6120
주기	-6121
증이	-6122
치의	-6123
케이	-6124
킬링	-6125
^^*	-6126
▁메이	-6127
▁묘한	-6128
▁무간	-6129
▁뮤직	-6130
▁변화	-6131
▁보단	-6132
▁보라	-6133
▁브래	-6134
▁소화	-6135
▁이동	-6136
▁인종	-6137
▁절제	-6138
▁진한	-6139
▁찾는	-6140
▁트랜	-6141
▁향연	-6142
▁형제	-6143
▁황정	-6144
▁후에	-6145
겠다고	-6146
류영화	-6147
하기엔	-6148
~~!!	-6149
▁공포를	-6150
▁당신이	-6151
▁라이언	-6152
▁명대사	-6153
▁모른다	-6154
▁속았다	-6155
▁싶어서	-6156
▁아프다	-6157
▁안좋아	-6158
▁웃기는	-6159
▁홍상수	-6160
▁감명깊게	-6161
▁그렇지만	-6162
▁만들었나	-6163
▁명불허전	-6164
▁모르지만	-6165
▁사람들을	-6166
▁영화라서	-6167
▁왔습니다	-6168
▁최고최고	-6169
▁홍콩영화	-6170
15	-6171
ay	-6172
▁&	-6173
▁록	-6174
▁섭	-6175
▁엮	-6176
가운	-6177
개를	-6178
겠어	-6179
귀엽	-6180
나간	-6181
때도	-6182
무엇	-6183
석규	-6184
소가	-6185
스틱	-6186
시나	-6187
영의	-6188
웃겨	-6189
자면	-6190
참고	-6191
채널	-6192
편집	-6193
할뿐	-6194
▁??	-6195
▁격투	-6196
▁과정	-6197
▁김지	-6198
▁따름	-6199
▁말씀	-6200
▁망할	-6201
▁맡은	-6202
▁몇년	-6203
▁무식	-6204
▁반영	-6205
▁배꼽	-6206
▁빵점	-6207
▁소통	-6208
▁심장	-6209
▁애틋	-6210
듯하다	-6211
라이즈	-6212
목소리	-6213
보네요	-6214
았네요	-6215
지못할	-6216
지않다	-6217
최고다	-6218
하고는	-6219
햇는데	-6220
▁나루토	-6221
▁미소가	-6222
▁소재의	-6223
▁여러분	-6224
▁하이틴	-6225
▁하정우	-6226
▁2012	-6227
▁느껴졌다	-6228
▁뒤죽박죽	-6229
▁다운받아서	-6230
▁오글거리는	-6231
▁좋겠습니다	-6232
▁삽	-6233
▁액	-6234
가면	-6235
경찰	-6236
고도	-6237
곳에	-6238
구라	-6239
다만	-6240
물론	-6241
물의	-6242
바타	-6243
번에	-6244
빠져	-6245
상에	-6246
없게	-6247
예진	-6248
의식	-6249
쥬얼	-6250
추는	-6251
치도	-6252
치를	-6253
하루	-6254
^-^	-6255
▁16	-6256
▁고독	-6257
▁기괴	-6258
▁나음	-6259
▁난무	-6260
▁늑대	-6261
▁도둑	-6262
▁따분	-6263
▁바닥	-6264
▁방해	-6265
▁별거	-6266
▁부부	-6267
▁부산	-6268
▁선사	-6269
▁에효	-6270
▁왔다	-6271
▁원주	-6272
▁이별	-6273
▁잠을	-6274
▁하기	-6275
▁하며	-6276
끝나고	-6277
나이트	-6278
년대에	-6279
다니는	-6280
없어요	-6281
을수가	-6282
▁EBS	-6283
▁더빙이	-6284
▁류승범	-6285
▁멋지게	-6286
▁무섭게	-6287
▁부자연	-6288
▁비호감	-6289
▁빕니다	-6290
▁아마추	-6291
▁아이언	-6292
▁알았네	-6293
▁애니는	-6294
▁영화속	-6295
▁임팩트	-6296
▁절대로	-6297
▁조금만	-6298
▁중학생	-6299
공포영화	-6300
지루하고	-6301
~~~~~	-6302
▁4.44	-6303
▁ᄒᄒᄒᄒ	-6304
▁ᅲᅲᅲᅲ	-6305
▁개봉당시	-6306
▁거지같은	-6307
▁기대하지	-6308
▁시종일관	-6309
▁안보는게	-6310
▁연기력에	-6311
▁오글오글	-6312
▁있었으면	-6313
▁장면들이	-6314
▁최고네요	-6315
▁형편없는	-6316
▁블랙코미디	-6317
le	-6318
~♥	-6319
▁r	-6320
▁♥	-6321
▁습	-6322
▁을	-6323
▁찢	-6324
▁쿨	-6325
▁폰	-6326
감정	-6327
광고	-6328
꺼면	-6329
님은	-6330
선택	-6331
시의	-6332
아오	-6333
왕국	-6334
유발	-6335
은거	-6336
이요	-6337
집어	-6338
집에	-6339
트로	-6340
후에	-6341
▁--	-6342
▁끝도	-6343
▁넘넘	-6344
▁놀란	-6345
▁뭐임	-6346
▁미녀	-6347
▁볼까	-6348
▁삭제	-6349
▁상징	-6350
▁생겼	-6351
▁수록	-6352
▁스피	-6353
▁애잔	-6354
▁어떠	-6355
▁어쨌	-6356
▁없었	-6357
▁엑소	-6358
▁영구	-6359
▁음식	-6360
▁정당	-6361
▁차이	-6362
▁칭찬	-6363
▁평을	-6364
▁평화	-6365
▁풍자	-6366
▁허허	-6367
▁호불	-6368
거리가	-6369
그런지	-6370
였다면	-6371
을까요	-6372
▁개봉한	-6373
▁대사도	-6374
▁마시길	-6375
▁보이지	-6376
▁살리지	-6377
▁어정쩡	-6378
▁유덕화	-6379
▁잼있는	-6380
▁전개는	-6381
▁허무한	-6382
점만점에	-6383
졌습니다	-6384
▁내용전개	-6385
▁아니잖아	-6386
▁아이디어	-6387
▁에로영화	-6388
▁재미있을	-6389
▁현실적이	-6390
▁마지막장면	-6391
ck	-6392
▁갱	-6393
▁듬	-6394
▁멜	-6395
▁썰	-6396
간히	-6397
결국	-6398
느냐	-6399
상한	-6400
심에	-6401
에다	-6402
였지	-6403
울뿐	-6404
위가	-6405
진창	-6406
행복	-6407
힘들	-6408
▁고문	-6409
▁공중	-6410
▁남의	-6411
▁났다	-6412
▁다녀	-6413
▁들이	-6414
▁버린	-6415
▁불과	-6416
▁승리	-6417
▁쓸쓸	-6418
▁우선	-6419
▁워낙	-6420
▁절정	-6421
더라고	-6422
뻔했다	-6423
재밌어	-6424
점이나	-6425
좋네요	-6426
편에서	-6427
▁낫겠다	-6428
▁닥치고	-6429
▁똑같이	-6430
▁말인가	-6431
▁메세지	-6432
▁별점이	-6433
▁보게되	-6434
▁부분은	-6435
▁빠져서	-6436
▁상황을	-6437
▁손가락	-6438
▁이상은	-6439
▁이상해	-6440
▁키아누	-6441
▁필요가	-6442
▁한순간	-6443
▁가족영화	-6444
▁다시보기	-6445
▁드라마다	-6446
▁별로였다	-6447
▁소장하고	-6448
▁시리즈의	-6449
▁실망이다	-6450
▁어설프다	-6451
▁행복하게	-6452
▁디카프리오	-6453
▁잘만들었다	-6454
▁최악의영화	-6455
▁코미디영화	-6456
ig	-6457
▁삐	-6458
거의	-6459
니가	-6460
더군	-6461
때가	-6462
맘에	-6463
바닥	-6464
비해	-6465
스톤	-6466
실히	-6467
여기	-6468
인에	-6469
있냐	-6470
주제	-6471
태현	-6472
허무	-6473
회가	-6474
▁th	-6475
▁to	-6476
▁끝날	-6477
▁능가	-6478
▁담고	-6479
▁대결	-6480
▁대학	-6481
▁던져	-6482
▁드라	-6483
▁로망	-6484
▁밝혀	-6485
▁부정	-6486
▁소년	-6487
▁엽기	-6488
▁왠만	-6489
▁요리	-6490
▁우디	-6491
▁운명	-6492
▁이지	-6493
▁전화	-6494
▁좋지	-6495
▁지옥	-6496
▁질리	-6497
▁콜린	-6498
▁펼쳐	-6499
▁한가	-6500
리스트	-6501
옵니다	-6502
은영화	-6503
크레딧	-6504
할수가	-6505
▁같았다	-6506
▁구성도	-6507
▁끝나서	-6508
▁누군지	-6509
▁데이빗	-6510
▁도데체	-6511
▁드네요	-6512
▁보는거	-6513
▁보는것	-6514
▁빠지는	-6515
▁아무튼	-6516
▁액션씬	-6517
▁있었고	-6518
▁했더니	-6519
것같네요	-6520
여주인공	-6521
하나하나	-6522
▁긴장감을	-6523
▁독특하고	-6524
▁돌아보게	-6525
▁바탕으로	-6526
▁세상에서	-6527
▁스타워즈	-6528
▁싶습니다	-6529
▁아까워서	-6530
▁연기하는	-6531
▁캐릭터들	-6532
▁한심하다	-6533
▁영화보다가	-6534
▁감동적이에요	-6535
▁재밌게봤어요	-6536
▁J	-6537
▁ᄅ	-6538
▁곤	-6539
▁젖	-6540
가장	-6541
감사	-6542
놈이	-6543
본게	-6544
성한	-6545
수선	-6546
어스	-6547
에로	-6548
잔인	-6549
잡는	-6550
조현	-6551
트는	-6552
▁is	-6553
▁공유	-6554
▁끝을	-6555
▁마찬	-6556
▁먹칠	-6557
▁밑도	-6558
▁본격	-6559
▁부활	-6560
▁쉬운	-6561
▁오는	-6562
▁이승	-6563
▁재방	-6564
▁창피	-6565
갔는데	-6566
못하고	-6567
발연기	-6568
재밋게	-6569
졌으면	-6570
포인트	-6571
하기에	-6572
한테는	-6573
ᄃᄃᄃᄃ	-6574
▁ᄒᄃᄃ	-6575
▁결국은	-6576
▁그림체	-6577
▁되돌아	-6578
▁멋있고	-6579
▁세월이	-6580
▁송강호	-6581
▁신하균	-6582
▁영화일	-6583
▁영화적	-6584
▁영화지	-6585
▁잘보고	-6586
▁잘생겼	-6587
▁현실은	-6588
▁귀여워요	-6589
▁답답하다	-6590
▁드라마로	-6591
▁드라마에	-6592
▁삼류영화	-6593
▁언제까지	-6594
▁오래전에	-6595
▁이거보단	-6596
▁이야기의	-6597
▁지루함을	-6598
▁캐릭터도	-6599
▁캐릭터를	-6600
▁파워레인	-6601
애니메이션	-6602
ed	-6603
▁큐	-6604
관을	-6605
꺼야	-6606
롭게	-6607
분도	-6608
브리	-6609
상태	-6610
씨도	-6611
알고	-6612
으러	-6613
으셨	-6614
이큰	-6615
잔잔	-6616
종영	-6617
치면	-6618
표정	-6619
홧팅	-6620
희의	-6621
▁ᄌᄂ	-6622
▁공룡	-6623
▁드니	-6624
▁리암	-6625
▁말은	-6626
▁머릿	-6627
▁모아	-6628
▁뭐여	-6629
▁바이	-6630
▁베이	-6631
▁보려	-6632
▁비록	-6633
▁섬뜩	-6634
▁싸우	-6635
▁오지	-6636
▁원숭	-6637
▁지극	-6638
▁직업	-6639
▁한지	-6640
부터는	-6641
정도의	-6642
좋은데	-6643
치고는	-6644
하지말	-6645
▁2.2	-6646
▁;;;	-6647
▁bad	-6648
▁것인가	-6649
▁관심이	-6650
▁깔끔한	-6651
▁낮네요	-6652
▁만든거	-6653
▁만들수	-6654
▁못만들	-6655
▁보여줄	-6656
▁성룡의	-6657
▁시도는	-6658
▁에라이	-6659
▁역사상	-6660
▁유치해	-6661
▁이미지	-6662
▁첨이다	-6663
▁포인트	-6664
▁피아노	-6665
▁하다니	-6666
것같은데	-6667
드라마는	-6668
▁드라마중	-6669
▁모든것이	-6670
▁안나온다	-6671
▁알파치노	-6672
▁이영화의	-6673
▁최고라고	-6674
▁재미있었는데	-6675
.-	-6676
am	-6677
▁u	-6678
▁덴	-6679
▁람	-6680
▁잉	-6681
광구	-6682
그저	-6683
녀석	-6684
덕에	-6685
렸던	-6686
마르	-6687
미를	-6688
비에	-6689
스텔	-6690
승우	-6691
안돼	-6692
어지	-6693
역을	-6694
일은	-6695
자인	-6696
제일	-6697
주행	-6698
중국	-6699
충격	-6700
켓몬	-6701
..2	-6702
▁17	-6703
▁국어	-6704
▁권상	-6705
▁그가	-6706
▁글고	-6707
▁긴박	-6708
▁길을	-6709
▁때는	-6710
▁마냥	-6711
▁브라	-6712
▁새삼	-6713
▁쏟아	-6714
▁엘리	-6715
▁연상	-6716
▁조낸	-6717
▁킬러	-6718
기위해	-6719
나오네	-6720
덩어리	-6721
리는데	-6722
시청률	-6723
영화제	-6724
재밌고	-6725
▁가장한	-6726
▁것들이	-6727
▁공포는	-6728
▁다시금	-6729
▁당신의	-6730
▁되는데	-6731
▁실망이	-6732
▁여자를	-6733
▁의도는	-6734
▁있으나	-6735
▁재밌었	-6736
▁제목에	-6737
▁페이크	-6738
▁한시간	-6739
▁했으나	-6740
프로그램	-6741
▁나머지는	-6742
▁뭐하자는	-6743
▁살아있는	-6744
▁어이없다	-6745
▁울었어요	-6746
▁캐스팅이	-6747
▁미스캐스팅	-6748
▁영화라지만	-6749
tv	-6750
▁걷	-6751
▁숀	-6752
▁쾌	-6753
달라	-6754
도한	-6755
돌려	-6756
랑은	-6757
럽지	-6758
르네	-6759
마리	-6760
미의	-6761
미화	-6762
보러	-6763
사도	-6764
아들	-6765
장에	-6766
타쿠	-6767
하늘	-6768
▁건질	-6769
▁것만	-6770
▁괜찬	-6771
▁굳굳	-6772
▁마블	-6773
▁민족	-6774
▁본질	-6775
▁불법	-6776
▁시켜	-6777
▁신은	-6778
▁억울	-6779
▁에드	-6780
▁이종	-6781
그나마	-6782
드네요	-6783
때부터	-6784
라지만	-6785
매이션	-6786
사람의	-6787
야한다	-6788
이었던	-6789
점대가	-6790
▁공포가	-6791
▁관객이	-6792
▁멋져요	-6793
▁모습에	-6794
▁생각만	-6795
▁설정은	-6796
▁섬세한	-6797
▁싶다면	-6798
▁아만다	-6799
▁아무나	-6800
▁역사에	-6801
▁오로지	-6802
▁우려먹	-6803
▁인간들	-6804
▁좋으나	-6805
▁풀어낸	-6806
▁고등학교	-6807
▁드라마도	-6808
▁스필버그	-6809
▁아버지의	-6810
▁장난하나	-6811
▁지루하기	-6812
▁했습니다	-6813
▁환상적인	-6814
▁감동입니다	-6815
▁사랑스럽고	-6816
▁사랑스럽다	-6817
▁스토리전개	-6818
▁아이들에게	-6819
22	-6820
>>	-6821
▁년	-6822
▁덮	-6823
▁폼	-6824
▁핑	-6825
▁획	-6826
가위	-6827
구의	-6828
데미	-6829
동근	-6830
부에	-6831
사고	-6832
새록	-6833
스레	-6834
시네	-6835
어쩌	-6836
었냐	-6837
원에	-6838
은듯	-6839
조아	-6840
진실	-6841
차피	-6842
천원	-6843
크로	-6844
티가	-6845
해져	-6846
▁가짜	-6847
▁걸까	-6848
▁글을	-6849
▁당장	-6850
▁등록	-6851
▁보구	-6852
▁숨막	-6853
▁시험	-6854
▁신고	-6855
▁신인	-6856
▁우는	-6857
▁위트	-6858
▁이쁨	-6859
▁인류	-6860
▁주온	-6861
▁지키	-6862
▁틀림	-6863
▁혼란	-6864
가면서	-6865
기영화	-6866
느낌이	-6867
돈주고	-6868
리면서	-6869
없는데	-6870
재미가	-6871
판타지	-6872
하자면	-6873
학년때	-6874
...!	-6875
▁그리워	-6876
▁기발한	-6877
▁남는게	-6878
▁낮은지	-6879
▁만드네	-6880
▁메시지	-6881
▁미국식	-6882
▁박보영	-6883
▁보아도	-6884
▁성인이	-6885
▁안맞는	-6886
▁역겹다	-6887
▁유치찬	-6888
▁음악은	-6889
▁제목은	-6890
▁충분한	-6891
▁해야지	-6892
▁했을까	-6893
▁후하게	-6894
오랜만에	-6895
이런영화	-6896
▁모르겠네	-6897
▁배우들을	-6898
▁시리즈를	-6899
▁않습니다	-6900
▁어이없음	-6901
▁여러모로	-6902
▁잼있네요	-6903
▁충격적이	-6904
▁타란티노	-6905
▁강추합니다	-6906
▁오그라드는	-6907
▁점수준것들	-6908
.8	-6909
cg	-6910
dd	-6911
tt	-6912
각본	-6913
개념	-6914
러스	-6915
로그	-6916
맞는	-6917
모양	-6918
빼곤	-6919
시스	-6920
았나	-6921
어를	-6922
찬욱	-6923
트릭	-6924
펙트	-6925
▁극혐	-6926
▁납득	-6927
▁데스	-6928
▁듣기	-6929
▁들게	-6930
▁때가	-6931
▁마다	-6932
▁마법	-6933
▁맞나	-6934
▁매번	-6935
▁민주	-6936
▁별한	-6937
▁상대	-6938
▁상태	-6939
▁에서	-6940
▁연관	-6941
▁음향	-6942
▁자아	-6943
▁진수	-6944
▁짜리	-6945
▁쩔어	-6946
▁커버	-6947
▁흉내	-6948
던데요	-6949
아이가	-6950
없었다	-6951
웠는데	-6952
인영화	-6953
하나요	-6954
...(	-6955
▁가족애	-6956
▁가족을	-6957
▁그럴듯	-6958
▁그려낸	-6959
▁기대한	-6960
▁다이하	-6961
▁무의미	-6962
▁박진감	-6963
▁빨갱이	-6964
▁생각은	-6965
▁슈퍼맨	-6966
▁심하다	-6967
▁아이디	-6968
▁안나옴	-6969
▁어디에	-6970
▁오리지	-6971
▁왕조현	-6972
▁웃겨서	-6973
▁웃었다	-6974
▁이라는	-6975
▁이하도	-6976
▁정신이	-6977
▁조잡한	-6978
▁표현이	-6979
▁한다고	-6980
이라는게	-6981
▁뛰어넘는	-6982
▁쓰레기를	-6983
▁아니라면	-6984
▁제대로된	-6985
▁좀비영화	-6986
▁캐릭터는	-6987
▁.....	-6988
▁소름끼치는	-6989
▁재미없네요	-6990
.!	-6991
.6	-6992
50	-6993
70	-6994
bc	-6995
ᅩᅩ	-6996
▁락	-6997
▁옮	-6998
▁옴	-6999
★☆	-7000
가며	-7001
공주	-7002
극을	-7003
릴때	-7004
만듬	-7005
믿고	-7006
방식	-7007
살때	-7008
시지	-7009
아리	-7010
어어	-7011
워드	-7012
이미	-7013
자도	-7014
코드	-7015
ᅮᅮᅮ	-7016
▁간지	-7017
▁감이	-7018
▁나고	-7019
▁마녀	-7020
▁만났	-7021
▁말해	-7022
▁멋짐	-7023
▁보석	-7024
▁봤나	-7025
▁소소	-7026
▁소유	-7027
▁수는	-7028
▁숨은	-7029
▁어딘	-7030
▁어땠	-7031
▁열라	-7032
▁올레	-7033
▁웃을	-7034
▁일을	-7035
▁작화	-7036
▁잡아	-7037
▁준비	-7038
▁찬양	-7039
▁캐릭	-7040
▁태국	-7041
▁핸드	-7042
그런데	-7043
들만의	-7044
시키고	-7045
시키지	-7046
얼마나	-7047
편까지	-7048
하시길	-7049
▁감성을	-7050
▁거기서	-7051
▁난해한	-7052
▁남자는	-7053
▁넘어서	-7054
▁떨어뜨	-7055
▁바라는	-7056
▁시간도	-7057
▁영상은	-7058
▁원하는	-7059
▁인상적	-7060
▁일주일	-7061
▁전개에	-7062
▁줄이야	-7063
▁지극히	-7064
▁표현할	-7065
▁하지마	-7066
스러웠다	-7067
있었는데	-7068
▁2015	-7069
▁마찬가지	-7070
▁미안하다	-7071
▁분위기는	-7072
▁아쉬워요	-7073
▁엉망진창	-7074
▁재미없을	-7075
▁억지스럽고	-7076
▁자연스럽게	-7077
▁주인공들이	-7078
▁말이필요없다	-7079
ᄏᄏᄏᄏᄏᄏᄏᄏᄏ	-7080
▁뻥	-7081
▁앙	-7082
▁얄	-7083
▁찜	-7084
▁힙	-7085
내지	-7086
동이	-7087
드먼	-7088
망작	-7089
물에	-7090
배는	-7091
수로	-7092
스란	-7093
스카	-7094
스턴	-7095
승헌	-7096
어떤	-7097
옛날	-7098
장은	-7099
저것	-7100
저런	-7101
주지	-7102
팬이	-7103
형이	-7104
ost	-7105
▁거듭	-7106
▁고양	-7107
▁극중	-7108
▁낭만	-7109
▁놀래	-7110
▁레옹	-7111
▁마니	-7112
▁마리	-7113
▁멋져	-7114
▁모니	-7115
▁미션	-7116
▁미학	-7117
▁본것	-7118
▁빠순	-7119
▁선정	-7120
▁실사	-7121
▁안좋	-7122
▁앞서	-7123
▁오직	-7124
▁오해	-7125
▁온갖	-7126
▁월드	-7127
▁있긴	-7128
▁재앙	-7129
▁짬뽕	-7130
모르게	-7131
셨으면	-7132
크루즈	-7133
평점은	-7134
하기가	-7135
..!!	-7136
oooo	-7137
▁괜찮았	-7138
▁뒤늦게	-7139
▁명성에	-7140
▁뭐랄까	-7141
▁벗어나	-7142
▁세련된	-7143
▁안무섭	-7144
▁안보는	-7145
▁안봐서	-7146
▁액션만	-7147
▁여기에	-7148
▁웃음을	-7149
▁의미도	-7150
▁하기엔	-7151
▁한석규	-7152
재미없어	-7153
▁개인적인	-7154
▁고등학생	-7155
▁대박이다	-7156
▁못하겠다	-7157
▁별로네요	-7158
▁보지마셈	-7159
▁스토리로	-7160
▁아기자기	-7161
▁알려주는	-7162
▁이거보다	-7163
▁이상하다	-7164
▁있겠지만	-7165
▁필요한가	-7166
▁보고싶은데	-7167
▁보고있는데	-7168
▁스파이더맨	-7169
▁이런식으로	-7170
▁ᄂ	-7171
▁닿	-7172
▁둔	-7173
▁뚜	-7174
▁찐	-7175
가야	-7176
개의	-7177
급도	-7178
내서	-7179
력에	-7180
멤버	-7181
명한	-7182
병맛	-7183
본색	-7184
비추	-7185
아의	-7186
약한	-7187
오고	-7188
요한	-7189
저나	-7190
찾아	-7191
판을	-7192
▁나열	-7193
▁남성	-7194
▁높지	-7195
▁늙은	-7196
▁니가	-7197
▁도와	-7198
▁떡밥	-7199
▁말아	-7200
▁맞추	-7201
▁모방	-7202
▁비정	-7203
▁설경	-7204
▁성의	-7205
▁없던	-7206
▁완젼	-7207
▁의상	-7208
▁의해	-7209
▁이탈	-7210
▁있냐	-7211
▁전도	-7212
▁찍는	-7213
▁코스	-7214
▁클리	-7215
▁한거	-7216
▁허나	-7217
▁호흡	-7218
것같음	-7219
고싶다	-7220
나라는	-7221
달라고	-7222
마저도	-7223
보려고	-7224
분짜리	-7225
엇어요	-7226
에다가	-7227
정도는	-7228
주는데	-7229
회부터	-7230
****	-7231
very	-7232
▁거기다	-7233
▁극장에	-7234
▁나왔던	-7235
▁느껴지	-7236
▁들어서	-7237
▁비쥬얼	-7238
▁상처를	-7239
▁아바타	-7240
▁아이를	-7241
▁아이유	-7242
▁안보면	-7243
▁연기만	-7244
▁진실을	-7245
▁해준다	-7246
▁했는지	-7247
▁했어요	-7248
더라고요	-7249
만큼이나	-7250
하는것도	-7251
할수있는	-7252
▁감동이다	-7253
▁니콜라스	-7254
▁두고두고	-7255
▁메세지를	-7256
▁몰입도도	-7257
▁슬픈영화	-7258
▁어울리지	-7259
▁연기자들	-7260
▁이것보다	-7261
▁정신병자	-7262
아까운영화	-7263
▁엔딩크레딧	-7264
BC	-7265
▁닭	-7266
▁석	-7267
▁측	-7268
계를	-7269
고한	-7270
께서	-7271
니스	-7272
렸음	-7273
베이	-7274
예쁘	-7275
으려	-7276
자꾸	-7277
저냥	-7278
진행	-7279
플린	-7280
!!♥	-7281
▁공연	-7282
▁되면	-7283
▁모양	-7284
▁반응	-7285
▁불가	-7286
▁새록	-7287
▁소개	-7288
▁스토	-7289
▁이나	-7290
▁재수	-7291
▁적은	-7292
▁적이	-7293
▁정사	-7294
▁조지	-7295
▁죽이	-7296
▁쩌는	-7297
▁차승	-7298
▁한효	-7299
나가는	-7300
다는건	-7301
라는걸	-7302
스포머	-7303
인지는	-7304
입니까	-7305
장면도	-7306
하길래	-7307
하하하	-7308
▁개꿀잼	-7309
▁게스트	-7310
▁그런거	-7311
▁그럴싸	-7312
▁김수현	-7313
▁나와야	-7314
▁대사와	-7315
▁못해서	-7316
▁무서움	-7317
▁문제를	-7318
▁브래드	-7319
▁않아요	-7320
▁영화란	-7321
▁이딴게	-7322
▁이해도	-7323
▁적나라	-7324
▁좋더라	-7325
▁한동안	-7326
▁!!!!	-7327
▁가슴아프	-7328
▁마지막은	-7329
▁보게되는	-7330
▁아니었다	-7331
▁어설프게	-7332
▁재난영화	-7333
▁최고에요	-7334
▁movie	-7335
▁여주인공의	-7336
▁주인공들의	-7337
............	-7338
!~	-7339
▁ᄊ	-7340
▁똘	-7341
▁쉴	-7342
▁족	-7343
▁컷	-7344
결혼	-7345
경을	-7346
구를	-7347
궁금	-7348
극의	-7349
낫다	-7350
녀의	-7351
누가	-7352
두번	-7353
론의	-7354
미도	-7355
미친	-7356
신기	-7357
어른	-7358
였을	-7359
인걸	-7360
잘못	-7361
잘생	-7362
즈가	-7363
지섭	-7364
치다	-7365
통수	-7366
혜선	-7367
▁가만	-7368
▁각각	-7369
▁나면	-7370
▁니네	-7371
▁도시	-7372
▁돼지	-7373
▁매주	-7374
▁모른	-7375
▁문득	-7376
▁미쳐	-7377
▁박평	-7378
▁봤고	-7379
▁블루	-7380
▁사과	-7381
▁삶은	-7382
▁성형	-7383
▁소품	-7384
▁시골	-7385
▁시체	-7386
▁아카	-7387
▁엉뚱	-7388
▁여신	-7389
▁올드	-7390
▁와서	-7391
▁우린	-7392
▁음모	-7393
▁저지	-7394
▁참여	-7395
라에몽	-7396
에대해	-7397
으면좋	-7398
이후로	-7399
재밋다	-7400
중간에	-7401
하고도	-7402
하기는	-7403
▁군더더	-7404
▁더욱더	-7405
▁명연기	-7406
▁보이고	-7407
▁시대가	-7408
▁심리묘	-7409
▁얘기를	-7410
▁연기의	-7411
▁원주율	-7412
▁이것은	-7413
▁이끌어	-7414
▁있었음	-7415
▁전라도	-7416
▁죽음을	-7417
▁짱이다	-7418
▁추억을	-7419
▁하나가	-7420
▁하나는	-7421
▁하세요	-7422
보지마라	-7423
줄알았다	-7424
한마디로	-7425
▁기대했던	-7426
▁나오네요	-7427
▁너무하네	-7428
▁런닝타임	-7429
▁시리즈가	-7430
▁심각하게	-7431
▁영화같다	-7432
▁인물들의	-7433
▁입장에서	-7434
▁처음본다	-7435
▁처음이네	-7436
▁흥미롭게	-7437
▁재밌었습니다	-7438
vs	-7439
▁셋	-7440
▁웹	-7441
▁짙	-7442
감한	-7443
남을	-7444
다들	-7445
되요	-7446
땜시	-7447
렸네	-7448
맞고	-7449
보던	-7450
스틴	-7451
좀비	-7452
증을	-7453
쾌한	-7454
편과	-7455
~10	-7456
ᄃᄃᄃ	-7457
▁강요	-7458
▁공허	-7459
▁구조	-7460
▁그로	-7461
▁깜놀	-7462
▁날아	-7463
▁넘쳐	-7464
▁농담	-7465
▁되서	-7466
▁레오	-7467
▁머야	-7468
▁미술	-7469
▁상큼	-7470
▁생명	-7471
▁손꼽	-7472
▁아팠	-7473
▁역작	-7474
▁열광	-7475
▁옆에	-7476
▁외면	-7477
▁욕이	-7478
▁우왕	-7479
▁입장	-7480
▁좋앗	-7481
▁죽어	-7482
▁지경	-7483
▁지독	-7484
▁천국	-7485
▁커서	-7486
▁했나	-7487
사람을	-7488
아깝고	-7489
원에서	-7490
있을까	-7491
지라도	-7492
창시절	-7493
해가는	-7494
ᄋᄋᄋᄋ	-7495
▁가치도	-7496
▁같지만	-7497
▁그이상	-7498
▁남기는	-7499
▁느껴질	-7500
▁들어간	-7501
▁밋밋한	-7502
▁박찬욱	-7503
▁보겠다	-7504
▁사람과	-7505
▁사회적	-7506
▁송승헌	-7507
▁알바가	-7508
▁액션의	-7509
▁없어도	-7510
▁음악을	-7511
▁책으로	-7512
▁첨으로	-7513
▁초반엔	-7514
▁OOOO	-7515
▁괜찮았던	-7516
▁기억난다	-7517
▁긴장감과	-7518
▁긴장감은	-7519
▁돈아까워	-7520
▁보고나니	-7521
▁스토리나	-7522
▁싫어하는	-7523
▁싶었는데	-7524
▁쓰레기는	-7525
▁영상미와	-7526
▁완벽하게	-7527
▁완벽하다	-7528
▁인생에서	-7529
▁호불호가	-7530
줄알았는데	-7531
▁영화였는데	-7532
,,,,,,,,	-7533
▁킬링타임용으로도	-7534
_^	-7535
im	-7536
▁꽉	-7537
▁뺏	-7538
▁쌓	-7539
깊은	-7540
놈의	-7541
더욱	-7542
돈이	-7543
래요	-7544
랬다	-7545
리즘	-7546
물은	-7547
버튼	-7548
센스	-7549
심한	-7550
알아	-7551
여러	-7552
연의	-7553
외로	-7554
일에	-7555
전은	-7556
▁것들	-7557
▁국산	-7558
▁그는	-7559
▁누나	-7560
▁러셀	-7561
▁멘탈	-7562
▁몰아	-7563
▁미야	-7564
▁방향	-7565
▁상어	-7566
▁스펙	-7567
▁심사	-7568
▁오유	-7569
▁욕을	-7570
▁재탕	-7571
▁저러	-7572
▁졸잼	-7573
▁지가	-7574
▁팝콘	-7575
▁패션	-7576
▁피식	-7577
▁한줄	-7578
부분은	-7579
안에서	-7580
여배우	-7581
점준것	-7582
▁감성이	-7583
▁과정이	-7584
▁귀신이	-7585
▁기가막	-7586
▁나올까	-7587
▁눈으로	-7588
▁니들이	-7589
▁못하네	-7590
▁미스테	-7591
▁뻔하다	-7592
▁소리만	-7593
▁시간은	-7594
▁아놀드	-7595
▁아련한	-7596
▁안좋은	-7597
▁알바생	-7598
▁어수선	-7599
▁역사적	-7600
▁장난치	-7601
▁장르를	-7602
▁처음이	-7603
▁티비로	-7604
▁편하게	-7605
▁포켓몬	-7606
드라마를	-7607
생각으로	-7608
▁그냥저냥	-7609
▁느껴지지	-7610
▁만들어주	-7611
▁아버지가	-7612
▁억지스런	-7613
▁여배우가	-7614
▁영화들이	-7615
▁영화인것	-7616
▁오랫동안	-7617
▁주고싶다	-7618
▁최고인듯	-7619
▁충분하다	-7620
▁캐스팅은	-7621
▁크리스찬	-7622
▁후반부로	-7623
▁힘들었다	-7624
▁뻔한스토리	-7625
▁애니매이션	-7626
▁있었습니다	-7627
▁로맨틱코미디	-7628
!?	-7629
il	-7630
▁쏠	-7631
▁짤	-7632
거에	-7633
다리	-7634
답다	-7635
대기	-7636
데렐	-7637
돌이	-7638
등장	-7639
리쉬	-7640
버츠	-7641
봤지	-7642
순수	-7643
않고	-7644
암튼	-7645
여도	-7646
영은	-7647
치만	-7648
트라	-7649
프리	-7650
하의	-7651
혜교	-7652
희는	-7653
▁25	-7654
▁극본	-7655
▁껐다	-7656
▁끝남	-7657
▁나을	-7658
▁다름	-7659
▁로멘	-7660
▁막상	-7661
▁머냐	-7662
▁면이	-7663
▁비참	-7664
▁생존	-7665
▁속이	-7666
▁쉽지	-7667
▁신이	-7668
▁쓰러	-7669
▁역겹	-7670
▁자리	-7671
▁잼나	-7672
▁절반	-7673
▁줘도	-7674
▁채워	-7675
▁처절	-7676
▁초월	-7677
▁치료	-7678
▁파고	-7679
▁편의	-7680
것보다	-7681
것인가	-7682
넘치는	-7683
덕분에	-7684
였구나	-7685
였네요	-7686
있다면	-7687
죽이고	-7688
줘야지	-7689
지부지	-7690
할수도	-7691
했다가	-7692
▁꼭봐야	-7693
▁노래는	-7694
▁높은지	-7695
▁느낀다	-7696
▁느낌도	-7697
▁대학생	-7698
▁문제는	-7699
▁반지의	-7700
▁비해서	-7701
▁살아야	-7702
▁상황이	-7703
▁심장이	-7704
▁안가는	-7705
▁영화평	-7706
▁웃겼다	-7707
▁있는가	-7708
▁장면만	-7709
▁정주행	-7710
▁주세요	-7711
▁찬사를	-7712
▁통해서	-7713
▁편인데	-7714
▁평점왜	-7715
★☆★☆	-7716
리의리의	-7717
보고싶은	-7718
아름다운	-7719
주인공이	-7720
하지말고	-7721
...;;	-7722
▁감독에게	-7723
▁걸작이다	-7724
▁만들었냐	-7725
▁몰입하게	-7726
▁빠져들게	-7727
▁쓰레기네	-7728
▁영상미도	-7729
▁의미있는	-7730
▁이영화에	-7731
▁정말정말	-7732
▁진부하다	-7733
▁아직까지도	-7734
▁이렇게까지	-7735
40	-7736
ᅮᅲ	-7737
▁ᄍ	-7738
▁롤	-7739
▁찔	-7740
▁훔	-7741
개연	-7742
겟네	-7743
군이	-7744
니의	-7745
닝맨	-7746
동화	-7747
뒤에	-7748
듣고	-7749
디가	-7750
러움	-7751
롭다	-7752
면을	-7753
미안	-7754
보소	-7755
상과	-7756
수작	-7757
시켰	-7758
시킬	-7759
실패	-7760
원도	-7761
위를	-7762
이었	-7763
저기	-7764
절로	-7765
한편	-7766
혀서	-7767
호러	-7768
▁갖게	-7769
▁갖춘	-7770
▁기법	-7771
▁김명	-7772
▁깨끗	-7773
▁된장	-7774
▁모독	-7775
▁박시	-7776
▁본능	-7777
▁색채	-7778
▁싶음	-7779
▁아메	-7780
▁안겨	-7781
▁안다	-7782
▁예뻤	-7783
▁웃는	-7784
▁적극	-7785
▁제왕	-7786
▁조아	-7787
▁중의	-7788
▁커녕	-7789
▁클로	-7790
▁피곤	-7791
▁하니	-7792
▁할때	-7793
▁해요	-7794
▁황금	-7795
것같아	-7796
결말이	-7797
그래픽	-7798
깁니다	-7799
마음이	-7800
소리는	-7801
신분들	-7802
없지만	-7803
여자가	-7804
이들의	-7805
지루해	-7806
▁가족과	-7807
▁다니엘	-7808
▁도움이	-7809
▁보고난	-7810
▁비행기	-7811
▁사랑도	-7812
▁사회의	-7813
▁시대적	-7814
▁아이고	-7815
▁어차피	-7816
▁연기로	-7817
▁웃다가	-7818
▁작품에	-7819
▁총체적	-7820
▁크레딧	-7821
▁현실에	-7822
스토리는	-7823
▁가슴아픈	-7824
▁기대된다	-7825
▁만든건지	-7826
▁볼만한데	-7827
▁안나오는	-7828
▁여자들이	-7829
▁완성도가	-7830
▁웬만하면	-7831
▁이기적인	-7832
▁이따위로	-7833
▁이어지는	-7834
▁재밋네요	-7835
▁하고싶은	-7836
▁후반부에	-7837
▁아깝습니다	-7838
▁좋아하시는	-7839
▁클레멘타인	-7840
▁감동적이었다	-7841
▁감동적입니다	-7842
34	-7843
cn	-7844
id	-7845
▁U	-7846
▁벽	-7847
▁숲	-7848
▁퀴	-7849
거워	-7850
겠고	-7851
구역	-7852
기술	-7853
누구	-7854
드립	-7855
멋진	-7856
면이	-7857
받아	-7858
비아	-7859
운데	-7860
원을	-7861
이뻐	-7862
인해	-7863
저는	-7864
제를	-7865
줘도	-7866
진호	-7867
치기	-7868
케팅	-7869
하리	-7870
한텐	-7871
할순	-7872
흥미	-7873
~~!	-7874
▁거야	-7875
▁것과	-7876
▁귀찮	-7877
▁나아	-7878
▁됐다	-7879
▁되나	-7880
▁딸이	-7881
▁만날	-7882
▁많네	-7883
▁모순	-7884
▁물어	-7885
▁번역	-7886
▁브로	-7887
▁빠질	-7888
▁센스	-7889
▁수십	-7890
▁신화	-7891
▁안감	-7892
▁안봄	-7893
▁욕심	-7894
▁인권	-7895
▁장소	-7896
▁조기	-7897
▁텐데	-7898
▁한정	-7899
것들이	-7900
것처럼	-7901
게다가	-7902
나저나	-7903
는거냐	-7904
러티브	-7905
보인다	-7906
손가락	-7907
아닌데	-7908
안된다	-7909
지말자	-7910
지않게	-7911
지않아	-7912
▁관심을	-7913
▁당시엔	-7914
▁돈으로	-7915
▁레이첼	-7916
▁만들기	-7917
▁말았다	-7918
▁매력적	-7919
▁바란다	-7920
▁받아야	-7921
▁보지도	-7922
▁봤는지	-7923
▁상당한	-7924
▁소리가	-7925
▁아빠가	-7926
▁애니를	-7927
▁엑스맨	-7928
▁연기한	-7929
▁영향을	-7930
▁왕가위	-7931
▁윌리스	-7932
▁이루어	-7933
▁재밋고	-7934
▁재방송	-7935
▁주연의	-7936
▁차태현	-7937
▁첫번째	-7938
▁취향이	-7939
▁테이큰	-7940
▁하지말	-7941
▁흉내내	-7942
모르겠다	-7943
▁동화같은	-7944
▁마무리가	-7945
▁멋진영화	-7946
▁바라보는	-7947
▁부족하고	-7948
▁불쌍해서	-7949
▁비교하면	-7950
▁영웅본색	-7951
▁인생영화	-7952
▁일본에서	-7953
▁전편보다	-7954
▁지금보면	-7955
▁캐스팅도	-7956
▁평론가들	-7957
▁학창시절	-7958
보지마세요	-7959
하겠습니다	-7960
▁드라마라고	-7961
▁시간때우기	-7962
▁오글거리고	-7963
▁인간적으로	-7964
▁현실적으로	-7965
!!!!!!!	-7966
et	-7967
▁밴	-7968
▁썸	-7969
가게	-7970
년간	-7971
놈은	-7972
누라	-7973
뜨고	-7974
못함	-7975
복수	-7976
봣다	-7977
신선	-7978
아냐	-7979
앞에	-7980
작은	-7981
천재	-7982
할것	-7983
▁ᅲᅮ	-7984
▁가깝	-7985
▁간단	-7986
▁감수	-7987
▁경악	-7988
▁고작	-7989
▁구경	-7990
▁기적	-7991
▁남긴	-7992
▁놈들	-7993
▁눈요	-7994
▁대부	-7995
▁동감	-7996
▁듣는	-7997
▁마틴	-7998
▁맞다	-7999
▁멀쩡	-8000
▁발음	-8001
▁방황	-8002
▁배려	-8003
▁백인	-8004
▁생기	-8005
▁신세	-8006
▁여유	-8007
▁연습	-8008
▁연인	-8009
▁오인	-8010
▁완죤	-8011
▁유승	-8012
▁이순	-8013
▁이중	-8014
▁재치	-8015
▁정석	-8016
▁졸리	-8017
▁죽인	-8018
▁지저	-8019
▁차별	-8020
▁추가	-8021
▁하긴	-8022
▁한글	-8023
▁한쿡	-8024
▁홧팅	-8025
나보다	-8026
보기엔	-8027
분정도	-8028
시대의	-8029
십니다	-8030
안되고	-8031
지않음	-8032
짜증나	-8033
판으로	-8034
▁결국엔	-8035
▁공포도	-8036
▁과장된	-8037
▁관람객	-8038
▁국어책	-8039
▁그들을	-8040
▁나와도	-8041
▁내취향	-8042
▁명작임	-8043
▁무간도	-8044
▁믿기지	-8045
▁보고도	-8046
▁심오한	-8047
▁안되네	-8048
▁약하다	-8049
▁어디가	-8050
▁엄정화	-8051
▁영화랑	-8052
▁유치원	-8053
▁있어도	-8054
▁자체도	-8055
▁전율이	-8056
▁중학교	-8057
▁최악이	-8058
▁편견을	-8059
▁화끈한	-8060
없습니다	-8061
왔습니다	-8062
재미있다	-8063
점주기도	-8064
지루하다	-8065
킬링타임	-8066
하고싶은	-8067
▁감독님의	-8068
▁만화영화	-8069
▁미친듯이	-8070
▁사람에게	-8071
▁사랑한다	-8072
▁야하지도	-8073
▁연기력과	-8074
▁오글거리	-8075
▁이야기도	-8076
▁이야기에	-8077
▁지루함의	-8078
점도아깝다	-8079
최고의영화	-8080
▁러닝타임이	-8081
▁명작이라고	-8082
▁자연스러운	-8083
▁트랜스포머	-8084
▁현실적이고	-8085
.(	-8086
ff	-8087
▁넓	-8088
▁닌	-8089
▁롱	-8090
▁맑	-8091
▁헉	-8092
같네	-8093
거는	-8094
격이	-8095
공부	-8096
구는	-8097
기나	-8098
동을	-8099
들린	-8100
명은	-8101
명화	-8102
문을	-8103
부한	-8104
사라	-8105
왔던	-8106
을지	-8107
자식	-8108
자키	-8109
지원	-8110
철학	-8111
폭력	-8112
할뻔	-8113
현준	-8114
ove	-8115
▁개잼	-8116
▁거다	-8117
▁건강	-8118
▁걸로	-8119
▁고질	-8120
▁그를	-8121
▁김윤	-8122
▁끝은	-8123
▁낚인	-8124
▁남고	-8125
▁넘치	-8126
▁눈치	-8127
▁니들	-8128
▁되야	-8129
▁따듯	-8130
▁때도	-8131
▁뚝뚝	-8132
▁목적	-8133
▁반갑	-8134
▁배드	-8135
▁색깔	-8136
▁서스	-8137
▁쏘우	-8138
▁애가	-8139
▁없애	-8140
▁욕만	-8141
▁용기	-8142
▁위안	-8143
▁의사	-8144
▁장혁	-8145
▁지하	-8146
▁찾기	-8147
▁최대	-8148
▁커피	-8149
▁컬트	-8150
▁쿵푸	-8151
▁팍팍	-8152
▁하드	-8153
▁해외	-8154
▁허탈	-8155
▁화질	-8156
▁흘렀	-8157
▁흥분	-8158
▁힙합	-8159
감동도	-8160
기보단	-8161
내용을	-8162
년동안	-8163
로맨스	-8164
방에서	-8165
보시길	-8166
샌들러	-8167
씩이나	-8168
자들은	-8169
하더니	-8170
9999	-8171
▁가까이	-8172
▁강동원	-8173
▁기대안	-8174
▁나왔음	-8175
▁내시간	-8176
▁대사는	-8177
▁되어야	-8178
▁만화를	-8179
▁명배우	-8180
▁못했던	-8181
▁미래를	-8182
▁받았다	-8183
▁버렸다	-8184
▁범인이	-8185
▁세상의	-8186
▁시간과	-8187
▁알수있	-8188
▁애들도	-8189
▁연출을	-8190
▁예뻐서	-8191
▁우울한	-8192
▁일어나	-8193
▁임창정	-8194
▁작가는	-8195
▁재미만	-8196
▁잼없다	-8197
▁전부다	-8198
▁지나친	-8199
▁최악임	-8200
▁클리셰	-8201
▁타이틀	-8202
▁터지는	-8203
▁평점도	-8204
▁하지원	-8205
영화였다	-8206
재밋어요	-8207
▁2.22	-8208
▁~~~~	-8209
▁떠오르는	-8210
▁메세지가	-8211
▁아이언맨	-8212
▁우리에게	-8213
▁유치찬란	-8214
▁잊지못할	-8215
▁잘하네요	-8216
▁지금이나	-8217
▁해주세요	-8218
▁허접하고	-8219
하셨습니다	-8220
▁공포영화가	-8221
▁만들었으면	-8222
▁재미없었음	-8223
쓰레기쓰레기	-8224
.?	-8225
:)	-8226
na	-8227
▁곡	-8228
▁콤	-8229
▁톱	-8230
▁핀	-8231
거죠	-8232
귀신	-8233
년을	-8234
노출	-8235
님을	-8236
달아	-8237
더스	-8238
데요	-8239
래셔	-8240
말까	-8241
보며	-8242
봤네	-8243
부모	-8244
뽕짝	-8245
사극	-8246
상도	-8247
써요	-8248
어설	-8249
에휴	-8250
일단	-8251
장센	-8252
줘요	-8253
지환	-8254
진의	-8255
짓을	-8256
차이	-8257
한가	-8258
히히	-8259
..;	-8260
▁1~	-8261
▁가난	-8262
▁가야	-8263
▁고소	-8264
▁관대	-8265
▁그외	-8266
▁나비	-8267
▁날려	-8268
▁남친	-8269
▁넘는	-8270
▁놓은	-8271
▁더럽	-8272
▁돈벌	-8273
▁드물	-8274
▁로마	-8275
▁망설	-8276
▁못주	-8277
▁무대	-8278
▁미니	-8279
▁믿기	-8280
▁버무	-8281
▁앉아	-8282
▁오페	-8283
▁유익	-8284
▁의한	-8285
▁이란	-8286
▁이뻤	-8287
▁이전	-8288
▁인가	-8289
▁일찍	-8290
▁주관	-8291
▁지지	-8292
▁픽션	-8293
▁하셨	-8294
▁한예	-8295
갑자기	-8296
눈물이	-8297
니버스	-8298
다는것	-8299
볼수록	-8300
새끼들	-8301
시네요	-8302
이해가	-8303
재밋음	-8304
▁강하게	-8305
▁굿굿굿	-8306
▁김희선	-8307
▁나머진	-8308
▁나올때	-8309
▁되어서	-8310
▁드림웍	-8311
▁말밖에	-8312
▁믿을게	-8313
▁불쌍해	-8314
▁빈약한	-8315
▁빠지게	-8316
▁사투리	-8317
▁설명이	-8318
▁손색이	-8319
▁어중간	-8320
▁엔딩은	-8321
▁웃긴다	-8322
▁의도를	-8323
▁일본이	-8324
▁일본인	-8325
▁잼나요	-8326
▁점에서	-8327
감동적이	-8328
하고싶다	-8329
▁겨울왕국	-8330
▁드래곤볼	-8331
▁보는동안	-8332
▁새록새록	-8333
▁슬프네요	-8334
▁아마추어	-8335
▁안나오고	-8336
▁없었는데	-8337
▁여배우의	-8338
▁영화감독	-8339
▁영화같은	-8340
▁이따구로	-8341
▁이런것도	-8342
▁이탈리아	-8343
▁인상깊게	-8344
▁잔인하고	-8345
▁재미나게	-8346
▁진행되는	-8347
▁초반에는	-8348
▁흐지부지	-8349
▁감동도없고	-8350
▁다시봤는데	-8351
▁되었습니다	-8352
▁매력적이다	-8353
▁시나리오도	-8354
▁아름다웠다	-8355
▁재밌게봤는데	-8356
13	-8357
ᄉᄇ	-8358
▁껏	-8359
▁즉	-8360
간이	-8361
감에	-8362
괴담	-8363
구먼	-8364
끄는	-8365
덜덜	-8366
랄한	-8367
밑에	-8368
번도	-8369
별루	-8370
숙한	-8371
스코	-8372
시를	-8373
실화	-8374
임이	-8375
자에	-8376
주를	-8377
타는	-8378
판에	-8379
평생	-8380
화면	-8381
힘든	-8382
▁거장	-8383
▁교회	-8384
▁그에	-8385
▁기록	-8386
▁꺼져	-8387
▁꿈과	-8388
▁끝판	-8389
▁내고	-8390
▁너희	-8391
▁노골	-8392
▁따스	-8393
▁때의	-8394
▁많음	-8395
▁무색	-8396
▁박정	-8397
▁반감	-8398
▁배울	-8399
▁성찰	-8400
▁쓰나	-8401
▁얻어	-8402
▁우롱	-8403
▁우승	-8404
▁으로	-8405
▁의지	-8406
▁일관	-8407
▁점은	-8408
▁종합	-8409
▁죽일	-8410
▁지는	-8411
▁평론	-8412
▁포함	-8413
▁학살	-8414
▁한대	-8415
같네요	-8416
너무잘	-8417
더럽게	-8418
들어서	-8419
리지만	-8420
사람도	-8421
스란히	-8422
스러울	-8423
스트라	-8424
이들이	-8425
이란게	-8426
▁기대에	-8427
▁기억을	-8428
▁끝난다	-8429
▁노래를	-8430
▁달리는	-8431
▁더러워	-8432
▁면에서	-8433
▁배우와	-8434
▁베드신	-8435
▁별하나	-8436
▁복잡한	-8437
▁살렸다	-8438
▁손예진	-8439
▁신세계	-8440
▁아이와	-8441
▁않아도	-8442
▁않으면	-8443
▁알려준	-8444
▁앞에서	-8445
▁어설퍼	-8446
▁언젠가	-8447
▁없는듯	-8448
▁없으니	-8449
▁영화볼	-8450
▁왔는데	-8451
▁원작과	-8452
▁윌리엄	-8453
▁이딴거	-8454
▁이정재	-8455
▁장동건	-8456
▁전지현	-8457
▁정우성	-8458
▁특이한	-8459
▁한계를	-8460
▁한번씩	-8461
할수없는	-8462
▁감동적임	-8463
▁귀여워서	-8464
▁당시에는	-8465
▁도라에몽	-8466
▁말하려는	-8467
▁분위기를	-8468
▁상상력이	-8469
▁생각했던	-8470
▁소피마르	-8471
▁아이들은	-8472
▁오글거림	-8473
▁의미없는	-8474
▁이것저것	-8475
▁좋아하고	-8476
▁지루했음	-8477
▁캐릭터의	-8478
▁코미디는	-8479
▁고맙습니다	-8480
▁다세포소녀	-8481
▁다크나이트	-8482
▁보고싶네요	-8483
▁영화자체는	-8484
▁좋아하네요	-8485
▁ᄏᄏᄏᄏᄏᄏᄏᄏᄏ	-8486
14	-8487
▁숭	-8488
▁싹	-8489
▁쏴	-8490
▁탱	-8491
건강	-8492
겨운	-8493
구리	-8494
남주	-8495
놀이	-8496
될듯	-8497
두사	-8498
라곤	-8499
마가	-8500
맞추	-8501
봤을	-8502
삼류	-8503
성룡	-8504
속을	-8505
수정	-8506
실력	-8507
전달	-8508
전문	-8509
졌네	-8510
조한	-8511
지르	-8512
크가	-8513
평을	-8514
평이	-8515
할줄	-8516
해본	-8517
해줄	-8518
▁가라	-8519
▁가을	-8520
▁김선	-8521
▁나빠	-8522
▁단역	-8523
▁대역	-8524
▁들지	-8525
▁람보	-8526
▁멀리	-8527
▁멈추	-8528
▁반도	-8529
▁받았	-8530
▁베트	-8531
▁봤지	-8532
▁살리	-8533
▁상실	-8534
▁성적	-8535
▁솔까	-8536
▁심한	-8537
▁유혹	-8538
▁이를	-8539
▁이외	-8540
▁일생	-8541
▁재현	-8542
▁지워	-8543
▁짱임	-8544
▁추구	-8545
▁크다	-8546
▁티가	-8547
▁향한	-8548
▁회상	-8549
너무나	-8550
네이버	-8551
들보다	-8552
들이다	-8553
라노말	-8554
을수도	-8555
이거나	-8556
일리언	-8557
하구나	-8558
함으로	-8559
히어로	-8560
▁8.5	-8561
▁가치를	-8562
▁낚여서	-8563
▁다른건	-8564
▁다큐를	-8565
▁답답해	-8566
▁대사를	-8567
▁따뜻해	-8568
▁또라이	-8569
▁만나는	-8570
▁모성애	-8571
▁못따라	-8572
▁무섭지	-8573
▁반전의	-8574
▁보낸다	-8575
▁봤다는	-8576
▁사람만	-8577
▁슬펐다	-8578
▁싶으면	-8579
▁아픔을	-8580
▁애니가	-8581
▁어떠한	-8582
▁어쨌든	-8583
▁어쩌다	-8584
▁오우삼	-8585
▁웃으며	-8586
▁웃음만	-8587
▁재발견	-8588
▁최고인	-8589
▁카메론	-8590
▁통쾌한	-8591
▁평가를	-8592
▁한가지	-8593
▁흠잡을	-8594
▁힘들게	-8595
떨어지는	-8596
영화에서	-8597
..-_-	-8598
▁군더더기	-8599
▁다이하드	-8600
▁돋보인다	-8601
▁많은것을	-8602
▁말았어야	-8603
▁미야자키	-8604
▁스릴러물	-8605
▁어디까지	-8606
▁어이없고	-8607
▁좋아했던	-8608
▁지루함이	-8609
▁필요없음	-8610
▁하지마라	-8611
▁-_-;;	-8612
▁공포영화는	-8613
▁우리나라의	-8614
▁재미있다고	-8615
▁재미있어서	-8616
▁존경합니다	-8617
->	-8618
▁깝	-8619
▁뼈	-8620
▁뿜	-8621
▁싼	-8622
감상	-8623
군의	-8624
그림	-8625
금보	-8626
급이	-8627
까봐	-8628
녀가	-8629
려야	-8630
려진	-8631
맹랑	-8632
바리	-8633
비는	-8634
시도	-8635
여야	-8636
이와	-8637
재현	-8638
지효	-8639
책임	-8640
토퍼	-8641
특집	-8642
파서	-8643
판은	-8644
하죠	-8645
할거	-8646
향이	-8647
▁골때	-8648
▁높네	-8649
▁덴젤	-8650
▁두말	-8651
▁드문	-8652
▁들여	-8653
▁마구	-8654
▁배가	-8655
▁법정	-8656
▁부각	-8657
▁부드	-8658
▁불행	-8659
▁비중	-8660
▁빨간	-8661
▁샤론	-8662
▁스킵	-8663
▁안녕	-8664
▁않네	-8665
▁예산	-8666
▁의견	-8667
▁임청	-8668
▁잡고	-8669
▁저게	-8670
▁주먹	-8671
▁지상	-8672
▁쯧쯧	-8673
▁친일	-8674
▁코드	-8675
긴장감	-8676
는거다	-8677
받아서	-8678
스에서	-8679
습니당	-8680
필요한	-8681
하구만	-8682
▁300	-8683
▁결과는	-8684
▁고인의	-8685
▁김민종	-8686
▁남자를	-8687
▁데뷔작	-8688
▁도중에	-8689
▁들어도	-8690
▁또봐도	-8691
▁만드냐	-8692
▁머리를	-8693
▁배경도	-8694
▁보기싫	-8695
▁본듯한	-8696
▁소재만	-8697
▁수면제	-8698
▁스페인	-8699
▁싶지만	-8700
▁여자애	-8701
▁외국인	-8702
▁원작은	-8703
▁이쁘게	-8704
▁일어날	-8705
▁초중반	-8706
▁탁월한	-8707
▁풀어나	-8708
▁할말을	-8709
렸습니다	-8710
말이필요	-8711
볼때마다	-8712
스럽네요	-8713
었을텐데	-8714
하겠지만	-8715
하는건지	-8716
▁고스란히	-8717
▁관객에게	-8718
▁다시보게	-8719
▁메세지도	-8720
▁메시지가	-8721
▁메시지를	-8722
▁발연기에	-8723
▁보고싶어	-8724
▁부분에서	-8725
▁생각나게	-8726
▁쓰레기가	-8727
▁영화제목	-8728
▁예고편만	-8729
▁욕나온다	-8730
▁이상으로	-8731
▁졸작이다	-8732
▁주연배우	-8733
▁주인공을	-8734
▁추천한다	-8735
▁훈훈하고	-8736
영화관에서	-8737
잘봤습니다	-8738
▁뮤직비디오	-8739
▁스토리지만	-8740
▁안타깝네요	-8741
▁지루하지않	-8742
▁잔잔하면서도	-8743
44	-8744
el	-8745
▁Y	-8746
▁값	-8747
▁며	-8748
▁붉	-8749
▁쌈	-8750
▁칸	-8751
▁탕	-8752
독립	-8753
로가	-8754
사님	-8755
상욱	-8756
신분	-8757
아버	-8758
어느	-8759
에이	-8760
연애	-8761
요미	-8762
율이	-8763
자막	-8764
줘라	-8765
체를	-8766
펭귄	-8767
..,	-8768
▁in	-8769
▁감옥	-8770
▁거냐	-8771
▁괴수	-8772
▁그들	-8773
▁극찬	-8774
▁길고	-8775
▁끊임	-8776
▁나참	-8777
▁냉정	-8778
▁돈만	-8779
▁로보	-8780
▁만듬	-8781
▁만세	-8782
▁명확	-8783
▁몰락	-8784
▁몸을	-8785
▁번을	-8786
▁보아	-8787
▁보일	-8788
▁빠르	-8789
▁사로	-8790
▁사망	-8791
▁시사	-8792
▁실수	-8793
▁안남	-8794
▁애절	-8795
▁어딜	-8796
▁어떻	-8797
▁에바	-8798
▁였다	-8799
▁영광	-8800
▁예쁨	-8801
▁완성	-8802
▁이혼	-8803
▁인지	-8804
▁자위	-8805
▁잘해	-8806
▁주목	-8807
▁증명	-8808
▁총격	-8809
▁출발	-8810
▁혁명	-8811
같은거	-8812
거같아	-8813
그자체	-8814
던영화	-8815
드려요	-8816
만하고	-8817
뭡니까	-8818
슬프다	-8819
원주고	-8820
으세요	-8821
잘만들	-8822
재미는	-8823
조차도	-8824
평점을	-8825
...1	-8826
..??	-8827
▁개같은	-8828
▁것들을	-8829
▁기승전	-8830
▁넘어가	-8831
▁두시간	-8832
▁떨어진	-8833
▁똑바로	-8834
▁만들다	-8835
▁모자라	-8836
▁보느니	-8837
▁보여줌	-8838
▁복수극	-8839
▁솔직한	-8840
▁신데렐	-8841
▁아니냐	-8842
▁아니네	-8843
▁아이러	-8844
▁않았음	-8845
▁알아야	-8846
▁없구나	-8847
▁에로물	-8848
▁엑소시	-8849
▁여운도	-8850
▁이상함	-8851
▁작품의	-8852
▁장르의	-8853
▁저절로	-8854
▁줄리아	-8855
▁쥬라기	-8856
▁참고로	-8857
▁채널돌	-8858
▁팀버튼	-8859
▁한장면	-8860
▁현실감	-8861
다시봐도	-8862
하기까지	-8863
하더라도	-8864
▁2003	-8865
▁2013	-8866
▁나오다니	-8867
▁남아있는	-8868
▁만으로도	-8869
▁사람들도	-8870
▁사랑으로	-8871
▁식상하다	-8872
▁어우러진	-8873
▁여기저기	-8874
▁예술영화	-8875
▁오락영화	-8876
▁잃어버린	-8877
▁죽기전에	-8878
▁초반부터	-8879
▁퀄리티가	-8880
▁필요하다	-8881
▁힘내세요	-8882
▁실망스럽다	-8883
▁영화중에서	-8884
▁울었습니다	-8885
▁흥미진진한	-8886
▁개인적으로는	-8887
.............	-8888
.^	-8889
op	-8890
ᄀᄀ	-8891
▁좆	-8892
▁콧	-8893
▁헷	-8894
♡♥	-8895
걸작	-8896
국민	-8897
그때	-8898
급의	-8899
끼는	-8900
넘게	-8901
는뎅	-8902
다코	-8903
도와	-8904
등등	-8905
라나	-8906
리로	-8907
리칸	-8908
많고	-8909
버전	-8910
설마	-8911
슬퍼	-8912
양의	-8913
오로	-8914
올라	-8915
완벽	-8916
왜곡	-8917
웃긴	-8918
원래	-8919
잇고	-8920
쨋든	-8921
쳐도	-8922
초딩	-8923
치않	-8924
카메	-8925
홀로	-8926
.""	-8927
est	-8928
▁it	-8929
▁간첩	-8930
▁공주	-8931
▁그와	-8932
▁까는	-8933
▁납치	-8934
▁내놓	-8935
▁내세	-8936
▁내일	-8937
▁노무	-8938
▁대가	-8939
▁돈과	-8940
▁모호	-8941
▁배워	-8942
▁보소	-8943
▁본인	-8944
▁부러	-8945
▁비하	-8946
▁승부	-8947
▁애로	-8948
▁어마	-8949
▁에러	-8950
▁열자	-8951
▁온몸	-8952
▁유령	-8953
▁이겨	-8954
▁이태	-8955
▁일일	-8956
▁저희	-8957
▁정준	-8958
▁정통	-8959
▁증거	-8960
▁지배	-8961
▁징징	-8962
▁짱이	-8963
▁찾을	-8964
▁카피	-8965
▁캐리	-8966
▁퇴보	-8967
▁하자	-8968
거든요	-8969
그런가	-8970
냅니다	-8971
돈으로	-8972
떨어진	-8973
모습이	-8974
볼만한	-8975
빼고는	-8976
사에서	-8977
어주는	-8978
였으나	-8979
이정도	-8980
좋아서	-8981
특유의	-8982
편부터	-8983
하는듯	-8984
한건지	-8985
▁겉멋만	-8986
▁경의를	-8987
▁고마운	-8988
▁굉장한	-8989
▁그들은	-8990
▁그시절	-8991
▁깜짝놀	-8992
▁나은듯	-8993
▁대실망	-8994
▁뛰어나	-8995
▁만화가	-8996
▁매력은	-8997
▁미장센	-8998
▁복수를	-8999
▁불륜을	-9000
▁상영관	-9001
▁안나왔	-9002
▁안되서	-9003
▁어둡고	-9004
▁영화제	-9005
▁의외의	-9006
▁인물들	-9007
▁장면의	-9008
▁잼없음	-9009
▁차이가	-9010
▁클래식	-9011
▁태어나	-9012
▁표정이	-9013
▁한숨만	-9014
▁흑역사	-9015
▁흡입력	-9016
이영화는	-9017
재미있음	-9018
할정도로	-9019
▁다음으로	-9020
▁만들어야	-9021
▁무서워서	-9022
▁사람마다	-9023
▁아니네요	-9024
▁안타까움	-9025
▁없었으면	-9026
▁여태까지	-9027
▁영상미는	-9028
▁재밋는데	-9029
▁좋아하지	-9030
▁줄거리가	-9031
▁캐릭터와	-9032
...-_-	-9033
▁명작이네요	-9034
▁비현실적인	-9035
▁잔잔하지만	-9036
.7	-9037
ce	-9038
▁j	-9039
▁놔	-9040
▁떄	-9041
▁밉	-9042
▁빗	-9043
▁셀	-9044
▁혈	-9045
권택	-9046
근석	-9047
끝내	-9048
나쁘	-9049
남아	-9050
달까	-9051
더러	-9052
리트	-9053
먼저	-9054
바보	-9055
서방	-9056
소장	-9057
스도	-9058
스피	-9059
어마	-9060
열자	-9061
예고	-9062
이젠	-9063
인드	-9064
점만	-9065
진은	-9066
진희	-9067
챙겨	-9068
크의	-9069
필름	-9070
함만	-9071
해석	-9072
://	-9073
com	-9074
ttp	-9075
▁ᄅᄋ	-9076
▁ᄇᄉ	-9077
▁가해	-9078
▁고증	-9079
▁곱씹	-9080
▁날라	-9081
▁노튼	-9082
▁돈은	-9083
▁될듯	-9084
▁될수	-9085
▁록키	-9086
▁머가	-9087
▁박해	-9088
▁변호	-9089
▁본건	-9090
▁분이	-9091
▁분장	-9092
▁뻔뻔	-9093
▁숨어	-9094
▁안봐	-9095
▁어벤	-9096
▁없군	-9097
▁역쉬	-9098
▁엽문	-9099
▁잘안	-9100
▁저기	-9101
▁정이	-9102
▁종영	-9103
▁주옥	-9104
▁차분	-9105
▁총알	-9106
▁허구	-9107
▁활용	-9108
가능한	-9109
때까지	-9110
렸는데	-9111
리다가	-9112
버리지	-9113
버린다	-9114
볼수있	-9115
에서나	-9116
에서만	-9117
연기에	-9118
인간의	-9119
하나로	-9120
▁7.5	-9121
▁가져다	-9122
▁간간히	-9123
▁개봉을	-9124
▁과정을	-9125
▁구혜선	-9126
▁권상우	-9127
▁더럽고	-9128
▁된다는	-9129
▁모티브	-9130
▁미치는	-9131
▁별로인	-9132
▁분명히	-9133
▁선택한	-9134
▁설정과	-9135
▁성우가	-9136
▁소지섭	-9137
▁시원한	-9138
▁심리를	-9139
▁아동용	-9140
▁액션에	-9141
▁엉터리	-9142
▁영화계	-9143
▁영화찍	-9144
▁오인혜	-9145
▁울었던	-9146
▁웃음과	-9147
▁의문이	-9148
▁있나요	-9149
▁장면과	-9150
▁재밌지	-9151
▁전성기	-9152
▁전편의	-9153
▁절제된	-9154
▁정확히	-9155
▁조용히	-9156
▁주제는	-9157
▁중후반	-9158
▁즐거움	-9159
▁짐캐리	-9160
▁최초의	-9161
▁클라라	-9162
▁클라이	-9163
▁할수있	-9164
▁함부로	-9165
▁흐름이	-9166
노잼노잼	-9167
영화네요	-9168
티비에서	-9169
▁2004	-9170
▁very	-9171
▁과대평가	-9172
▁다큐멘터	-9173
▁등장하는	-9174
▁막장으로	-9175
▁몰랐는데	-9176
▁보고있는	-9177
▁아깝다는	-9178
▁아니라서	-9179
▁않았을까	-9180
▁에드워드	-9181
▁작품이라	-9182
것같습니다	-9183
▁보고싶어요	-9184
▁시나리오를	-9185
▁아쉬웠지만	-9186
▁이영화보고	-9187
▁일본영화는	-9188
▁파워레인저	-9189
00000000	-9190
.9	-9191
ve	-9192
▁긍	-9193
▁꾹	-9194
▁캠	-9195
▁툭	-9196
겨울	-9197
경의	-9198
곳이	-9199
교육	-9200
국이	-9201
꺼다	-9202
나무	-9203
남길	-9204
던거	-9205
도다	-9206
두근	-9207
려니	-9208
블루	-9209
뿐만	-9210
살에	-9211
서린	-9212
서트	-9213
심의	-9214
아침	-9215
언이	-9216
영웅	-9217
이번	-9218
잇다	-9219
저질	-9220
정보	-9221
중한	-9222
통에	-9223
하이	-9224
!^^	-9225
▁고딩	-9226
▁괴로	-9227
▁괴롭	-9228
▁권력	-9229
▁나니	-9230
▁내리	-9231
▁도입	-9232
▁또는	-9233
▁뛰쳐	-9234
▁맘이	-9235
▁매혹	-9236
▁물건	-9237
▁물씬	-9238
▁바랬	-9239
▁보셈	-9240
▁순진	-9241
▁슈렉	-9242
▁심히	-9243
▁싸울	-9244
▁쓰지	-9245
▁언론	-9246
▁엠마	-9247
▁우아	-9248
▁웹툰	-9249
▁이경	-9250
▁읽는	-9251
▁잘하	-9252
▁잘함	-9253
▁잼씀	-9254
▁저거	-9255
▁전락	-9256
▁존잼	-9257
▁증말	-9258
▁징그	-9259
▁찍을	-9260
▁찜찜	-9261
▁총을	-9262
▁출현	-9263
▁침묵	-9264
▁태권	-9265
▁하냐	-9266
▁환장	-9267
▁흐뭇	-9268
거에요	-9269
놈들이	-9270
로서는	-9271
말고는	-9272
발이고	-9273
번이나	-9274
봣어요	-9275
수준이	-9276
앗는데	-9277
앞에서	-9278
앞으로	-9279
어머니	-9280
주의를	-9281
집에서	-9282
편으로	-9283
▁감흥이	-9284
▁갔는데	-9285
▁강아지	-9286
▁거대한	-9287
▁게임을	-9288
▁기대는	-9289
▁기대도	-9290
▁넘어선	-9291
▁떨어져	-9292
▁막장이	-9293
▁만나고	-9294
▁명성을	-9295
▁본적이	-9296
▁부르는	-9297
▁불쾌한	-9298
▁사실이	-9299
▁상황에	-9300
▁스릴이	-9301
▁아쉬울	-9302
▁이유로	-9303
▁있으니	-9304
▁작품중	-9305
▁정당화	-9306
▁죽을때	-9307
▁하던가	-9308
▁한효주	-9309
거같네요	-9310
남기는데	-9311
보고나서	-9312
을정도로	-9313
하하하하	-9314
▁best	-9315
▁감성팔이	-9316
▁결말까지	-9317
▁공감가는	-9318
▁그지같은	-9319
▁극장판은	-9320
▁나왔는데	-9321
▁마음속에	-9322
▁만들려고	-9323
▁만들었네	-9324
▁미치도록	-9325
▁볼만해요	-9326
▁부끄러운	-9327
▁분위기에	-9328
▁수준이하	-9329
▁아까워요	-9330
▁어린아이	-9331
▁에일리언	-9332
▁영화내내	-9333
▁재미있네	-9334
▁재밌게봤	-9335
▁재밌었고	-9336
▁좋아해요	-9337
▁중간부터	-9338
▁지루하네	-9339
▁톰크루즈	-9340
▁허무맹랑	-9341
▁허접하다	-9342
▁기대됩니다	-9343
▁러브스토리	-9344
▁싸이코패스	-9345
▁응원합니다	-9346
▁재미있었던	-9347
▁최고였습니다	-9348
!!!!!!!!!	-9349
60	-9350
ch	-9351
ct	-9352
▁ᄃ	-9353
▁뚫	-9354
▁멸	-9355
▁밍	-9356
▁쏙	-9357
▁얽	-9358
▁왓	-9359
▁훌	-9360
가니	-9361
가라	-9362
겠냐	-9363
그게	-9364
글자	-9365
눈이	-9366
데로	-9367
라지	-9368
마는	-9369
못보	-9370
문의	-9371
민아	-9372
보셈	-9373
브라	-9374
상실	-9375
스라	-9376
시죠	-9377
았어	-9378
어난	-9379
엿다	-9380
이형	-9381
일으	-9382
지우	-9383
허허	-9384
호의	-9385
효진	-9386
▁28	-9387
▁99	-9388
▁같네	-9389
▁걸린	-9390
▁구역	-9391
▁그대	-9392
▁기념	-9393
▁길다	-9394
▁김정	-9395
▁남발	-9396
▁내겐	-9397
▁뉴욕	-9398
▁똥을	-9399
▁맞게	-9400
▁멘붕	-9401
▁뿐만	-9402
▁상투	-9403
▁색감	-9404
▁속은	-9405
▁수사	-9406
▁애정	-9407
▁양조	-9408
▁어케	-9409
▁엉덩	-9410
▁이영	-9411
▁일탈	-9412
▁잘살	-9413
▁접근	-9414
▁정화	-9415
▁짐승	-9416
▁집단	-9417
▁쪽팔	-9418
▁참을	-9419
▁토끼	-9420
는것도	-9421
도없는	-9422
성으로	-9423
세상에	-9424
에게도	-9425
영화냐	-9426
이라곤	-9427
작가님	-9428
하였다	-9429
하잖아	-9430
1010	-9431
▁KBS	-9432
▁MBC	-9433
▁~~~	-9434
▁나가는	-9435
▁낚였네	-9436
▁낚이지	-9437
▁남기고	-9438
▁남는건	-9439
▁너무낮	-9440
▁느리고	-9441
▁더더욱	-9442
▁돈낭비	-9443
▁마케팅	-9444
▁많지만	-9445
▁말이다	-9446
▁머리에	-9447
▁무서울	-9448
▁무엇이	-9449
▁뭔가요	-9450
▁베트남	-9451
▁비정상	-9452
▁사기꾼	-9453
▁생각에	-9454
▁송혜교	-9455
▁실패작	-9456
▁아침에	-9457
▁안되나	-9458
▁양동근	-9459
▁엄마의	-9460
▁예쁘게	-9461
▁유지태	-9462
▁이번에	-9463
▁자유를	-9464
▁잘생긴	-9465
▁조금씩	-9466
▁주제도	-9467
▁죽는다	-9468
▁즐겁고	-9469
▁집중도	-9470
▁짱짱맨	-9471
▁태어난	-9472
▁하던데	-9473
▁행복을	-9474
▁혼자서	-9475
영화지만	-9476
적이지만	-9477
프라이즈	-9478
하시네요	-9479
▁그들만의	-9480
▁그럼에도	-9481
▁기대되는	-9482
▁나오는거	-9483
▁내용으로	-9484
▁너무재밌	-9485
▁답답해서	-9486
▁대표적인	-9487
▁만들기도	-9488
▁말아먹은	-9489
▁받아들이	-9490
▁배우분들	-9491
▁별한개도	-9492
▁볼만했음	-9493
▁분위기도	-9494
▁생각해서	-9495
▁스릴러를	-9496
▁시간아깝	-9497
▁시선으로	-9498
▁아까웠던	-9499
▁아닌가요	-9500
▁안타깝고	-9501
▁영화라면	-9502
▁예고편이	-9503
▁이해하지	-9504
▁인간적인	-9505
▁장난아니	-9506
▁재밌기만	-9507
▁정신나간	-9508
▁조기종영	-9509
▁중학교때	-9510
▁한번쯤은	-9511
▁허무하게	-9512
▁현실성이	-9513
좋아하는데	-9514
▁처음이네요	-9515
▁킬링타임용도	-9516
><	-9517
~8	-9518
▁빚	-9519
▁엇	-9520
▁혜	-9521
가자	-9522
거니	-9523
구구	-9524
기준	-9525
나만	-9526
내려	-9527
는디	-9528
대전	-9529
대화	-9530
데터	-9531
되네	-9532
드네	-9533
들리	-9534
맞은	-9535
보길	-9536
보임	-9537
부림	-9538
비홍	-9539
빨고	-9540
사한	-9541
생이	-9542
싱턴	-9543
씨를	-9544
었죠	-9545
유머	-9546
음에	-9547
저링	-9548
점줄	-9549
제는	-9550
존재	-9551
죽을	-9552
하단	-9553
ion	-9554
▁24	-9555
▁98	-9556
▁가식	-9557
▁경계	-9558
▁구분	-9559
▁극한	-9560
▁난생	-9561
▁느슨	-9562
▁단언	-9563
▁똑똑	-9564
▁마을	-9565
▁몇개	-9566
▁못본	-9567
▁못살	-9568
▁미리	-9569
▁바꾼	-9570
▁발레	-9571
▁볼것	-9572
▁불면	-9573
▁서서	-9574
▁속의	-9575
▁씨발	-9576
▁알렉	-9577
▁어떡	-9578
▁에릭	-9579
▁여튼	-9580
▁연주	-9581
▁우스	-9582
▁울게	-9583
▁웃게	-9584
▁원표	-9585
▁유부	-9586
▁이자	-9587
▁저주	-9588
▁조심	-9589
▁존내	-9590
▁중년	-9591
▁차마	-9592
▁천만	-9593
▁퀴어	-9594
▁특징	-9595
▁틈이	-9596
▁파이	-9597
▁할배	-9598
▁할지	-9599
▁했을	-9600
▁헷갈	-9601
가슴이	-9602
고싶어	-9603
그렇고	-9604
당하고	-9605
됐는데	-9606
만든다	-9607
맞추기	-9608
봤으면	-9609
부분도	-9610
분위기	-9611
수준의	-9612
싶네요	-9613
영화나	-9614
인으로	-9615
있다는	-9616
잘하고	-9617
저예산	-9618
줄거리	-9619
창있네	-9620
편인데	-9621
----	-9622
▁,,,	-9623
▁The	-9624
▁개소리	-9625
▁것인지	-9626
▁김구라	-9627
▁꿈꾸는	-9628
▁끝판왕	-9629
▁나오기	-9630
▁돈아까	-9631
▁뜨거운	-9632
▁런닝맨	-9633
▁만화는	-9634
▁모르겟	-9635
▁모르나	-9636
▁뭔가가	-9637
▁미소를	-9638
▁미이라	-9639
▁부럽다	-9640
▁살아남	-9641
▁상상을	-9642
▁소리지	-9643
▁스티브	-9644
▁알게된	-9645
▁용두사	-9646
▁이해못	-9647
▁이후에	-9648
▁인터뷰	-9649
▁일베충	-9650
▁있겠지	-9651
▁장면들	-9652
▁제목과	-9653
▁지나서	-9654
▁초능력	-9655
▁초반부	-9656
▁최대의	-9657
▁친구들	-9658
▁평점올	-9659
장면에서	-9660
▁나온다고	-9661
▁너무한다	-9662
▁만들어준	-9663
▁매력있는	-9664
▁몇번이고	-9665
▁몇번이나	-9666
▁별로였음	-9667
▁아프리카	-9668
▁안했는데	-9669
▁알겠지만	-9670
▁없다는게	-9671
▁엉성하다	-9672
▁여배우들	-9673
▁영화계의	-9674
▁이정도로	-9675
▁이해가안	-9676
▁인간들이	-9677
▁인종차별	-9678
▁주인공도	-9679
▁진짜진짜	-9680
▁파라노말	-9681
▁해도해도	-9682
▁화려하고	-9683
▁영화자체가	-9684
▁오글거려서	-9685
▁재미있었고	-9686
▁지루하기만	-9687
▁너무재밌어요	-9688
▁ᄏᄏᄏᄏᄏᄏᄏᄏᄏᄏ	-9689
▁ᄏᄏᄏᄏᄏᄏᄏᄏᄏᄏᄏ	-9690
ht	-9691
if	-9692
ne	-9693
▁♡	-9694
▁갇	-9695
▁곁	-9696
▁낸	-9697
▁맷	-9698
▁멕	-9699
▁쫒	-9700
▁쯤	-9701
▁캡	-9702
가진	-9703
간지	-9704
깊게	-9705
데기	-9706
디션	-9707
마트	-9708
맞춘	-9709
매우	-9710
부러	-9711
부턴	-9712
비를	-9713
수고	-9714
스티	-9715
시라	-9716
안나	-9717
위로	-9718
일세	-9719
점점	-9720
키스	-9721
플렉	-9722
.10	-9723
ill	-9724
▁같지	-9725
▁검은	-9726
▁계획	-9727
▁구라	-9728
▁구멍	-9729
▁구지	-9730
▁나뿐	-9731
▁다리	-9732
▁닥터	-9733
▁드리	-9734
▁마초	-9735
▁맛깔	-9736
▁모여	-9737
▁무관	-9738
▁미흡	-9739
▁백배	-9740
▁버리	-9741
▁보진	-9742
▁비싼	-9743
▁빠짐	-9744
▁생략	-9745
▁쓰렉	-9746
▁약한	-9747
▁우습	-9748
▁웃길	-9749
▁잡는	-9750
▁정재	-9751
▁조조	-9752
▁쥐어	-9753
▁지적	-9754
▁최후	-9755
▁치는	-9756
▁큐브	-9757
▁토니	-9758
▁푸른	-9759
▁한개	-9760
▁한테	-9761
거라고	-9762
그것도	-9763
는지도	-9764
모르는	-9765
볼려고	-9766
아쉽다	-9767
아이돌	-9768
아줌마	-9769
었을때	-9770
였다고	-9771
왔어요	-9772
이기에	-9773
지루한	-9774
지않나	-9775
티비로	-9776
했더니	-9777
▁ocn	-9778
▁계기가	-9779
▁관객들	-9780
▁관객의	-9781
▁괜찮네	-9782
▁교훈이	-9783
▁구성과	-9784
▁구성은	-9785
▁글쎄요	-9786
▁나홀로	-9787
▁단체로	-9788
▁당연한	-9789
▁맙시다	-9790
▁모자란	-9791
▁못보고	-9792
▁못하겠	-9793
▁받아서	-9794
▁배경과	-9795
▁범죄자	-9796
▁봤었다	-9797
▁부족함	-9798
▁생각한	-9799
▁세상은	-9800
▁슬래셔	-9801
▁슬퍼서	-9802
▁시절의	-9803
▁신나게	-9804
▁쌩뚱맞	-9805
▁아닌것	-9806
▁아쉽고	-9807
▁엄마랑	-9808
▁영화본	-9809
▁오타쿠	-9810
▁원피스	-9811
▁인물의	-9812
▁임권택	-9813
▁잘하네	-9814
▁장르는	-9815
▁재밌당	-9816
▁전쟁을	-9817
▁정신차	-9818
▁주제에	-9819
▁충격을	-9820
▁충격이	-9821
▁케이트	-9822
▁코드가	-9823
▁화면이	-9824
▁후회함	-9825
부분에서	-9826
영화중에	-9827
재미없고	-9828
좋았어요	-9829
▁2005	-9830
▁2010	-9831
▁강력추천	-9832
▁남자라면	-9833
▁돈아깝다	-9834
▁되었는데	-9835
▁때문이다	-9836
▁마지막의	-9837
▁만드는지	-9838
▁모든것을	-9839
▁보냅니다	-9840
▁보이지만	-9841
▁상영관이	-9842
▁스케일이	-9843
▁쓰레기임	-9844
▁아니라는	-9845
▁어렸을적	-9846
▁어쩌라고	-9847
▁연기까지	-9848
▁영화들은	-9849
▁원작소설	-9850
▁일어나는	-9851
▁존재하는	-9852
▁졸업작품	-9853
▁지났지만	-9854
▁철학적인	-9855
▁코미디가	-9856
▁감동적으로	-9857
▁스타일리쉬	-9858
▁시간아까워	-9859
▁어이없어서	-9860
▁영화라는게	-9861
▁우리나라는	-9862
▁초등학교때	-9863
▁최고였어요	-9864
▁애니메이션이	-9865
▁델	-9866
▁턱	-9867
▁퓨	-9868
가다	-9869
가도	-9870
과정	-9871
괜히	-9872
교훈	-9873
꼬마	-9874
나타	-9875
났던	-9876
라마	-9877
리타	-9878
망이	-9879
베리	-9880
보라	-9881
소를	-9882
안의	-9883
어는	-9884
영씨	-9885
일라	-9886
전체	-9887
점짜	-9888
주네	-9889
터짐	-9890
틈이	-9891
하곤	-9892
화는	-9893
,..	-9894
hat	-9895
▁가상	-9896
▁간직	-9897
▁강호	-9898
▁건데	-9899
▁경우	-9900
▁경제	-9901
▁고찰	-9902
▁군인	-9903
▁김강	-9904
▁김영	-9905
▁꿈이	-9906
▁넘은	-9907
▁노동	-9908
▁논리	-9909
▁도통	-9910
▁되도	-9911
▁둘의	-9912
▁딱딱	-9913
▁레즈	-9914
▁말만	-9915
▁말에	-9916
▁멤버	-9917
▁몸에	-9918
▁버금	-9919
▁버릴	-9920
▁버전	-9921
▁볼줄	-9922
▁부디	-9923
▁부조	-9924
▁빠지	-9925
▁샤를	-9926
▁섞어	-9927
▁속도	-9928
▁신념	-9929
▁엉엉	-9930
▁여고	-9931
▁여왕	-9932
▁은퇴	-9933
▁의학	-9934
▁이범	-9935
▁임신	-9936
▁잼없	-9937
▁정리	-9938
▁지존	-9939
▁총질	-9940
▁추락	-9941
▁퍼즐	-9942
▁펭귄	-9943
▁하던	-9944
▁황홀	-9945
▁휴먼	-9946
가는데	-9947
감동이	-9948
급으로	-9949
기억에	-9950
러워서	-9951
모습을	-9952
봤다가	-9953
봤더니	-9954
성탈출	-9955
수밖에	-9956
스트너	-9957
영화네	-9958
위해서	-9959
이것도	-9960
이런거	-9961
이쁘고	-9962
좋겠다	-9963
진정한	-9964
합시다	-9965
..."	-9966
▁198	-9967
▁가끔씩	-9968
▁강지환	-9969
▁검색해	-9970
▁공중파	-9971
▁과거를	-9972
▁괜찮아	-9973
▁궁금해	-9974
▁기분만	-9975
▁기억될	-9976
▁깊이가	-9977
▁남았다	-9978
▁놀라울	-9979
▁누구도	-9980
▁담아낸	-9981
▁마스터	-9982
▁마음의	-9983
▁말하려	-9984
▁말해서	-9985
▁모습과	-9986
▁모습도	-9987
▁몬스터	-9988
▁방법이	-9989
▁별루다	-9990
▁서스펜	-9991
▁소재에	-9992
▁송지효	-9993
▁시작은	-9994
▁식으로	-9995
▁심각한	-9996
▁아닌지	-9997
▁않았나	-9998
▁액션물	-9999
▁액션신	-10000
▁어째서	-10001
▁없었고	-10002
▁웃기네	-10003
▁웃어야	-10004
▁의미는	-10005
▁이거는	-10006
▁인물이	-10007
▁일요일	-10008
▁있는게	-10009
▁잘표현	-10010
▁전작에	-10011
▁주상욱	-10012
▁지겨워	-10013
▁촌스럽	-10014
▁파이팅	-10015
▁평점낮	-10016
▁표현해	-10017
▁하는건	-10018
▁한건지	-10019
▁한국에	-10020
▁핸드폰	-10021
▁현실의	-10022
감동적인	-10023
긴했지만	-10024
이라고는	-10025
점대라니	-10026
▁기분좋게	-10027
▁깔끔하고	-10028
▁말해주는	-10029
▁몽환적인	-10030
▁분위기와	-10031
▁빠져드는	-10032
▁뻔하지만	-10033
▁사무라이	-10034
▁슬프지만	-10035
▁어린이용	-10036
▁없는영화	-10037
▁영화만들	-10038
▁오글거려	-10039
▁우리들의	-10040
▁움직이는	-10041
▁이걸보고	-10042
▁인디아나	-10043
▁재밌지도	-10044
▁좋아하게	-10045
▁참신하고	-10046
▁코믹영화	-10047
▁해야하나	-10048
▁훌륭하고	-10049
보고싶어요	-10050
▁네이버평점	-10051
▁드라마네요	-10052
▁마지막으로	-10053
▁모르겠는데	-10054
▁미안하지만	-10055
▁보고있어요	-10056
▁볼만하네요	-10057
▁사실적으로	-10058
▁아침드라마	-10059
▁......	-10060
ᄏᄏᄏᄏᄏᄏᄏᄏᄏᄏ	-10061
▁`	-10062
▁규	-10063
▁넋	-10064
▁덧	-10065
▁맺	-10066
▁켄	-10067
▁홈	-10068
게도	-10069
결론	-10070
그의	-10071
근한	-10072
금을	-10073
급을	-10074
내기	-10075
넣은	-10076
다를	-10077
드문	-10078
마냥	-10079
많다	-10080
맹이	-10081
박이	-10082
볼까	-10083
분만	-10084
비교	-10085
선수	-10086
아닐	-10087
아마	-10088
역의	-10089
올때	-10090
용이	-10091
우면	-10092
월드	-10093
이긴	-10094
이쁨	-10095
이한	-10096
인권	-10097
잼있	-10098
좋았	-10099
중독	-10100
치네	-10101
틀러	-10102
피는	-10103
해피	-10104
희씨	-10105
힌다	-10106
?""	-10107
▁1,	-10108
▁me	-10109
▁가시	-10110
▁고급	-10111
▁나누	-10112
▁뇌가	-10113
▁달고	-10114
▁돌고	-10115
▁두명	-10116
▁로렌	-10117
▁마주	-10118
▁메가	-10119
▁몸이	-10120
▁미개	-10121
▁미키	-10122
▁보실	-10123
▁복선	-10124
▁비롯	-10125
▁빛이	-10126
▁섭외	-10127
▁싫은	-10128
▁싶게	-10129
▁싶었	-10130
▁악몽	-10131
▁알지	-10132
▁예매	-10133
▁요약	-10134
▁인데	-10135
▁잠수	-10136
▁조정	-10137
▁졸려	-10138
▁죽기	-10139
▁천사	-10140
▁최하	-10141
▁충무	-10142
▁치열	-10143
▁타락	-10144
▁토요	-10145
▁파악	-10146
▁파트	-10147
▁훈남	-10148
▁흐르	-10149
▁흑흑	-10150
▁히로	-10151
놈들은	-10152
됬는데	-10153
별로다	-10154
액션이	-10155
었어도	-10156
에서야	-10157
영환데	-10158
음악도	-10159
이유가	-10160
파서블	-10161
할게요	-10162
해놓고	-10163
..,,	-10164
▁???	-10165
▁가르쳐	-10166
▁결말에	-10167
▁공감을	-10168
▁나이에	-10169
▁노력이	-10170
▁눈물흘	-10171
▁대단히	-10172
▁더럽다	-10173
▁더빙은	-10174
▁돌려줘	-10175
▁또보고	-10176
▁리뷰를	-10177
▁많네요	-10178
▁못생긴	-10179
▁미국이	-10180
▁박평식	-10181
▁배우만	-10182
▁별점을	-10183
▁부분을	-10184
▁사회에	-10185
▁산만한	-10186
▁새롭게	-10187
▁설경구	-10188
▁세계관	-10189
▁속아서	-10190
▁수준은	-10191
▁신나는	-10192
▁않았고	-10193
▁여주의	-10194
▁영화고	-10195
▁왜만들	-10196
▁외에는	-10197
▁요소를	-10198
▁웃겨요	-10199
▁있는듯	-10200
▁죽인다	-10201
▁지금껏	-10202
▁채플린	-10203
▁처음임	-10204
▁최민수	-10205
기때문에	-10206
되는영화	-10207
수가없다	-10208
스트우드	-10209
시간낭비	-10210
재미없는	-10211
▁그래픽이	-10212
▁내러티브	-10213
▁리즈시절	-10214
▁만드네요	-10215
▁만들어졌	-10216
▁먹먹하다	-10217
▁멋있어요	-10218
▁스타일의	-10219
▁아이러니	-10220
▁아카데미	-10221
▁안되네요	-10222
▁억지설정	-10223
▁역사왜곡	-10224
▁이해하고	-10225
▁잘생기고	-10226
▁재밌게본	-10227
▁중반부터	-10228
▁지들끼리	-10229
▁촌스러운	-10230
▁최고라는	-10231
▁코미디도	-10232
▁현실이다	-10233
▁흥미롭고	-10234
▁시나리오에	-10235
▁지루하지만	-10236
▁지루했어요	-10237
▁우리나라에서	-10238
▁재미없습니다	-10239
ᄏᄏᄏᄏᄏᄏᄏᄏᄏᄏᄏᄏ	-10240
21	-10241
un	-10242
▁묶	-10243
것다	-10244
공의	-10245
그린	-10246
기동	-10247
나지	-10248
남겨	-10249
놨다	-10250
누군	-10251
런지	-10252
려라	-10253
뭔지	-10254
미니	-10255
불륜	-10256
빈이	-10257
사나	-10258
사진	-10259
새벽	-10260
생의	-10261
소나	-10262
스페	-10263
슬리	-10264
식에	-10265
어쩔	-10266
우니	-10267
을것	-10268
을뿐	-10269
작을	-10270
죽고	-10271
카이	-10272
탄이	-10273
피아	-10274
하가	-10275
할게	-10276
현재	-10277
홍보	-10278
훨씬	-10279
흐름	-10280
히게	-10281
.,.	-10282
ain	-10283
ore	-10284
▁so	-10285
▁가관	-10286
▁그딴	-10287
▁금방	-10288
▁기쁨	-10289
▁김성	-10290
▁내는	-10291
▁노는	-10292
▁대략	-10293
▁덕에	-10294
▁독창	-10295
▁매회	-10296
▁머지	-10297
▁모야	-10298
▁무기	-10299
▁물고	-10300
▁밀라	-10301
▁발상	-10302
▁벌어	-10303
▁변신	-10304
▁불친	-10305
▁비난	-10306
▁비틀	-10307
▁뻔히	-10308
▁수백	-10309
▁수정	-10310
▁스무	-10311
▁식스	-10312
▁실종	-10313
▁아아	-10314
▁옛다	-10315
▁요구	-10316
▁울어	-10317
▁유오	-10318
▁이념	-10319
▁이재	-10320
▁인한	-10321
▁일제	-10322
▁읽은	-10323
▁있으	-10324
▁저리	-10325
▁주원	-10326
▁직장	-10327
▁찍지	-10328
▁찢어	-10329
▁찰리	-10330
▁창의	-10331
▁찾고	-10332
▁체험	-10333
▁코엔	-10334
▁클린	-10335
▁트라	-10336
▁피라	-10337
▁후한	-10338
▁흔해	-10339
거리고	-10340
겠는가	-10341
나오면	-10342
당하는	-10343
드리고	-10344
매니아	-10345
묘하게	-10346
부분에	-10347
사랑을	-10348
아아아	-10349
위원회	-10350
이나오	-10351
이유는	-10352
있었던	-10353
하느라	-10354
하시면	-10355
한거지	-10356
한것도	-10357
할려고	-10358
할정도	-10359
해야할	-10360
bbbb	-10361
zzzz	-10362
▁500	-10363
▁겁니다	-10364
▁과거의	-10365
▁과도한	-10366
▁나라를	-10367
▁남긴다	-10368
▁느껴짐	-10369
▁됐는데	-10370
▁말하면	-10371
▁망쳐놓	-10372
▁못만드	-10373
▁별기대	-10374
▁별다른	-10375
▁보기는	-10376
▁보는듯	-10377
▁서로를	-10378
▁슬퍼요	-10379
▁신경쓰	-10380
▁신파극	-10381
▁아프고	-10382
▁역할을	-10383
▁연출에	-10384
▁연출의	-10385
▁오늘도	-10386
▁웃겼음	-10387
▁웬만한	-10388
▁이건좀	-10389
▁이라고	-10390
▁이작품	-10391
▁인간을	-10392
▁장나라	-10393
▁재밋는	-10394
▁적절히	-10395
▁졸면서	-10396
▁차승원	-10397
▁첨이네	-10398
▁초딩이	-10399
▁추천해	-10400
▁치밀한	-10401
▁컨저링	-10402
▁팔아먹	-10403
▁하나만	-10404
▁하려는	-10405
▁한번은	-10406
▁후덜덜	-10407
▁훌륭함	-10408
기만하고	-10409
다고생각	-10410
들에게는	-10411
스러워서	-10412
▁괜찮던데	-10413
▁그런영화	-10414
▁나에게는	-10415
▁남자들의	-10416
▁너무좋아	-10417
▁다가오는	-10418
▁다운로드	-10419
▁따뜻하게	-10420
▁무슨말이	-10421
▁미스터리	-10422
▁봐야겠다	-10423
▁사이에서	-10424
▁선동영화	-10425
▁소름돋는	-10426
▁신데렐라	-10427
▁어떻게든	-10428
▁에이리언	-10429
▁영화다운	-10430
▁오리지널	-10431
▁자극하는	-10432
▁자본주의	-10433
▁적당하다	-10434
▁팬이라면	-10435
▁허술하고	-10436
▁혹성탈출	-10437
▁히어로물	-10438
점드립니다	-10439
...;;;	-10440
▁감정이입이	-10441
▁소피마르소	-10442
▁실망스러운	-10443
▁영화에서는	-10444
▁이런영화에	-10445
▁일깨워주는	-10446
▁재밌는영화	-10447
▁좋아한다면	-10448
▁크리스토퍼	-10449
▁프랑스영화	-10450
),	-10451
▁ᅵ	-10452
▁‘	-10453
▁뜯	-10454
▁슴	-10455
▁욱	-10456
▁춘	-10457
▁핫	-10458
▁혀	-10459
가치	-10460
결이	-10461
고은	-10462
그녀	-10463
껴서	-10464
높다	-10465
높아	-10466
대중	-10467
도에	-10468
되길	-10469
맛이	-10470
몰랐	-10471
무협	-10472
뭐가	-10473
밖엔	-10474
방의	-10475
보일	-10476
빼면	-10477
사기	-10478
세이	-10479
심은	-10480
씨와	-10481
야오	-10482
연한	-10483
엿음	-10484
용도	-10485
워커	-10486
유혼	-10487
인척	-10488
입고	-10489
작에	-10490
전히	-10491
정서	-10492
졸라	-10493
주로	-10494
질때	-10495
타이	-10496
타클	-10497
트리	-10498
프트	-10499
피를	-10500
▁거창	-10501
▁고발	-10502
▁고백	-10503
▁국제	-10504
▁그땐	-10505
▁글로	-10506
▁김소	-10507
▁김재	-10508
▁김현	-10509
▁꺼내	-10510
▁나왓	-10511
▁느린	-10512
▁데미	-10513
▁말라	-10514
▁맞춘	-10515
▁무얼	-10516
▁묻혀	-10517
▁믿는	-10518
▁믿어	-10519
▁믿지	-10520
▁부른	-10521
▁빼앗	-10522
▁사춘	-10523
▁스콧	-10524
▁아가	-10525
▁안웃	-10526
▁예의	-10527
▁오만	-10528
▁오토	-10529
▁위에	-10530
▁은은	-10531
▁이선	-10532
▁저렴	-10533
▁전국	-10534
▁조인	-10535
▁존중	-10536
▁짧게	-10537
▁쩌네	-10538
▁출신	-10539
▁치명	-10540
▁크로	-10541
▁허영	-10542
▁환불	-10543
▁후진	-10544
가네요	-10545
곱니다	-10546
곳에서	-10547
로서의	-10548
마음에	-10549
만큼의	-10550
머니즘	-10551
멋대로	-10552
반전이	-10553
보느니	-10554
으려는	-10555
이니까	-10556
점준거	-10557
졌지만	-10558
하려면	-10559
▁ebs	-10560
▁kbs	-10561
▁각본이	-10562
▁것처럼	-10563
▁구리다	-10564
▁그때의	-10565
▁김혜수	-10566
▁나가고	-10567
▁나름의	-10568
▁나중엔	-10569
▁남주가	-10570
▁느꼈던	-10571
▁다를게	-10572
▁대표작	-10573
▁되는거	-10574
▁때리고	-10575
▁몰입을	-10576
▁불후의	-10577
▁사라진	-10578
▁산드라	-10579
▁설정에	-10580
▁소녀의	-10581
▁시간의	-10582
▁실패한	-10583
▁심심한	-10584
▁아닌거	-10585
▁아쉽네	-10586
▁아이의	-10587
▁안에서	-10588
▁어지간	-10589
▁언제쯤	-10590
▁에로틱	-10591
▁영화좀	-10592
▁예뻐요	-10593
▁우리네	-10594
▁원숭이	-10595
▁위험한	-10596
▁음악에	-10597
▁이게왜	-10598
▁이번엔	-10599
▁이상도	-10600
▁임청하	-10601
▁자세히	-10602
▁정도다	-10603
▁조승우	-10604
▁즐기는	-10605
▁찌질한	-10606
▁처절한	-10607
▁충실한	-10608
▁케이지	-10609
▁편집이	-10610
▁평점좀	-10611
▁한없이	-10612
▁환타지	-10613
▁황정민	-10614
▁후반에	-10615
▁흥해라	-10616
배속으로	-10617
보여주는	-10618
점정도가	-10619
하는구나	-10620
...!!	-10621
▁기다리고	-10622
▁기분좋은	-10623
▁대사들이	-10624
▁두근두근	-10625
▁멜로영화	-10626
▁무서웠다	-10627
▁보기에도	-10628
▁보는듯한	-10629
▁불필요한	-10630
▁생각해도	-10631
▁생각했다	-10632
▁스릴있고	-10633
▁시청자를	-10634
▁실화라니	-10635
▁심심해서	-10636
▁쓰레기로	-10637
▁알았더니	-10638
▁어마어마	-10639
▁영화관에	-10640
▁옛날영화	-10641
▁울었네요	-10642
▁이건진짜	-10643
▁있다는게	-10644
▁작품성이	-10645
▁캐릭터에	-10646
▁표현했다	-10647
▁하는건지	-10648
▁헛웃음만	-10649
감사합니다	-10650
▁느낌이랄까	-10651
▁볼만했는데	-10652
▁소름끼친다	-10653
▁유치하지만	-10654
▁재밌게봤음	-10655
▁적나라하게	-10656
▁좋아할만한	-10657
▁좋아합니다	-10658
▁다시보고싶은	-10659
▁만들어주세요	-10660
./	-10661
ld	-10662
▁]	-10663
▁겹	-10664
▁낼	-10665
▁몫	-10666
겁게	-10667
겠나	-10668
관련	-10669
구조	-10670
근래	-10671
끌고	-10672
날의	-10673
능한	-10674
도전	-10675
뒤로	-10676
디로	-10677
따름	-10678
러브	-10679
려한	-10680
모가	-10681
무니	-10682
문이	-10683
반복	-10684
볼일	-10685
사로	-10686
센트	-10687
수다	-10688
스토	-10689
슬픈	-10690
예능	-10691
운의	-10692
으다	-10693
인상	-10694
죽여	-10695
차원	-10696
타르	-10697
훼손	-10698
all	-10699
ᄍᄍᄍ	-10700
▁sh	-10701
▁각자	-10702
▁개독	-10703
▁결합	-10704
▁공산	-10705
▁과잉	-10706
▁극과	-10707
▁나간	-10708
▁난국	-10709
▁넘겨	-10710
▁넣은	-10711
▁대비	-10712
▁두개	-10713
▁때론	-10714
▁마르	-10715
▁못했	-10716
▁미칠	-10717
▁믿음	-10718
▁심은	-10719
▁악플	-10720
▁암이	-10721
▁열린	-10722
▁영활	-10723
▁오마	-10724
▁이완	-10725
▁잃고	-10726
▁장미	-10727
▁제미	-10728
▁지들	-10729
▁지어	-10730
▁철저	-10731
▁첨에	-10732
▁쳐도	-10733
▁초기	-10734
▁편이	-10735
▁할거	-10736
▁허전	-10737
▁호텔	-10738
겟네요	-10739
국주의	-10740
기라도	-10741
나올때	-10742
렸어요	-10743
만들고	-10744
액션은	-10745
어디서	-10746
오르는	-10747
음악이	-10748
이건뭐	-10749
이상은	-10750
졌네요	-10751
좋았음	-10752
테이크	-10753
하는가	-10754
할수록	-10755
▁0.5	-10756
▁가볍고	-10757
▁구역질	-10758
▁그것은	-10759
▁그녀가	-10760
▁그만좀	-10761
▁기억도	-10762
▁기회가	-10763
▁남자와	-10764
▁냄새가	-10765
▁놈들은	-10766
▁눈물도	-10767
▁능력이	-10768
▁달달한	-10769
▁당하는	-10770
▁던지는	-10771
▁데려다	-10772
▁레이싱	-10773
▁로보캅	-10774
▁만나서	-10775
▁만큼은	-10776
▁매트릭	-10777
▁먹먹한	-10778
▁무료로	-10779
▁뭡니까	-10780
▁미안해	-10781
▁배우로	-10782
▁보는줄	-10783
▁비교가	-10784
▁비교해	-10785
▁비추천	-10786
▁속편이	-10787
▁수작이	-10788
▁스텝업	-10789
▁씁쓸한	-10790
▁아니죠	-10791
▁아들과	-10792
▁안든다	-10793
▁얘기가	-10794
▁연기파	-10795
▁오래전	-10796
▁이들이	-10797
▁이상을	-10798
▁일상을	-10799
▁잘나가	-10800
▁장난감	-10801
▁재밋어	-10802
▁전쟁이	-10803
▁지브리	-10804
▁진행이	-10805
▁최고라	-10806
▁치고는	-10807
▁하는것	-10808
▁하려고	-10809
▁한국어	-10810
▁홍금보	-10811
▁황비홍	-10812
기대하고	-10813
만든영화	-10814
만들어도	-10815
배우들도	-10816
이라는걸	-10817
적이지도	-10818
최고최고	-10819
~!!!!	-10820
▁2008	-10821
▁http	-10822
▁그래픽은	-10823
▁나발이고	-10824
▁다른영화	-10825
▁담담하게	-10826
▁메세지는	-10827
▁명작이라	-10828
▁보다보다	-10829
▁분위기의	-10830
▁사랑스런	-10831
▁생각하며	-10832
▁심사위원	-10833
▁어른들이	-10834
▁여자들의	-10835
▁오그라들	-10836
▁이연걸의	-10837
▁인간들은	-10838
▁인터스텔	-10839
▁있었다니	-10840
▁작품성은	-10841
▁전문성우	-10842
▁좋아한다	-10843
▁코스프레	-10844
▁개인적으론	-10845
▁끝날때까지	-10846
▁대한민국의	-10847
▁어처구니가	-10848
▁재미없다는	-10849
▁지금까지도	-10850
▁한국영화가	-10851
78	-10852
@@	-10853
og	-10854
▁뚱	-10855
▁뺨	-10856
▁쉐	-10857
▁헨	-10858
▁횡	-10859
갖고	-10860
겠군	-10861
공이	-10862
구석	-10863
기면	-10864
기업	-10865
끼고	-10866
날이	-10867
너스	-10868
는걸	-10869
대도	-10870
동네	-10871
라를	-10872
롯데	-10873
마른	-10874
물도	-10875
미래	-10876
분명	-10877
블랙	-10878
비스	-10879
사냥	-10880
성공	-10881
셉션	-10882
스틸	-10883
쓴다	-10884
역이	-10885
올린	-10886
운이	-10887
움과	-10888
위의	-10889
일때	-10890
일지	-10891
자랑	-10892
자신	-10893
주에	-10894
질수	-10895
짜는	-10896
책을	-10897
쳤던	-10898
칼렛	-10899
코가	-10900
텔링	-10901
폭행	-10902
행을	-10903
.!!	-10904
▁3,	-10905
▁my	-10906
▁st	-10907
▁가미	-10908
▁고려	-10909
▁공존	-10910
▁구로	-10911
▁구매	-10912
▁기차	-10913
▁높이	-10914
▁눈부	-10915
▁다케	-10916
▁단조	-10917
▁데려	-10918
▁도덕	-10919
▁돈도	-10920
▁들려	-10921
▁라스	-10922
▁류의	-10923
▁르네	-10924
▁모냐	-10925
▁뭔데	-10926
▁보임	-10927
▁부여	-10928
▁붉은	-10929
▁빅뱅	-10930
▁삽입	-10931
▁상식	-10932
▁순정	-10933
▁실컷	-10934
▁십점	-10935
▁안젤	-10936
▁알리	-10937
▁애를	-10938
▁얼른	-10939
▁에니	-10940
▁연장	-10941
▁옹호	-10942
▁우익	-10943
▁원맨	-10944
▁제법	-10945
▁진보	-10946
▁짱구	-10947
▁쫄깃	-10948
▁참혹	-10949
▁처참	-10950
▁추잡	-10951
▁해줄	-10952
▁향해	-10953
가는게	-10954
가족이	-10955
겠더라	-10956
남는다	-10957
났는데	-10958
느와르	-10959
된다는	-10960
만큼도	-10961
버려서	-10962
버렸음	-10963
시대를	-10964
아니야	-10965
어보이	-10966
윌리스	-10967
이상실	-10968
잇어요	-10969
작가가	-10970
점이지	-10971
졌는데	-10972
주는게	-10973
평점에	-10974
하군요	-10975
하라는	-10976
하지는	-10977
합니까	-10978
해준다	-10979
OOOO	-10980
▁가득찬	-10981
▁그레이	-10982
▁남편이	-10983
▁납니다	-10984
▁대박이	-10985
▁돌아오	-10986
▁된다고	-10987
▁드니로	-10988
▁리암니	-10989
▁마음은	-10990
▁많았던	-10991
▁맞추기	-10992
▁목숨을	-10993
▁묘하게	-10994
▁무책임	-10995
▁묵직한	-10996
▁배경은	-10997
▁보자고	-10998
▁본인이	-10999
▁봐줄만	-11000
▁봤다고	-11001
▁뻔해서	-11002
▁사라져	-11003
▁성룡이	-11004
▁세계를	-11005
▁스칼렛	-11006
▁실망한	-11007
▁안가고	-11008
▁안되요	-11009
▁알아서	-11010
▁어딘가	-11011
▁어벤져	-11012
▁어색함	-11013
▁어설픔	-11014
▁어울리	-11015
▁영구와	-11016
▁영화죠	-11017
▁와닿는	-11018
▁외로운	-11019
▁웃기지	-11020
▁이은주	-11021
▁잘봤다	-11022
▁잘해서	-11023
▁전도연	-11024
▁전세계	-11025
▁정신을	-11026
▁주고싶	-11027
▁주제로	-11028
▁즐겁다	-11029
▁지대로	-11030
▁지하철	-11031
▁찝찝한	-11032
▁추악한	-11033
▁취향은	-11034
▁코믹한	-11035
▁클라스	-11036
▁한계가	-11037
▁한예슬	-11038
라는건지	-11039
볼수있는	-11040
이영화를	-11041
재미있고	-11042
재밌네요	-11043
▁1000	-11044
▁2001	-11045
▁공감되는	-11046
▁꺼버렸다	-11047
▁남자들이	-11048
▁돌아가고	-11049
▁몰입감이	-11050
▁못미치는	-11051
▁묻어나는	-11052
▁미스테리	-11053
▁볼거리가	-11054
▁볼거리도	-11055
▁불러일으	-11056
▁사람으로	-11057
▁솔직하게	-11058
▁스릴러가	-11059
▁신기하다	-11060
▁실망했다	-11061
▁쓰레기들	-11062
▁아이들을	-11063
▁않았으면	-11064
▁알게해준	-11065
▁알바들이	-11066
▁어머니의	-11067
▁어색하다	-11068
▁없었다면	-11069
▁여자들은	-11070
▁영화로서	-11071
▁왠만해선	-11072
▁유치뽕짝	-11073
▁이게뭐야	-11074
▁작위적인	-11075
▁전개되는	-11076
▁좋아지는	-11077
▁주인공과	-11078
▁짜증나네	-11079
!!♥!!♥	-11080
▁서프라이즈	-11081
▁잘만들어진	-11082
▁재밌게봤다	-11083
▁중간중간에	-11084
▁지루하지않고	-11085
▁감동적이었습니다	-11086
..............	-11087
ᅲᅲᅲᅲᅲᅲᅲᅲᅲᅲᅲᅲᅲᅲᅲᅲ	-11088
0-	-11089
?'	-11090
ᄅᄅ	-11091
▁끓	-11092
▁왈	-11093
▁퉤	-11094
가나	-11095
가수	-11096
거림	-11097
경은	-11098
고를	-11099
권을	-11100
균형	-11101
글고	-11102
깜짝	-11103
끄고	-11104
나를	-11105
드러	-11106
등을	-11107
디젤	-11108
때메	-11109
라구	-11110
란이	-11111
랑이	-11112
로선	-11113
료가	-11114
류가	-11115
만세	-11116
맛에	-11117
무가	-11118
밀리	-11119
바다	-11120
바른	-11121
방법	-11122
보나	-11123
보잡	-11124
본거	-11125
부탁	-11126
소니	-11127
속이	-11128
순위	-11129
씬도	-11130
여름	-11131
오버	-11132
유쾌	-11133
을꺼	-11134
이즈	-11135
입견	-11136
작정	-11137
주니	-11138
죽음	-11139
지와	-11140
추고	-11141
치콕	-11142
타령	-11143
탄탄	-11144
하트	-11145
항상	-11146
행크	-11147
^_^	-11148
ent	-11149
▁//	-11150
▁가자	-11151
▁강조	-11152
▁개떡	-11153
▁거울	-11154
▁건축	-11155
▁게리	-11156
▁고정	-11157
▁귀가	-11158
▁꿈에	-11159
▁끄는	-11160
▁남음	-11161
▁낫지	-11162
▁낮음	-11163
▁너네	-11164
▁너는	-11165
▁넣어	-11166
▁노예	-11167
▁대여	-11168
▁더한	-11169
▁데드	-11170
▁독백	-11171
▁돌이	-11172
▁되새	-11173
▁뚜렷	-11174
▁먼지	-11175
▁미사	-11176
▁미성	-11177
▁박지	-11178
▁별이	-11179
▁볼땐	-11180
▁삼가	-11181
▁성경	-11182
▁승화	-11183
▁시민	-11184
▁썰렁	-11185
▁아야	-11186
▁안고	-11187
▁어둠	-11188
▁에너	-11189
▁여지	-11190
▁오오	-11191
▁운동	-11192
▁이랬	-11193
▁잇는	-11194
▁잘만	-11195
▁잘보	-11196
▁저녁	-11197
▁적응	-11198
▁정부	-11199
▁지우	-11200
▁진화	-11201
▁창조	-11202
▁청년	-11203
▁호소	-11204
▁활약	-11205
▁훈련	-11206
▁희한	-11207
갔으면	-11208
기보다	-11209
났어요	-11210
년대의	-11211
되면서	-11212
마무리	-11213
마음을	-11214
보다니	-11215
분보고	-11216
성있는	-11217
안타깝	-11218
았다는	-11219
웃기고	-11220
으라고	-11221
이란걸	-11222
이면서	-11223
장면을	-11224
재밌는	-11225
죽는줄	-11226
지못한	-11227
▁and	-11228
▁가는줄	-11229
▁가만히	-11230
▁같기도	-11231
▁개인의	-11232
▁나온거	-11233
▁넘치고	-11234
▁느끼지	-11235
▁달콤한	-11236
▁당신을	-11237
▁당하고	-11238
▁뒤집어	-11239
▁마누라	-11240
▁말아라	-11241
▁말이지	-11242
▁말할수	-11243
▁무서웠	-11244
▁미국판	-11245
▁민망한	-11246
▁버리는	-11247
▁보기도	-11248
▁봤었던	-11249
▁분노의	-11250
▁비중이	-11251
▁사건을	-11252
▁사다코	-11253
▁신기한	-11254
▁아시아	-11255
▁아오이	-11256
▁않는데	-11257
▁영화판	-11258
▁예상치	-11259
▁와닿지	-11260
▁와이프	-11261
▁유머와	-11262
▁이름만	-11263
▁이연희	-11264
▁일이다	-11265
▁있는거	-11266
▁잘했다	-11267
▁전작의	-11268
▁정도껏	-11269
▁졸았다	-11270
▁주려고	-11271
▁죽을뻔	-11272
▁최초로	-11273
▁클린트	-11274
▁프레디	-11275
▁하나님	-11276
▁한다면	-11277
▁한번만	-11278
▁한사람	-11279
▁힘든데	-11280
앞으로도	-11281
이라지만	-11282
?????	-11283
▁가슴으로	-11284
▁너무하다	-11285
▁대작이다	-11286
▁떠올리게	-11287
▁러브라인	-11288
▁무언가를	-11289
▁보았지만	-11290
▁볼만하고	-11291
▁봐야한다	-11292
▁불편하다	-11293
▁브래드피	-11294
▁생각나네	-11295
▁시원하게	-11296
▁신선하다	-11297
▁신선했다	-11298
▁아메리칸	-11299
▁아무래도	-11300
▁아이들도	-11301
▁알수없는	-11302
▁엉망이고	-11303
▁영화처럼	-11304
▁외계인이	-11305
▁작품인데	-11306
▁정신건강	-11307
▁조잡하고	-11308
▁주연으로	-11309
▁중국영화	-11310
▁지루해요	-11311
▁포스터는	-11312
▁휴머니즘	-11313
영화중에서	-11314
▁것만으로도	-11315
▁공포영화를	-11316
▁공포영화의	-11317
▁시나리오는	-11318
▁않았습니다	-11319
▁여주인공은	-11320
ᄏᄏᄏᄏᄏᄏᄏᄏᄏᄏᄏ	-11321
18	-11322
ap	-11323
▁)	-11324
가루	-11325
게리	-11326
고요	-11327
깁슨	-11328
끝에	-11329
낮지	-11330
단다	-11331
단순	-11332
대서	-11333
대충	-11334
드벤	-11335
로봇	-11336
망한	-11337
맨이	-11338
메오	-11339
모니	-11340
바탕	-11341
보비	-11342
본듯	-11343
볼타	-11344
뿐인	-11345
사무	-11346
사상	-11347
색이	-11348
선가	-11349
설명	-11350
아놔	-11351
안함	-11352
애기	-11353
역에	-11354
욕을	-11355
운동	-11356
은혜	-11357
이웃	-11358
재가	-11359
점의	-11360
졌고	-11361
집중	-11362
차고	-11363
터가	-11364
팬더	-11365
편만	-11366
하든	-11367
한심	-11368
회를	-11369
OST	-11370
ery	-11371
▁감당	-11372
▁갑갑	-11373
▁강제	-11374
▁개발	-11375
▁괜춘	-11376
▁김동	-11377
▁꼽을	-11378
▁끝냈	-11379
▁나눠	-11380
▁낳은	-11381
▁눈과	-11382
▁닮은	-11383
▁당최	-11384
▁댄스	-11385
▁동일	-11386
▁땀을	-11387
▁마마	-11388
▁못지	-11389
▁무덤	-11390
▁믿겨	-11391
▁반개	-11392
▁버티	-11393
▁보나	-11394
▁보호	-11395
▁봐주	-11396
▁부를	-11397
▁비명	-11398
▁비유	-11399
▁사토	-11400
▁서인	-11401
▁선수	-11402
▁소림	-11403
▁습작	-11404
▁씨네	-11405
▁어딨	-11406
▁욕먹	-11407
▁유리	-11408
▁이슈	-11409
▁입고	-11410
▁자존	-11411
▁저의	-11412
▁조쉬	-11413
▁조여	-11414
▁조직	-11415
▁주면	-11416
▁진솔	-11417
▁질투	-11418
▁파란	-11419
▁평은	-11420
▁필모	-11421
▁한물	-11422
▁후기	-11423
녀유혼	-11424
는거임	-11425
다니고	-11426
대사가	-11427
밖에는	-11428
보라고	-11429
빠지는	-11430
씬에서	-11431
아닌듯	-11432
안타까	-11433
에게서	-11434
왜이리	-11435
위에서	-11436
있어야	-11437
자들을	-11438
적이며	-11439
점드림	-11440
줬는데	-11441
하겠지	-11442
하나의	-11443
하던가	-11444
했어도	-11445
,...	-11446
▁각자의	-11447
▁괴물이	-11448
▁그때는	-11449
▁그랬다	-11450
▁극적인	-11451
▁김강우	-11452
▁김하늘	-11453
▁눈빛이	-11454
▁다니는	-11455
▁다른거	-11456
▁답답함	-11457
▁대사들	-11458
▁만드나	-11459
▁망쳤다	-11460
▁망치는	-11461
▁못생겼	-11462
▁반전과	-11463
▁보여서	-11464
▁볼수가	-11465
▁부끄럽	-11466
▁빨리감	-11467
▁소년의	-11468
▁스릴감	-11469
▁슬픔이	-11470
▁신현준	-11471
▁아쉬워	-11472
▁어느새	-11473
▁어찌나	-11474
▁없을까	-11475
▁역할이	-11476
▁연출한	-11477
▁원맨쇼	-11478
▁위하여	-11479
▁이동욱	-11480
▁이러한	-11481
▁이름값	-11482
▁익숙한	-11483
▁저것도	-11484
▁좋아하	-11485
▁죽이네	-11486
▁집어넣	-11487
▁짜여진	-11488
▁짧아서	-11489
▁철학적	-11490
▁청춘의	-11491
▁틀어주	-11492
▁펑펑울	-11493
▁플레이	-11494
▁하시는	-11495
▁행동이	-11496
▁행복해	-11497
▁흐름을	-11498
▁힘들어	-11499
봤었는데	-11500
재밌는데	-11501
점이라니	-11502
점입니다	-11503
주인공의	-11504
하지않은	-11505
ᅲᅲᅲᅲᅲ	-11506
▁감동으로	-11507
▁그나저나	-11508
▁깨달았다	-11509
▁깨알같은	-11510
▁나오는지	-11511
▁드림웍스	-11512
▁들어가는	-11513
▁몇안되는	-11514
▁모르겟다	-11515
▁무척이나	-11516
▁반성해라	-11517
▁별반개도	-11518
▁실화라는	-11519
▁심심할때	-11520
▁아니었음	-11521
▁안되는데	-11522
▁안봤는데	-11523
▁안봤으면	-11524
▁안봤지만	-11525
▁않았는데	-11526
▁액션으로	-11527
▁어땠을까	-11528
▁였습니다	-11529
▁영상으로	-11530
▁영화인거	-11531
▁왜이러지	-11532
▁잔인하게	-11533
▁잔잔하니	-11534
▁중에서도	-11535
▁최곱니다	-11536
▁출연하는	-11537
▁틀림없다	-11538
▁프레데터	-11539
▁하기에는	-11540
보고있어요	-11541
▁개봉했을때	-11542
▁객관적으로	-11543
▁뒤로갈수록	-11544
▁드라마에서	-11545
▁드라마에요	-11546
▁드라마였다	-11547
▁생각나네요	-11548
▁생각하는데	-11549
▁시간아까움	-11550
▁시나리오와	-11551
▁아니었으면	-11552
▁억지스럽다	-11553
▁엑소시스트	-11554
▁오랜만이다	-11555
▁지루하다고	-11556
▁말이필요없는	-11557
ᄏᄏᄏᄏᄏᄏᄏᄏᄏᄏᄏᄏᄏ	-11558
.~	-11559
56	-11560
CN	-11561
ul	-11562
▁*	-11563
▁눌	-11564
▁솜	-11565
▁윈	-11566
▁잣	-11567
▁쭈	-11568
▁텅	-11569
▁팽	-11570
▁흰	-11571
더의	-11572
도못	-11573
둘이	-11574
란걸	-11575
래야	-11576
려도	-11577
르다	-11578
린거	-11579
마치	-11580
말은	-11581
미녀	-11582
본방	-11583
볼때	-11584
봣음	-11585
봤자	-11586
분히	-11587
선물	-11588
선의	-11589
시걸	-11590
시티	-11591
아담	-11592
아역	-11593
알려	-11594
애를	-11595
약간	-11596
엇던	-11597
엉망	-11598
엉성	-11599
외국	-11600
이것	-11601
일체	-11602
잇음	-11603
장님	-11604
짓게	-11605
초등	-11606
태웅	-11607
테니	-11608
트에	-11609
파괴	-11610
해짐	-11611
현우	-11612
현이	-11613
흥행	-11614
.."	-11615
1,2	-11616
^^;	-11617
▁경이	-11618
▁교차	-11619
▁기도	-11620
▁기사	-11621
▁나갈	-11622
▁날로	-11623
▁눈만	-11624
▁뉴스	-11625
▁당췌	-11626
▁대책	-11627
▁동정	-11628
▁된게	-11629
▁디아	-11630
▁라면	-11631
▁레드	-11632
▁마사	-11633
▁마츠	-11634
▁맛에	-11635
▁매튜	-11636
▁문학	-11637
▁미군	-11638
▁발휘	-11639
▁배틀	-11640
▁보네	-11641
▁볼걸	-11642
▁볼꺼	-11643
▁봐요	-11644
▁봤어	-11645
▁부럽	-11646
▁부자	-11647
▁분은	-11648
▁빨아	-11649
▁빼놓	-11650
▁뽑아	-11651
▁사전	-11652
▁서극	-11653
▁서민	-11654
▁수치	-11655
▁스탤	-11656
▁시스	-11657
▁식의	-11658
▁쌍팔	-11659
▁써도	-11660
▁써야	-11661
▁아따	-11662
▁아랫	-11663
▁아키	-11664
▁악의	-11665
▁어의	-11666
▁어줍	-11667
▁언급	-11668
▁에반	-11669
▁옹박	-11670
▁외엔	-11671
▁자라	-11672
▁잠든	-11673
▁장쯔	-11674
▁재주	-11675
▁전무	-11676
▁좌파	-11677
▁지니	-11678
▁차지	-11679
▁창작	-11680
▁채우	-11681
▁총쏘	-11682
▁최저	-11683
▁크고	-11684
▁토이	-11685
▁패턴	-11686
▁표본	-11687
감동을	-11688
기분이	-11689
년이나	-11690
랍시고	-11691
몰입도	-11692
봅시다	-11693
소재로	-11694
십시오	-11695
안나오	-11696
없으면	-11697
연기잘	-11698
이나마	-11699
일까요	-11700
점수는	-11701
키드먼	-11702
하나는	-11703
하라고	-11704
해서는	-11705
▁거리가	-11706
▁그리스	-11707
▁꼭봐라	-11708
▁끝나지	-11709
▁끝으로	-11710
▁나오게	-11711
▁나이트	-11712
▁더빙도	-11713
▁따듯한	-11714
▁따라한	-11715
▁만점을	-11716
▁몇년이	-11717
▁못하게	-11718
▁뭔가를	-11719
▁배급사	-11720
▁보기전	-11721
▁볼만은	-11722
▁빡쳐서	-11723
▁빵터짐	-11724
▁사로잡	-11725
▁사실에	-11726
▁섹시한	-11727
▁소리를	-11728
▁수준급	-11729
▁슬프게	-11730
▁아마도	-11731
▁아쉽긴	-11732
▁애절한	-11733
▁약간은	-11734
▁어려울	-11735
▁엄마와	-11736
▁열정이	-11737
▁영혼을	-11738
▁영화면	-11739
▁예술을	-11740
▁오로라	-11741
▁유머가	-11742
▁이건머	-11743
▁이나영	-11744
▁자체를	-11745
▁장르에	-11746
▁재해석	-11747
▁저급한	-11748
▁제작된	-11749
▁줄리엣	-11750
▁중반부	-11751
▁초반의	-11752
▁캐서린	-11753
▁크루즈	-11754
▁터무니	-11755
▁톰행크	-11756
▁하고싶	-11757
▁하이킥	-11758
▁한국은	-11759
▁한정된	-11760
▁환상의	-11761
▁흘러도	-11762
▁희망이	-11763
우면서도	-11764
임파서블	-11765
....?	-11766
▁감독님이	-11767
▁거부감이	-11768
▁그래픽도	-11769
▁그런대로	-11770
▁깔끔하게	-11771
▁끝내준다	-11772
▁나오면서	-11773
▁능가하는	-11774
▁드라마임	-11775
▁만드는게	-11776
▁멋있었다	-11777
▁못하지만	-11778
▁못했지만	-11779
▁무서웠음	-11780
▁무섭다고	-11781
▁미치겠다	-11782
▁보기드문	-11783
▁보면서도	-11784
▁분명하다	-11785
▁사랑이란	-11786
▁사실적인	-11787
▁수준이다	-11788
▁스타일이	-11789
▁안됩니다	-11790
▁알고보니	-11791
▁없었지만	-11792
▁영화일뿐	-11793
▁이때까지	-11794
▁이정도는	-11795
▁인내심을	-11796
▁잊을수가	-11797
▁주옥같은	-11798
▁코미디로	-11799
▁후반으로	-11800
점준것중에	-11801
▁기대합니다	-11802
▁나왔습니다	-11803
▁느꼈습니다	-11804
▁모르겠으나	-11805
▁우리나라에	-11806
▁잔잔하면서	-11807
▁지루하지도	-11808
▁최악입니다	-11809
▁캐릭터들의	-11810
▁페이크다큐	-11811
▁무슨내용인지	-11812
????????????????	-11813
>_	-11814
hh	-11815
us	-11816
▁꽁	-11817
▁덩	-11818
▁랩	-11819
감각	-11820
개로	-11821
구로	-11822
나머	-11823
날에	-11824
년은	-11825
달러	-11826
대표	-11827
동석	-11828
동엽	-11829
되냐	-11830
됬다	-11831
력과	-11832
리브	-11833
리어	-11834
림을	-11835
마니	-11836
마의	-11837
말에	-11838
물고	-11839
미와	-11840
부대	-11841
부르	-11842
비의	-11843
순례	-11844
슬픔	-11845
시즘	-11846
심과	-11847
아자	-11848
어낸	-11849
연습	-11850
으으	-11851
인기	-11852
장창	-11853
조절	-11854
준이	-11855
지기	-11856
진지	-11857
키의	-11858
탄은	-11859
풀이	-11860
피니	-11861
하듯	-11862
현지	-11863
홍콩	-11864
회의	-11865
200	-11866
▁+1	-11867
▁1.	-11868
▁95	-11869
▁97	-11870
▁거대	-11871
▁건너	-11872
▁고수	-11873
▁괴작	-11874
▁귀에	-11875
▁껏다	-11876
▁놓친	-11877
▁닌자	-11878
▁다듬	-11879
▁단점	-11880
▁동방	-11881
▁되길	-11882
▁마크	-11883
▁많지	-11884
▁말지	-11885
▁망쳤	-11886
▁맞은	-11887
▁메리	-11888
▁무미	-11889
▁문근	-11890
▁봣다	-11891
▁부인	-11892
▁붙여	-11893
▁빌리	-11894
▁사귀	-11895
▁사막	-11896
▁서세	-11897
▁수애	-11898
▁스탈	-11899
▁싶네	-11900
▁써라	-11901
▁썩은	-11902
▁쏠쏠	-11903
▁씬은	-11904
▁아웃	-11905
▁안달	-11906
▁안됐	-11907
▁안티	-11908
▁어렷	-11909
▁오다	-11910
▁오싹	-11911
▁우수	-11912
▁운운	-11913
▁이길	-11914
▁이라	-11915
▁인연	-11916
▁자칫	-11917
▁작정	-11918
▁잡은	-11919
▁전통	-11920
▁제한	-11921
▁줄은	-11922
▁중구	-11923
▁중세	-11924
▁지도	-11925
▁진주	-11926
▁질문	-11927
▁짧고	-11928
▁찡한	-11929
▁최종	-11930
▁크리	-11931
▁터져	-11932
▁통틀	-11933
▁트루	-11934
▁파멸	-11935
▁픽사	-11936
▁필수	-11937
▁한건	-11938
▁한결	-11939
▁한수	-11940
▁합리	-11941
▁현빈	-11942
▁화해	-11943
▁후유	-11944
▁흔히	-11945
년이지	-11946
다보니	-11947
들과는	-11948
렸지만	-11949
리우드	-11950
메이징	-11951
무서운	-11952
버렸네	-11953
상으로	-11954
어야할	-11955
연기와	-11956
예전에	-11957
오히려	-11958
이쁘다	-11959
이없다	-11960
인들은	-11961
인트가	-11962
자마자	-11963
작품이	-11964
지금은	-11965
지않을	-11966
하던지	-11967
해놓은	-11968
했었다	-11969
▁가운데	-11970
▁각본과	-11971
▁같다는	-11972
▁결론이	-11973
▁고맙다	-11974
▁관계를	-11975
▁그러지	-11976
▁그리운	-11977
▁극장서	-11978
▁기대해	-11979
▁기억은	-11980
▁김태희	-11981
▁나라의	-11982
▁나았다	-11983
▁나한테	-11984
▁남자들	-11985
▁놈들이	-11986
▁니들은	-11987
▁단언컨	-11988
▁대단함	-11989
▁들어오	-11990
▁때우기	-11991
▁막장의	-11992
▁몰라서	-11993
▁못된다	-11994
▁무리수	-11995
▁보네요	-11996
▁복수가	-11997
▁봐야함	-11998
▁봤을땐	-11999
▁분노가	-12000
▁사건의	-12001
▁사나이	-12002
▁설레는	-12003
▁성유리	-12004
▁순간이	-12005
▁슬픔을	-12006
▁싸우고	-12007
▁안난다	-12008
▁얼굴을	-12009
▁없다면	-12010
▁없을듯	-12011
▁엔딩곡	-12012
▁연기나	-12013
▁영상을	-12014
▁욕하는	-12015
▁웃음도	-12016
▁음악의	-12017
▁이런것	-12018
▁이순신	-12019
▁이해는	-12020
▁일본식	-12021
▁일어난	-12022
▁있었나	-12023
▁작품도	-12024
▁잔혹한	-12025
▁장근석	-12026
▁전편에	-12027
▁제정신	-12028
▁졸려서	-12029
▁죽어서	-12030
▁중국의	-12031
▁지겨운	-12032
▁지저분	-12033
▁진하게	-12034
▁첨본다	-12035
▁추천함	-12036
▁카타르	-12037
▁특히나	-12038
▁하는가	-12039
▁허접함	-12040
▁후회할	-12041
스럽지만	-12042
시리즈중	-12043
이야기가	-12044
인거같다	-12045
재미있는	-12046
지금까지	-12047
지않았다	-12048
처음부터	-12049
▁2002	-12050
▁love	-12051
▁개연성은	-12052
▁관람불가	-12053
▁관점에서	-12054
▁군대에서	-12055
▁극단적인	-12056
▁말할것도	-12057
▁무언가가	-12058
▁불편하고	-12059
▁사랑스러	-12060
▁사랑하게	-12061
▁상상력을	-12062
▁생각하지	-12063
▁샤론스톤	-12064
▁선생님이	-12065
▁식상하고	-12066
▁싶은건지	-12067
▁아니겠지	-12068
▁안나와서	-12069
▁안하는데	-12070
▁알면서도	-12071
▁여고괴담	-12072
▁욕나오는	-12073
▁최고였음	-12074
▁한순간도	-12075
▁허무하다	-12076
▁현실에서	-12077
▁흥미롭다	-12078
▁가면갈수록	-12079
▁드라마보다	-12080
▁몰입하면서	-12081
▁보면볼수록	-12082
▁수작입니다	-12083
▁아름다움을	-12084
▁아름다웠던	-12085
▁영화관가서	-12086
▁영화인데도	-12087
▁이스트우드	-12088
▁이영화에서	-12089
▁지루하네요	-12090
▁처음입니다	-12091
▁평론가들은	-12092
▁행복해지는	-12093
▁애니메이션을	-12094
▁영화보는내내	-12095
▁ᄏᄏᄏᄏᄏᄏᄏᄏᄏᄏᄏᄏᄏ	-12096
ak	-12097
▁겸	-12098
▁밟	-12099
▁뽕	-12100
▁쉣	-12101
▁져	-12102
개월	-12103
게이	-12104
기스	-12105
꺼라	-12106
낄낄	-12107
나왓	-12108
나잇	-12109
남편	-12110
내면	-12111
느님	-12112
대결	-12113
대작	-12114
동일	-12115
등록	-12116
래원	-12117
렬한	-12118
리얼	-12119
린지	-12120
릴수	-12121
맞음	-12122
메다	-12123
몸매	-12124
반도	-12125
방에	-12126
별점	-12127
빠다	-12128
뻔함	-12129
셔요	-12130
슈퍼	-12131
스텝	-12132
식상	-12133
신지	-12134
실한	-12135
아팠	-12136
알게	-12137
없구	-12138
영원	-12139
우와	-12140
우울	-12141
은이	-12142
음의	-12143
이이	-12144
인칭	-12145
입장	-12146
적일	-12147
절히	-12148
조선	-12149
종교	-12150
중인	-12151
지식	-12152
찾기	-12153
처리	-12154
칠때	-12155
코의	-12156
탄을	-12157
태규	-12158
통쾌	-12159
트와	-12160
포로	-12161
포장	-12162
표를	-12163
피의	-12164
필드	-12165
햇음	-12166
형사	-12167
호는	-12168
환이	-12169
훈이	-12170
흐흐	-12171
..3	-12172
ant	-12173
▁35	-12174
▁각인	-12175
▁갈아	-12176
▁갑작	-12177
▁고로	-12178
▁고현	-12179
▁공개	-12180
▁과한	-12181
▁광팬	-12182
▁글구	-12183
▁낚임	-12184
▁날이	-12185
▁낮추	-12186
▁낯선	-12187
▁넘버	-12188
▁달아	-12189
▁당당	-12190
▁대변	-12191
▁동의	-12192
▁등이	-12193
▁디지	-12194
▁똥폼	-12195
▁맞음	-12196
▁매년	-12197
▁명예	-12198
▁못볼	-12199
▁무거	-12200
▁미달	-12201
▁바가	-12202
▁발생	-12203
▁복제	-12204
▁볼껄	-12205
▁불만	-12206
▁사형	-12207
▁삼국	-12208
▁서정	-12209
▁선교	-12210
▁성괴	-12211
▁소방	-12212
▁소비	-12213
▁시덥	-12214
▁신부	-12215
▁신성	-12216
▁실존	-12217
▁안목	-12218
▁안전	-12219
▁안죽	-12220
▁압축	-12221
▁에어	-12222
▁연계	-12223
▁온다	-12224
▁완소	-12225
▁의아	-12226
▁일은	-12227
▁잃지	-12228
▁있죠	-12229
▁자제	-12230
▁잘난	-12231
▁잘된	-12232
▁잘라	-12233
▁재기	-12234
▁재일	-12235
▁정점	-12236
▁줘서	-12237
▁줬다	-12238
▁지닌	-12239
▁칼로	-12240
▁키워	-12241
▁터짐	-12242
▁프렌	-12243
▁한쪽	-12244
▁호감	-12245
▁휴지	-12246
각기동	-12247
간다는	-12248
갔다가	-12249
것같고	-12250
극장판	-12251
날로그	-12252
남자의	-12253
녀석들	-12254
되는거	-12255
몰라도	-12256
뮤지컬	-12257
비슷한	-12258
사랑해	-12259
선생님	-12260
수없다	-12261
슬프고	-12262
없다고	-12263
엇지만	-12264
연기자	-12265
였다는	-12266
였다니	-12267
일라잇	-12268
자에게	-12269
장면만	-12270
점이면	-12271
점인데	-12272
정신이	-12273
중인데	-12274
지금도	-12275
지는데	-12276
치도록	-12277
크리스	-12278
터지는	-12279
할수있	-12280
화부터	-12281
!!^^	-12282
▁OCN	-12283
▁각각의	-12284
▁귀요미	-12285
▁그녀는	-12286
▁그러면	-12287
▁급전개	-12288
▁나라가	-12289
▁나쁘진	-12290
▁나쁜놈	-12291
▁노래만	-12292
▁다같이	-12293
▁더빙을	-12294
▁듣보잡	-12295
▁들었음	-12296
▁러브라	-12297
▁많았다	-12298
▁말이죠	-12299
▁말하지	-12300
▁먹칠을	-12301
▁멋있어	-12302
▁모두다	-12303
▁무식한	-12304
▁방식이	-12305
▁별볼일	-12306
▁보다도	-12307
▁보시는	-12308
▁봤다니	-12309
▁분들께	-12310
▁살인을	-12311
▁새롭고	-12312
▁서서히	-12313
▁성우를	-12314
▁시선을	-12315
▁신세경	-12316
▁아들의	-12317
▁안들어	-12318
▁어떨까	-12319
▁엄마는	-12320
▁없더라	-12321
▁여성의	-12322
▁역부족	-12323
▁역사의	-12324
▁연출로	-12325
▁와진짜	-12326
▁완벽히	-12327
▁완전한	-12328
▁왔어요	-12329
▁왜이럼	-12330
▁요소는	-12331
▁용서가	-12332
▁울었음	-12333
▁유아용	-12334
▁이러니	-12335
▁이리도	-12336
▁이만큼	-12337
▁이모양	-12338
▁이뻐요	-12339
▁인기가	-12340
▁있겠다	-12341
▁자기만	-12342
▁재미난	-12343
▁재밌긴	-12344
▁정치적	-12345
▁죽음의	-12346
▁차가운	-12347
▁처음봄	-12348
▁천재다	-12349
▁철없는	-12350
▁하야오	-12351
▁하여금	-12352
▁해리슨	-12353
▁했다는	-12354
▁홍진호	-12355
▁후에도	-12356
▁흔적이	-12357
▁히치콕	-12358
기보다는	-12359
드라마로	-12360
이드라마	-12361
이었는데	-12362
▁개봉하는	-12363
▁거슬린다	-12364
▁기준으로	-12365
▁끊임없이	-12366
▁나온다는	-12367
▁남자배우	-12368
▁내용이나	-12369
▁돌아가는	-12370
▁만들겠다	-12371
▁만들었던	-12372
▁멋지네요	-12373
▁모두에게	-12374
▁무의미한	-12375
▁별로지만	-12376
▁상업영화	-12377
▁생각된다	-12378
▁생각해요	-12379
▁생생하게	-12380
▁생생하다	-12381
▁스릴러는	-12382
▁스포일러	-12383
▁아버지를	-12384
▁안된다는	-12385
▁알았지만	-12386
▁어벤져스	-12387
▁어이없네	-12388
▁어정쩡한	-12389
▁영화니까	-12390
▁영화들을	-12391
▁옴니버스	-12392
▁와닿는다	-12393
▁완성도를	-12394
▁욕하면서	-12395
▁용두사미	-12396
▁원작보다	-12397
▁이야기와	-12398
▁인상깊은	-12399
▁있는것도	-12400
▁있었어요	-12401
▁있었을까	-12402
▁줄거리에	-12403
▁지금보니	-12404
▁진정으로	-12405
▁질질끌고	-12406
▁촌스럽고	-12407
▁크리스틴	-12408
▁필요할까	-12409
▁후회하지	-12410
하지마세요	-12411
;;;;;;	-12412
▁괜찮았어요	-12413
▁대단합니다	-12414
▁더럽게없다	-12415
▁로그인하게	-12416
▁리메이크작	-12417
▁못봐주겠다	-12418
▁볼만하던데	-12419
▁소름돋는다	-12420
▁영화이지만	-12421
▁오그라든다	-12422
▁자연스럽고	-12423
▁정신건강에	-12424
▁좋아했는데	-12425
▁죽여버리고	-12426
▁캐릭터들도	-12427
▁무슨생각으로	-12428
...............	-12429
lt	-12430
~7	-12431
ᄅᄀ	-12432
▁ᅢ	-12433
▁귓	-12434
▁닐	-12435
▁좁	-12436
▁쬐	-12437
▁쿡	-12438
▁퀸	-12439
겟음	-12440
겟지	-12441
고만	-12442
고에	-12443
관리	-12444
굳굳	-12445
그닥	-12446
길이	-12447
눈에	-12448
돈다	-12449
디에	-12450
러리	-12451
력도	-12452
로얄	-12453
료로	-12454
만원	-12455
못미	-12456
미남	-12457
미달	-12458
바가	-12459
받았	-12460
받지	-12461
밤에	-12462
수님	-12463
어렵	-12464
없냐	-12465
와라	-12466
왠지	-12467
우치	-12468
유미	-12469
이소	-12470
인표	-12471
일도	-12472
전기	-12473
찍는	-12474
차가	-12475
청춘	-12476
침을	-12477
탈리	-12478
햇던	-12479
헤헤	-12480
▁-1	-12481
▁23	-12482
▁가위	-12483
▁각성	-12484
▁강혜	-12485
▁개빡	-12486
▁걸어	-12487
▁공격	-12488
▁과감	-12489
▁관리	-12490
▁광해	-12491
▁구원	-12492
▁김보	-12493
▁꾸준	-12494
▁끌려	-12495
▁낮춰	-12496
▁넘기	-12497
▁네가	-12498
▁녹화	-12499
▁놈이	-12500
▁대리	-12501
▁되었	-12502
▁들을	-12503
▁로긴	-12504
▁마술	-12505
▁맛을	-12506
▁망함	-12507
▁메인	-12508
▁모건	-12509
▁모델	-12510
▁몰래	-12511
▁미워	-12512
▁반가	-12513
▁발랄	-12514
▁방식	-12515
▁분석	-12516
▁불꽃	-12517
▁불사	-12518
▁불우	-12519
▁수업	-12520
▁숨이	-12521
▁스파	-12522
▁싫음	-12523
▁야마	-12524
▁어서	-12525
▁어쩐	-12526
▁여진	-12527
▁역활	-12528
▁오르	-12529
▁옥의	-12530
▁이룬	-12531
▁이뤄	-12532
▁이슬	-12533
▁이요	-12534
▁인공	-12535
▁인식	-12536
▁인줄	-12537
▁작작	-12538
▁장편	-12539
▁정글	-12540
▁조커	-12541
▁쳐다	-12542
▁큰일	-12543
▁클라	-12544
▁튀어	-12545
▁플래	-12546
▁피가	-12547
▁피디	-12548
▁하얀	-12549
▁하필	-12550
▁해적	-12551
▁했네	-12552
▁혹평	-12553
▁희극	-12554
걸까요	-12555
겁니까	-12556
너무낮	-12557
넘치고	-12558
다가도	-12559
라는데	-12560
명이서	-12561
본사람	-12562
분들도	-12563
쓰는데	-12564
아들이	-12565
알바들	-12566
야겠다	-12567
올시다	-12568
요소가	-12569
우주연	-12570
잔잔한	-12571
저렇게	-12572
죽이는	-12573
친구가	-12574
프랑스	-12575
픕니다	-12576
할머니	-12577
할영화	-12578
해졌다	-12579
훌륭한	-12580
ight	-12581
▁CGV	-12582
▁가치는	-12583
▁감정의	-12584
▁강호동	-12585
▁개성이	-12586
▁고통을	-12587
▁관객은	-12588
▁그녀를	-12589
▁그러니	-12590
▁그런건	-12591
▁그림이	-12592
▁급하게	-12593
▁김명민	-12594
▁끝나면	-12595
▁끝났다	-12596
▁노래와	-12597
▁당시의	-12598
▁돈아깝	-12599
▁따라가	-12600
▁똑같다	-12601
▁만든것	-12602
▁말한다	-12603
▁멋있음	-12604
▁몸부림	-12605
▁뭐하냐	-12606
▁미국은	-12607
▁미래의	-12608
▁밑에분	-12609
▁바보가	-12610
▁박신혜	-12611
▁배우다	-12612
▁보니깐	-12613
▁본다고	-12614
▁브레이	-12615
▁생각과	-12616
▁서부극	-12617
▁선입견	-12618
▁성격이	-12619
▁스마트	-12620
▁신민아	-12621
▁심했다	-12622
▁아이도	-12623
▁암울한	-12624
▁어드벤	-12625
▁어려서	-12626
▁어쩌고	-12627
▁얼굴도	-12628
▁없구만	-12629
▁없잖아	-12630
▁오늘은	-12631
▁웃기긴	-12632
▁이쁘네	-12633
▁이후의	-12634
▁잔잔함	-12635
▁장난해	-12636
▁장면에	-12637
▁재평가	-12638
▁전설이	-12639
▁좋은거	-12640
▁주말에	-12641
▁죽어도	-12642
▁중구난	-12643
▁중딩때	-12644
▁지구를	-12645
▁최진실	-12646
▁폴워커	-12647
▁프로젝	-12648
▁한국형	-12649
▁해놓고	-12650
▁현재의	-12651
▁흥행에	-12652
▁흥행을	-12653
♡♥♡♥	-12654
다는건지	-12655
사랑하는	-12656
생각보다	-12657
생각하게	-12658
스토리를	-12659
쓰레기다	-12660
액션영화	-12661
이라는거	-12662
이야기를	-12663
적으로도	-12664
점이라도	-12665
짜증난다	-12666
할수밖에	-12667
naver	-12668
▁Very	-12669
▁감동감동	-12670
▁괜찮았고	-12671
▁나오길래	-12672
▁내스타일	-12673
▁너무좋다	-12674
▁누구에게	-12675
▁눈물난다	-12676
▁단순하고	-12677
▁드라마틱	-12678
▁리얼하게	-12679
▁명작인데	-12680
▁무서운거	-12681
▁무협영화	-12682
▁미화하는	-12683
▁밋밋하고	-12684
▁배우들로	-12685
▁배우들만	-12686
▁버금가는	-12687
▁보여주지	-12688
▁본영화중	-12689
▁볼거리는	-12690
▁비현실적	-12691
▁사람인데	-12692
▁상황에서	-12693
▁샤를리즈	-12694
▁시리즈로	-12695
▁쓰레기도	-12696
▁아날로그	-12697
▁아니에요	-12698
▁아름다워	-12699
▁안보는데	-12700
▁안쓰는데	-12701
▁안타까울	-12702
▁알수있는	-12703
▁어릴적에	-12704
▁엑스트라	-12705
▁이리저리	-12706
▁인물들이	-12707
▁인상깊다	-12708
▁있어보이	-12709
▁잔잔하다	-12710
▁저평가된	-12711
▁줄거리도	-12712
▁짱입니다	-12713
▁천녀유혼	-12714
▁촬영기법	-12715
▁코미디를	-12716
▁판타지를	-12717
▁풋풋하고	-12718
▁허술하다	-12719
▁화가난다	-12720
▁대단하네요	-12721
▁만들었다면	-12722
▁스토리텔링	-12723
▁쓰레기라고	-12724
▁연기자들의	-12725
▁인상깊었다	-12726
▁작품이라고	-12727
▁재미가없다	-12728
▁조금이나마	-12729
▁해피엔딩이	-12730
인줄알았는데	-12731
▁흥미진진하고	-12732
,.,.,.,.	-12733
▁감동적이었어요	-12734
▁ᄏᄏᄏᄏᄏᄏᄏᄏᄏᄏᄏᄏ	-12735
.'	-12736
um	-12737
▁쟁	-12738
▁펑	-12739
걸고	-12740
겁고	-12741
너의	-12742
년생	-12743
니잼	-12744
데스	-12745
동물	-12746
돼지	-12747
되었	-12748
들인	-12749
때의	-12750
레드	-12751
레미	-12752
력은	-12753
령이	-12754
론이	-12755
루니	-12756
리뷰	-12757
만옥	-12758
매가	-12759
매의	-12760
면도	-12761
모토	-12762
무라	-12763
뭐임	-12764
봤어	-12765
비밀	-12766
생겼	-12767
선징	-12768
세지	-12769
세한	-12770
셜록	-12771
써서	-12772
아르	-12773
아파	-12774
야야	-12775
야의	-12776
어보	-12777
어져	-12778
어휴	-12779
여친	-12780
예상	-12781
우우	-12782
울고	-12783
웃겼	-12784
유루	-12785
이구	-12786
이더	-12787
자이	-12788
제왕	-12789
주변	-12790
즈를	-12791
증에	-12792
진씨	-12793
짝퉁	-12794
차게	-12795
차기	-12796
크를	-12797
타닉	-12798
평범	-12799
포스	-12800
프다	-12801
훈훈	-12802
희를	-12803
▁->	-12804
▁no	-12805
▁ᄆᄎ	-12806
▁가게	-12807
▁간접	-12808
▁감싸	-12809
▁개쩌	-12810
▁거침	-12811
▁걸레	-12812
▁결투	-12813
▁경기	-12814
▁국뽕	-12815
▁기계	-12816
▁깜찍	-12817
▁난감	-12818
▁남이	-12819
▁도움	-12820
▁되냐	-12821
▁드립	-12822
▁롯데	-12823
▁리플	-12824
▁마땅	-12825
▁맞고	-12826
▁먹을	-12827
▁며칠	-12828
▁무뇌	-12829
▁무려	-12830
▁미루	-12831
▁밀어	-12832
▁바뀐	-12833
▁발톱	-12834
▁배슬	-12835
▁버튼	-12836
▁본적	-12837
▁비가	-12838
▁살기	-12839
▁선전	-12840
▁세트	-12841
▁소문	-12842
▁수퍼	-12843
▁스톤	-12844
▁시기	-12845
▁신앙	-12846
▁씬이	-12847
▁안질	-12848
▁앵글	-12849
▁얄팍	-12850
▁양반	-12851
▁어긋	-12852
▁어깨	-12853
▁연쇄	-12854
▁오덕	-12855
▁오류	-12856
▁외화	-12857
▁웬만	-12858
▁유작	-12859
▁의존	-12860
▁일드	-12861
▁일방	-12862
▁자빠	-12863
▁작살	-12864
▁잘한	-12865
▁전성	-12866
▁절라	-12867
▁정답	-12868
▁종북	-12869
▁주체	-12870
▁중고	-12871
▁중딩	-12872
▁지리	-12873
▁지원	-12874
▁진자	-12875
▁책도	-12876
▁초콜	-12877
▁택시	-12878
▁투표	-12879
▁해보	-12880
▁향수	-12881
▁홍수	-12882
▁획을	-12883
같지만	-12884
는다면	-12885
리는게	-12886
보지말	-12887
봤는지	-12888
분들께	-12889
선징악	-12890
소재를	-12891
시간도	-12892
쒸레기	-12893
왔지만	-12894
정도가	-12895
정도다	-12896
주려고	-12897
줄알고	-12898
척하는	-12899
햇지만	-12900
했었던	-12901
▁140	-12902
▁감동에	-12903
▁감정선	-12904
▁개봉작	-12905
▁것들은	-12906
▁곳에서	-12907
▁기괴한	-12908
▁기회를	-12909
▁끔찍한	-12910
▁높네요	-12911
▁눈요기	-12912
▁다가오	-12913
▁다루는	-12914
▁다음에	-12915
▁돋보임	-12916
▁때부터	-12917
▁로버츠	-12918
▁리얼한	-12919
▁매력도	-12920
▁멀쩡한	-12921
▁멋있게	-12922
▁모니터	-12923
▁모처럼	-12924
▁무개념	-12925
▁뭐하러	-12926
▁바라며	-12927
▁박신양	-12928
▁배경을	-12929
▁배우고	-12930
▁보고서	-12931
▁봤으니	-12932
▁빠르고	-12933
▁색감이	-12934
▁생겨서	-12935
▁수작임	-12936
▁수준도	-12937
▁시선이	-12938
▁실망을	-12939
▁안되게	-12940
▁안맞고	-12941
▁알수가	-12942
▁얼굴에	-12943
▁없으며	-12944
▁연결이	-12945
▁와이어	-12946
▁용가리	-12947
▁운명을	-12948
▁이선균	-12949
▁이종석	-12950
▁있기에	-12951
▁작품들	-12952
▁재미업	-12953
▁제목도	-12954
▁조선족	-12955
▁조용한	-12956
▁좋아함	-12957
▁징그러	-12958
▁차원이	-12959
▁철저히	-12960
▁충무로	-12961
▁친구를	-12962
▁티비에	-12963
▁팬인데	-12964
▁평가가	-12965
▁필요는	-12966
▁하나를	-12967
▁했다고	-12968
▁했다면	-12969
▁했어야	-12970
▁허무함	-12971
▁화난다	-12972
▁흥미가	-12973
나왔으면	-12974
무엇보다	-12975
사랑해요	-12976
시리즈는	-12977
아닌가요	-12978
아버지가	-12979
인것같다	-12980
재미없네	-12981
주고싶다	-12982
채널에서	-12983
▁2011	-12984
▁감동까지	-12985
▁계속해서	-12986
▁기억하고	-12987
▁꼭보시길	-12988
▁나오는게	-12989
▁난무하는	-12990
▁난해하다	-12991
▁남는영화	-12992
▁네이버에	-12993
▁다가온다	-12994
▁로드무비	-12995
▁로맨스를	-12996
▁몰입도는	-12997
▁미국에서	-12998
▁벌어지는	-12999
▁보는사람	-13000
▁보다보면	-13001
▁섬세하고	-13002
▁스토리라	-13003
▁스펙타클	-13004
▁실화라서	-13005
▁아버지와	-13006
▁아이리스	-13007
▁어디선가	-13008
▁연출력도	-13009
▁영화보면	-13010
▁영화에선	-13011
▁오유에서	-13012
▁이건아니	-13013
▁이미지가	-13014
▁일본애니	-13015
▁있어야지	-13016
▁재밌게봄	-13017
▁재밌었어	-13018
▁재밌지만	-13019
▁제목부터	-13020
▁좋았네요	-13021
▁줄거리는	-13022
▁줄거리를	-13023
▁집중하게	-13024
▁짱이에요	-13025
▁친구들이	-13026
▁코미디의	-13027
▁하지말고	-13028
▁했었는데	-13029
▁허무하고	-13030
▁확실하게	-13031
▁후회한다	-13032
▁훌륭했다	-13033
보고있는데	-13034
최악의영화	-13035
▁내용전개가	-13036
▁너무좋아요	-13037
▁드라마인데	-13038
▁들었습니다	-13039
▁마이너스는	-13040
▁만들었는데	-13041
▁모든면에서	-13042
▁모르겠어요	-13043
▁뭔내용인지	-13044
▁없었습니다	-13045
▁의심스럽다	-13046
▁인상적이다	-13047
▁잊혀지지가	-13048
▁전달하고자	-13049
▁초등학생때	-13050
▁친구들이랑	-13051
▁킬링타임도	-13052
▁할말이없다	-13053
ᅮᅮᅮᅮᅮᅮᅮᅮ	-13054
!!!!!!!!!!!	-13055
XX	-13056
~?	-13057
▁ᅡ	-13058
▁↓	-13059
▁껴	-13060
▁랄	-13061
▁롭	-13062
▁삭	-13063
▁셰	-13064
▁줫	-13065
▁톡	-13066
▁훗	-13067
가끔	-13068
개뿔	-13069
개판	-13070
걸이	-13071
검색	-13072
관에	-13073
금지	-13074
기네	-13075
끝이	-13076
네용	-13077
네유	-13078
년후	-13079
노키	-13080
느낀	-13081
니콜	-13082
단이	-13083
대본	-13084
대신	-13085
대인	-13086
대장	-13087
등이	-13088
먼이	-13089
민서	-13090
민을	-13091
비판	-13092
비행	-13093
빠이	-13094
설레	-13095
섹스	-13096
소사	-13097
신듯	-13098
신히	-13099
심리	-13100
씬을	-13101
안이	-13102
않는	-13103
앤딩	-13104
야만	-13105
와요	-13106
우마	-13107
유천	-13108
이연	-13109
입은	-13110
잊혀	-13111
전거	-13112
점임	-13113
중요	-13114
지구	-13115
질만	-13116
찍은	-13117
카시	-13118
크는	-13119
행이	-13120
ast	-13121
▁MC	-13122
▁re	-13123
▁ᅮᅲ	-13124
▁강시	-13125
▁강철	-13126
▁고래	-13127
▁고은	-13128
▁곳이	-13129
▁구려	-13130
▁균형	-13131
▁근육	-13132
▁김규	-13133
▁나지	-13134
▁남김	-13135
▁너도	-13136
▁놀람	-13137
▁농구	-13138
▁높냐	-13139
▁눈높	-13140
▁대형	-13141
▁독재	-13142
▁동료	-13143
▁동호	-13144
▁두뇌	-13145
▁드릴	-13146
▁딴짓	-13147
▁똥칠	-13148
▁마저	-13149
▁먹은	-13150
▁명량	-13151
▁몇일	-13152
▁몰려	-13153
▁못된	-13154
▁무방	-13155
▁뭐든	-13156
▁뭣도	-13157
▁반해	-13158
▁발암	-13159
▁밝은	-13160
▁밥먹	-13161
▁버림	-13162
▁부재	-13163
▁비긴	-13164
▁뻔함	-13165
▁사서	-13166
▁산다	-13167
▁살렸	-13168
▁색다	-13169
▁생겨	-13170
▁서사	-13171
▁선배	-13172
▁소오	-13173
▁속상	-13174
▁수다	-13175
▁시바	-13176
▁신뢰	-13177
▁쓰레	-13178
▁악평	-13179
▁압박	-13180
▁애썼	-13181
▁양산	-13182
▁언어	-13183
▁욕할	-13184
▁원빈	-13185
▁유역	-13186
▁으아	-13187
▁이웃	-13188
▁이주	-13189
▁인듯	-13190
▁장치	-13191
▁조디	-13192
▁좋으	-13193
▁좌절	-13194
▁줄줄	-13195
▁지속	-13196
▁짠한	-13197
▁짱나	-13198
▁책이	-13199
▁추상	-13200
▁취급	-13201
▁치곤	-13202
▁타잔	-13203
▁태극	-13204
▁태양	-13205
▁통찰	-13206
▁통한	-13207
▁트와	-13208
▁특집	-13209
▁파리	-13210
▁패스	-13211
▁피어	-13212
▁하차	-13213
▁학원	-13214
▁한때	-13215
▁한표	-13216
▁함정	-13217
▁해학	-13218
▁허준	-13219
▁흠뻑	-13220
▁히트	-13221
♡♡♡	-13222
개연성	-13223
게스트	-13224
데리고	-13225
되어서	-13226
되어야	-13227
된다고	-13228
라는거	-13229
릅니다	-13230
만드네	-13231
본건데	-13232
사람만	-13233
스라엘	-13234
시간은	-13235
안되게	-13236
았다고	-13237
어가고	-13238
어이가	-13239
였는지	-13240
우리가	-13241
이하도	-13242
지면서	-13243
질않나	-13244
케이블	-13245
페이지	-13246
했구나	-13247
////	-13248
▁120	-13249
▁7~8	-13250
▁mbc	-13251
▁가슴찡	-13252
▁감독아	-13253
▁괜찮을	-13254
▁구석이	-13255
▁기존의	-13256
▁김남길	-13257
▁끝내주	-13258
▁나와라	-13259
▁남아돌	-13260
▁납득이	-13261
▁내리는	-13262
▁내면의	-13263
▁눈뜨고	-13264
▁다문화	-13265
▁대하여	-13266
▁더빙판	-13267
▁동심을	-13268
▁된다면	-13269
▁로멘틱	-13270
▁마음도	-13271
▁모두를	-13272
▁모를까	-13273
▁무삭제	-13274
▁무작정	-13275
▁뭔내용	-13276
▁미쳤다	-13277
▁배우에	-13278
▁보고있	-13279
▁보내는	-13280
▁본질을	-13281
▁봤어야	-13282
▁부분에	-13283
▁빠르게	-13284
▁사춘기	-13285
▁생생한	-13286
▁수밖에	-13287
▁시스템	-13288
▁시시한	-13289
▁시작한	-13290
▁신들린	-13291
▁씹노잼	-13292
▁아들을	-13293
▁안성기	-13294
▁앞뒤가	-13295
▁애니로	-13296
▁약하고	-13297
▁어떨지	-13298
▁엄태웅	-13299
▁여실히	-13300
▁여자와	-13301
▁욕하고	-13302
▁우리도	-13303
▁위로가	-13304
▁음악만	-13305
▁이런데	-13306
▁이성재	-13307
▁인셉션	-13308
▁일상의	-13309
▁있을듯	-13310
▁자체로	-13311
▁잔인함	-13312
▁잘생김	-13313
▁조아요	-13314
▁좋았어	-13315
▁죽었다	-13316
▁진실은	-13317
▁초점을	-13318
▁최강의	-13319
▁최대한	-13320
▁평소에	-13321
▁평점만	-13322
▁표현을	-13323
▁피라냐	-13324
▁피터팬	-13325
▁한번에	-13326
▁합시다	-13327
▁확실한	-13328
▁후속편	-13329
▁힐링이	-13330
대단하다	-13331
만으로는	-13332
아아아아	-13333
영화이다	-13334
재밌었다	-13335
하셨어요	-13336
하지않는	-13337
해지네요	-13338
▁-_-;	-13339
▁2009	-13340
▁가족끼리	-13341
▁감성적인	-13342
▁극장개봉	-13343
▁기억속에	-13344
▁기억하는	-13345
▁끝내주는	-13346
▁나비효과	-13347
▁나오지만	-13348
▁나중에는	-13349
▁노잼이다	-13350
▁돋보였던	-13351
▁떠오른다	-13352
▁뛰어나다	-13353
▁롱테이크	-13354
▁망한영화	-13355
▁멋집니다	-13356
▁메시지는	-13357
▁몰입도를	-13358
▁물론이고	-13359
▁반전까지	-13360
▁반전영화	-13361
▁별하나도	-13362
▁보여줬다	-13363
▁생각밖에	-13364
▁섬세하게	-13365
▁스릴러의	-13366
▁시사회로	-13367
▁신비로운	-13368
▁쌍팔년도	-13369
▁아쉬웠다	-13370
▁어메이징	-13371
▁어울린다	-13372
▁억지웃음	-13373
▁연기들도	-13374
▁유치하기	-13375
▁이름으로	-13376
▁이스라엘	-13377
▁있는영화	-13378
▁작품으로	-13379
▁잼있는데	-13380
▁잼있었음	-13381
▁중요한건	-13382
▁천재적인	-13383
▁캐스팅에	-13384
▁판타스틱	-13385
▁평점테러	-13386
▁화끈하게	-13387
감동적이고	-13388
▁강추입니다	-13389
▁기대하면서	-13390
▁나도모르게	-13391
▁너무재밌게	-13392
▁니콜키드먼	-13393
▁대박입니다	-13394
▁먹먹해지는	-13395
▁사람으로서	-13396
▁사랑과전쟁	-13397
▁스크린으로	-13398
▁스토리라인	-13399
▁재미없는데	-13400
▁정말재밌게	-13401
▁조금이라도	-13402
▁지루합니다	-13403
▁추천해주고	-13404
!"	-13405
_+	-13406
df	-13407
ee	-13408
ir	-13409
ᄉᄋ	-13410
▁꺄	-13411
▁꽂	-13412
▁닉	-13413
▁돕	-13414
▁밸	-13415
▁벙	-13416
▁쉰	-13417
▁였	-13418
▁펜	-13419
걸린	-13420
과도	-13421
괴물	-13422
그거	-13423
그려	-13424
그지	-13425
기리	-13426
기전	-13427
난이	-13428
남이	-13429
니발	-13430
닥터	-13431
두개	-13432
디스	-13433
따윈	-13434
락이	-13435
런스	-13436
레쉬	-13437
로이	-13438
론데	-13439
르르	-13440
린데	-13441
릴라	-13442
마라	-13443
만나	-13444
맞아	-13445
맨날	-13446
명도	-13447
미드	-13448
바뀌	-13449
방을	-13450
버렷	-13451
보냐	-13452
브로	-13453
블록	-13454
비한	-13455
산이	-13456
쉽게	-13457
스탈	-13458
시노	-13459
인디	-13460
인한	-13461
전부	-13462
전설	-13463
조의	-13464
즈는	-13465
지난	-13466
질을	-13467
천국	-13468
천만	-13469
츠의	-13470
투자	-13471
파리	-13472
퍼스	-13473
피가	-13474
호화	-13475
///	-13476
ome	-13477
uck	-13478
ust	-13479
▁2%	-13480
▁PD	-13481
▁vs	-13482
▁ᄀᄀ	-13483
▁갈릴	-13484
▁강예	-13485
▁경쟁	-13486
▁광기	-13487
▁교도	-13488
▁구할	-13489
▁금지	-13490
▁김창	-13491
▁끼어	-13492
▁남지	-13493
▁놀랄	-13494
▁높음	-13495
▁눈감	-13496
▁다는	-13497
▁덕후	-13498
▁도박	-13499
▁동참	-13500
▁될것	-13501
▁될까	-13502
▁두분	-13503
▁둘러	-13504
▁딸의	-13505
▁리브	-13506
▁박영	-13507
▁발악	-13508
▁밝고	-13509
▁배운	-13510
▁법칙	-13511
▁벗고	-13512
▁별을	-13513
▁보장	-13514
▁사정	-13515
▁삼각	-13516
▁선율	-13517
▁설렘	-13518
▁성냥	-13519
▁성숙	-13520
▁수술	-13521
▁수식	-13522
▁스탭	-13523
▁스틸	-13524
▁쓰잘	-13525
▁쓴다	-13526
▁아르	-13527
▁아시	-13528
▁아휴	-13529
▁안해	-13530
▁알맹	-13531
▁암살	-13532
▁앤딩	-13533
▁어필	-13534
▁없구	-13535
▁에스	-13536
▁오리	-13537
▁왜냐	-13538
▁우마	-13539
▁웅장	-13540
▁원망	-13541
▁윌스	-13542
▁유사	-13543
▁유전	-13544
▁의식	-13545
▁이명	-13546
▁이모	-13547
▁이문	-13548
▁이와	-13549
▁이질	-13550
▁자격	-13551
▁자는	-13552
▁재회	-13553
▁적어	-13554
▁전환	-13555
▁점도	-13556
▁점을	-13557
▁존스	-13558
▁졸립	-13559
▁죄를	-13560
▁죄책	-13561
▁참다	-13562
▁콤비	-13563
▁타짜	-13564
▁터질	-13565
▁팬티	-13566
▁폭파	-13567
▁필립	-13568
▁한달	-13569
▁할듯	-13570
▁합쳐	-13571
▁홀로	-13572
▁회사	-13573
▁휴가	-13574
맙소사	-13575
무섭다	-13576
배우를	-13577
보는거	-13578
보았다	-13579
본다면	-13580
사회의	-13581
생각해	-13582
설정이	-13583
스럽네	-13584
실에서	-13585
아깝네	-13586
아무튼	-13587
없는게	-13588
없었던	-13589
역으로	-13590
영상미	-13591
원작을	-13592
으므로	-13593
이러스	-13594
일수도	-13595
정말로	-13596
쪽으로	-13597
카메라	-13598
팩트가	-13599
한건가	-13600
▁가네요	-13601
▁가는데	-13602
▁갔다가	-13603
▁공감은	-13604
▁공포의	-13605
▁구하기	-13606
▁그러고	-13607
▁깨달음	-13608
▁나오길	-13609
▁나오니	-13610
▁나올수	-13611
▁남녀의	-13612
▁내평점	-13613
▁넣어서	-13614
▁노력은	-13615
▁노력한	-13616
▁노출이	-13617
▁당할순	-13618
▁돋보인	-13619
▁되는지	-13620
▁뒷통수	-13621
▁딱봐도	-13622
▁때까지	-13623
▁마시고	-13624
▁만큼의	-13625
▁모두들	-13626
▁몰랐던	-13627
▁무난한	-13628
▁베리굿	-13629
▁보였다	-13630
▁봤으나	-13631
▁빈디젤	-13632
▁사회를	-13633
▁생각안	-13634
▁설정도	-13635
▁소설의	-13636
▁슈스케	-13637
▁슬로우	-13638
▁아시는	-13639
▁안드로	-13640
▁않다는	-13641
▁알려주	-13642
▁애매한	-13643
▁애틋한	-13644
▁야동을	-13645
▁약빨고	-13646
▁어렵게	-13647
▁어린애	-13648
▁얼굴은	-13649
▁여고생	-13650
▁여주는	-13651
▁연기들	-13652
▁이걸로	-13653
▁이범수	-13654
▁이정현	-13655
▁일점도	-13656
▁장만옥	-13657
▁장애인	-13658
▁재밋네	-13659
▁재밌냐	-13660
▁전쟁은	-13661
▁전편을	-13662
▁조재현	-13663
▁좋다는	-13664
▁좋아라	-13665
▁지독한	-13666
▁진리다	-13667
▁최고작	-13668
▁최고지	-13669
▁평가할	-13670
▁하시길	-13671
▁하여간	-13672
▁해줘서	-13673
▁화면도	-13674
것같아서	-13675
꼭보세요	-13676
다고해서	-13677
봣습니다	-13678
이라는데	-13679
하기에는	-13680
하자마자	-13681
한국영화	-13682
,,,,,	-13683
▁2006	-13684
▁가슴따뜻	-13685
▁고마워요	-13686
▁괜찮지만	-13687
▁기대보다	-13688
▁기분이다	-13689
▁들었는데	-13690
▁디테일한	-13691
▁로맨스도	-13692
▁먹먹하고	-13693
▁보이네요	-13694
▁비슷하게	-13695
▁상관없이	-13696
▁생각지도	-13697
▁손꼽히는	-13698
▁숨막히는	-13699
▁스케일도	-13700
▁시간여행	-13701
▁알겠으나	-13702
▁액션씬이	-13703
▁어이상실	-13704
▁엔딩까지	-13705
▁엽기적인	-13706
▁영화평점	-13707
▁예고편에	-13708
▁우울하고	-13709
▁으리으리	-13710
▁이야기들	-13711
▁작품성을	-13712
▁제작진이	-13713
▁좋아하면	-13714
▁중구난방	-13715
▁클라이막	-13716
▁토요명화	-13717
▁형편없다	-13718
것도아니고	-13719
보고싶네요	-13720
영화제에서	-13721
재미도없고	-13722
...!!!	-13723
▁내용이지만	-13724
▁다르겠지만	-13725
▁만들어내는	-13726
▁만들었네요	-13727
▁매력적이고	-13728
▁보여줬는데	-13729
▁사랑입니다	-13730
▁실망시키지	-13731
▁아이디어가	-13732
▁알았습니다	-13733
▁여자친구랑	-13734
▁잔인하지도	-13735
▁재미없었던	-13736
▁트와일라잇	-13737
▁미션임파서블	-13738
▁브루스윌리스	-13739
▁애니메이션은	-13740
▁인상적이었다	-13741
▁최고의드라마	-13742
▁ᄏᄏᄏᄏᄏᄏᄏᄏᄏᄏᄏᄏᄏᄏ	-13743
EC	-13744
ab	-13745
gt	-13746
ww	-13747
▁ᅩ	-13748
▁껄	-13749
▁랭	-13750
▁뤽	-13751
▁뷰	-13752
▁샀	-13753
▁앗	-13754
▁왼	-13755
▁츠	-13756
▁킴	-13757
▁틴	-13758
▁험	-13759
가득	-13760
겁다	-13761
결과	-13762
군데	-13763
껀데	-13764
끝도	-13765
남녀	-13766
넘어	-13767
느꼈	-13768
는것	-13769
다이	-13770
랜든	-13771
리던	-13772
맥스	-13773
면에	-13774
몇번	-13775
모자	-13776
몰라	-13777
무어	-13778
물어	-13779
밖의	-13780
별한	-13781
병이	-13782
봤나	-13783
비하	-13784
사부	-13785
상관	-13786
생크	-13787
세는	-13788
슨은	-13789
시장	-13790
씬만	-13791
아래	-13792
안습	-13793
안을	-13794
에효	-13795
연은	-13796
올리	-13797
욕이	-13798
우성	-13799
웃고	-13800
응원	-13801
입이	-13802
잇게	-13803
있었	-13804
자다	-13805
잔데	-13806
잔아	-13807
잤다	-13808
전과	-13809
정씨	-13810
져도	-13811
총사	-13812
축구	-13813
클럽	-13814
토가	-13815
토벤	-13816
프가	-13817
해질	-13818
했냐	-13819
힐링	-13820
-.-	-13821
^.^	-13822
▁AV	-13823
▁bb	-13824
▁거리	-13825
▁건드	-13826
▁건진	-13827
▁그룹	-13828
▁극의	-13829
▁근본	-13830
▁급급	-13831
▁긍정	-13832
▁기막	-13833
▁기어	-13834
▁끊어	-13835
▁나나	-13836
▁나두	-13837
▁나았	-13838
▁날카	-13839
▁농락	-13840
▁대다	-13841
▁돋는	-13842
▁동원	-13843
▁되니	-13844
▁디비	-13845
▁딸을	-13846
▁떠난	-13847
▁마련	-13848
▁말길	-13849
▁메릴	-13850
▁명성	-13851
▁무릎	-13852
▁뭐죠	-13853
▁미련	-13854
▁박힌	-13855
▁반항	-13856
▁방어	-13857
▁벅찬	-13858
▁베낀	-13859
▁베르	-13860
▁본후	-13861
▁비비	-13862
▁사례	-13863
▁상당	-13864
▁새드	-13865
▁성지	-13866
▁속지	-13867
▁수호	-13868
▁순위	-13869
▁스며	-13870
▁슬플	-13871
▁아일	-13872
▁야이	-13873
▁역을	-13874
▁완결	-13875
▁왜들	-13876
▁욕설	-13877
▁우베	-13878
▁울었	-13879
▁유니	-13880
▁윤아	-13881
▁잠만	-13882
▁잡을	-13883
▁잼따	-13884
▁저딴	-13885
▁적합	-13886
▁종결	-13887
▁종종	-13888
▁중심	-13889
▁지네	-13890
▁찾게	-13891
▁초라	-13892
▁치닫	-13893
▁쿠엔	-13894
▁평정	-13895
▁포스	-13896
▁한몫	-13897
▁했어	-13898
▁호강	-13899
▁훼손	-13900
▁힘듬	-13901
가치가	-13902
것이지	-13903
겟어요	-13904
끝날때	-13905
남자가	-13906
노래도	-13907
는건지	-13908
들과의	-13909
들인가	-13910
또봐도	-13911
로써는	-13912
리는거	-13913
만한데	-13914
무서워	-13915
바이벌	-13916
배우도	-13917
버리네	-13918
보니깐	-13919
보이고	-13920
봤을때	-13921
부분만	-13922
빠지고	-13923
뻔하고	-13924
사랑과	-13925
사랑은	-13926
산으로	-13927
시킨다	-13928
액션도	-13929
여년전	-13930
역시나	-13931
열심히	-13932
을려고	-13933
읍니다	-13934
이기도	-13935
일만에	-13936
일지도	-13937
재밋고	-13938
주고싶	-13939
지는게	-13940
진짜로	-13941
편보고	-13942
하네여	-13943
하진않	-13944
한거야	-13945
한거임	-13946
할말이	-13947
회까지	-13948
-_-;	-13949
...)	-13950
..10	-13951
good	-13952
▁197	-13953
▁간신히	-13954
▁감성에	-13955
▁강하다	-13956
▁개실망	-13957
▁개졸작	-13958
▁고딩때	-13959
▁관계가	-13960
▁구리고	-13961
▁그려진	-13962
▁그치만	-13963
▁기타노	-13964
▁까메오	-13965
▁꺼버림	-13966
▁꽃보다	-13967
▁끝나네	-13968
▁나오나	-13969
▁누구냐	-13970
▁다시보	-13971
▁대박나	-13972
▁돌리도	-13973
▁동생이	-13974
▁되다니	-13975
▁또다시	-13976
▁또한번	-13977
▁마음속	-13978
▁말대로	-13979
▁맞지만	-13980
▁무미건	-13981
▁미국에	-13982
▁범인은	-13983
▁봉태규	-13984
▁새롭다	-13985
▁생각남	-13986
▁속편은	-13987
▁스피드	-13988
▁시절이	-13989
▁시키는	-13990
▁신기할	-13991
▁신선함	-13992
▁실력이	-13993
▁싫어서	-13994
▁심장을	-13995
▁심하네	-13996
▁아팠다	-13997
▁안나올	-13998
▁않았을	-13999
▁앞서간	-14000
▁양조위	-14001
▁어리석	-14002
▁어울릴	-14003
▁엄마를	-14004
▁엉덩이	-14005
▁엉성함	-14006
▁영상물	-14007
▁예술가	-14008
▁올만에	-14009
▁왜이런	-14010
▁외모가	-14011
▁용기를	-14012
▁이러지	-14013
▁이민기	-14014
▁이준기	-14015
▁인피니	-14016
▁일반인	-14017
▁일본판	-14018
▁잃었다	-14019
▁있는것	-14020
▁있을때	-14021
▁자막이	-14022
▁장난이	-14023
▁잼있고	-14024
▁전개를	-14025
▁전쟁에	-14026
▁제작한	-14027
▁조연들	-14028
▁좋으면	-14029
▁주는데	-14030
▁죽음이	-14031
▁찍어도	-14032
▁찍어라	-14033
▁차인표	-14034
▁첫장면	-14035
▁초반은	-14036
▁최선을	-14037
▁최후의	-14038
▁출연자	-14039
▁충격과	-14040
▁타이밍	-14041
▁투성이	-14042
▁퍼펙트	-14043
▁표현된	-14044
▁행동을	-14045
▁헛소리	-14046
▁흔하디	-14047
나는영화	-14048
났습니다	-14049
봤는데도	-14050
사람들의	-14051
신분들은	-14052
용으로도	-14053
일뿐이다	-14054
잼있어요	-14055
점이상은	-14056
캐릭터가	-14057
하기만한	-14058
했을텐데	-14059
..!!!	-14060
▁2007	-14061
▁감독이나	-14062
▁개봉하지	-14063
▁개성있는	-14064
▁공각기동	-14065
▁관대하다	-14066
▁그러니까	-14067
▁기대하게	-14068
▁기분나쁜	-14069
▁나왔는지	-14070
▁도대체가	-14071
▁따뜻하다	-14072
▁만들었지	-14073
▁망했는지	-14074
▁맥라이언	-14075
▁맥어보이	-14076
▁무시하고	-14077
▁보지말고	-14078
▁볼까말까	-14079
▁봤는데요	-14080
▁부끄럽다	-14081
▁분위기만	-14082
▁순수함을	-14083
▁아버지는	-14084
▁어색해서	-14085
▁어이없게	-14086
▁어중간한	-14087
▁어찌보면	-14088
▁영화로는	-14089
▁영화로써	-14090
▁예술이다	-14091
▁왔다갔다	-14092
▁유쾌하다	-14093
▁이딴영화	-14094
▁이야기로	-14095
▁재밌겠다	-14096
▁잼있었다	-14097
▁전하고자	-14098
▁주고싶은	-14099
▁즐거웠다	-14100
▁지루함과	-14101
▁추천해요	-14102
▁팬이라서	-14103
▁한국인이	-14104
▁한번보고	-14105
▁해주길래	-14106
이런영화가	-14107
▁고등학교때	-14108
▁그렇다치고	-14109
▁너무재미있	-14110
▁너무하네요	-14111
▁떨어지지만	-14112
▁아쉽습니다	-14113
▁안타깝지만	-14114
▁우리나라가	-14115
▁이런쓰레기	-14116
▁일본영화의	-14117
▁있었을텐데	-14118
▁재미있던데	-14119
▁좋은영화다	-14120
▁최악이었다	-14121
▁감사드립니다	-14122
▁말이필요없음	-14123
▁해피엔딩으로	-14124
▁수고하셨습니다	-14125
▁재밌게봤습니다	-14126
리의리의리의리의	-14127
+1	-14128
0^	-14129
_=	-14130
av	-14131
th	-14132
ᅳᅮ	-14133
▁믹	-14134
▁숫	-14135
▁챔	-14136
계상	-14137
구여	-14138
국가	-14139
그대	-14140
금이	-14141
긴데	-14142
년들	-14143
놔서	-14144
눈빛	-14145
다메	-14146
당신	-14147
대요	-14148
람이	-14149
려구	-14150
르지	-14151
를린	-14152
리라	-14153
만함	-14154
많아	-14155
멸의	-14156
모루	-14157
뭐니	-14158
미로	-14159
바꿔	-14160
박스	-14161
배가	-14162
백한	-14163
복이	-14164
부부	-14165
분장	-14166
비도	-14167
삶을	-14168
상처	-14169
서로	-14170
스톱	-14171
시윤	-14172
신경	-14173
신다	-14174
심심	-14175
앓이	-14176
에나	-14177
였군	-14178
우월	-14179
은지	-14180
의사	-14181
이군	-14182
이시	-14183
인형	-14184
일어	-14185
자극	-14186
자유	-14187
제국	-14188
제라	-14189
졌을	-14190
지로	-14191
진리	-14192
진부	-14193
질러	-14194
짝짝	-14195
찍고	-14196
최강	-14197
커스	-14198
클리	-14199
키가	-14200
탐정	-14201
태의	-14202
파는	-14203
포드	-14204
포트	-14205
한이	-14206
해낸	-14207
해여	-14208
헌터	-14209
.25	-14210
▁av	-14211
▁ᄂᄂ	-14212
▁강박	-14213
▁거임	-14214
▁거친	-14215
▁건달	-14216
▁걸릴	-14217
▁견디	-14218
▁고고	-14219
▁고집	-14220
▁고향	-14221
▁골든	-14222
▁곳에	-14223
▁관광	-14224
▁그중	-14225
▁근거	-14226
▁금치	-14227
▁기원	-14228
▁김상	-14229
▁꼽는	-14230
▁누워	-14231
▁눈은	-14232
▁느꼇	-14233
▁다죽	-14234
▁두렵	-14235
▁따른	-14236
▁면도	-14237
▁명곡	-14238
▁명절	-14239
▁무성	-14240
▁무심	-14241
▁무어	-14242
▁뭘말	-14243
▁바꿀	-14244
▁박상	-14245
▁박용	-14246
▁백만	-14247
▁법한	-14248
▁보물	-14249
▁보인	-14250
▁본드	-14251
▁사나	-14252
▁사냥	-14253
▁산타	-14254
▁성질	-14255
▁손을	-14256
▁쇼킹	-14257
▁수학	-14258
▁스탠	-14259
▁시네	-14260
▁시킨	-14261
▁썩어	-14262
▁안성	-14263
▁약을	-14264
▁약해	-14265
▁완존	-14266
▁왕따	-14267
▁왜저	-14268
▁워킹	-14269
▁원초	-14270
▁윤제	-14271
▁이시	-14272
▁잃어	-14273
▁입은	-14274
▁전파	-14275
▁제공	-14276
▁제주	-14277
▁지내	-14278
▁쩔고	-14279
▁찾은	-14280
▁치우	-14281
▁파헤	-14282
▁평작	-14283
▁피로	-14284
▁했고	-14285
▁했지	-14286
▁행운	-14287
▁호평	-14288
▁호프	-14289
가보다	-14290
감으로	-14291
겠구나	-14292
결말도	-14293
귀여워	-14294
그렇지	-14295
급이다	-14296
꼭봐야	-14297
나오게	-14298
나와라	-14299
내용에	-14300
놈들아	-14301
달리는	-14302
더이상	-14303
되는게	-14304
로버츠	-14305
많은데	-14306
무조건	-14307
밖에안	-14308
받아야	-14309
봤을까	-14310
분들의	-14311
분으로	-14312
빠지게	-14313
살짜리	-14314
소재는	-14315
스파이	-14316
아름다	-14317
어릴때	-14318
없었음	-14319
왜이래	-14320
요일이	-14321
우면서	-14322
으니깐	-14323
으려나	-14324
이래서	-14325
이어서	-14326
인건가	-14327
있다고	-14328
자신을	-14329
점이야	-14330
제목이	-14331
주의에	-14332
주의자	-14333
코드가	-14334
티비티	-14335
편보단	-14336
폰으로	-14337
필요가	-14338
하려다	-14339
해줘서	-14340
▁(10	-14341
▁개인적	-14342
▁과하게	-14343
▁긴장을	-14344
▁꼽히는	-14345
▁나와는	-14346
▁나왔을	-14347
▁내보내	-14348
▁넘친다	-14349
▁놀래키	-14350
▁눈물샘	-14351
▁돋는다	-14352
▁듯하다	-14353
▁떠나는	-14354
▁라디오	-14355
▁멋졌다	-14356
▁못되는	-14357
▁못하나	-14358
▁무리가	-14359
▁무한한	-14360
▁문화를	-14361
▁바꿔라	-14362
▁바람에	-14363
▁바보로	-14364
▁발전이	-14365
▁별로네	-14366
▁보내고	-14367
▁보느라	-14368
▁보는건	-14369
▁보시고	-14370
▁비오는	-14371
▁살인자	-14372
▁상상도	-14373
▁세번째	-14374
▁싶다는	-14375
▁싶을때	-14376
▁씨리즈	-14377
▁아픔이	-14378
▁않은가	-14379
▁어쨋든	-14380
▁없는지	-14381
▁엉망인	-14382
▁여자도	-14383
▁왜그러	-14384
▁욕나옴	-14385
▁우리를	-14386
▁이것만	-14387
▁이들의	-14388
▁이러면	-14389
▁이어지	-14390
▁이전에	-14391
▁일본에	-14392
▁임수정	-14393
▁잔잔히	-14394
▁잘모르	-14395
▁잘봤음	-14396
▁잠이나	-14397
▁잼있어	-14398
▁조악한	-14399
▁존나게	-14400
▁존재가	-14401
▁졸작이	-14402
▁지금이	-14403
▁진수를	-14404
▁짧지만	-14405
▁찍었다	-14406
▁찾았다	-14407
▁최민식	-14408
▁충격적	-14409
▁테스트	-14410
▁투자한	-14411
▁하늘을	-14412
▁하니까	-14413
▁한방에	-14414
▁해보고	-14415
▁향수를	-14416
▁화면은	-14417
▁환상을	-14418
▁흐른다	-14419
그레이드	-14420
드라마의	-14421
생각하고	-14422
스토리에	-14423
이라이트	-14424
이었다는	-14425
인줄알고	-14426
▁괜찮아요	-14427
▁궁금하게	-14428
▁기다리는	-14429
▁남자들은	-14430
▁네이버는	-14431
▁느끼는게	-14432
▁느낄수있	-14433
▁느낌으로	-14434
▁다른사람	-14435
▁달달하고	-14436
▁되어버린	-14437
▁말하려고	-14438
▁머릿속에	-14439
▁목소리도	-14440
▁발연기가	-14441
▁배우들과	-14442
▁보석같은	-14443
▁보이는데	-14444
▁비극적인	-14445
▁사라지고	-14446
▁생각하니	-14447
▁성장영화	-14448
▁수준낮은	-14449
▁시간아까	-14450
▁아저씨가	-14451
▁안가네요	-14452
▁않았다면	-14453
▁어디에도	-14454
▁연기력을	-14455
▁연출력과	-14456
▁연출이나	-14457
▁영상미에	-14458
▁영화까지	-14459
▁오래오래	-14460
▁완성도는	-14461
▁웃기려고	-14462
▁유치하게	-14463
▁있을까요	-14464
▁재밌구만	-14465
▁정신세계	-14466
▁조폭영화	-14467
▁존재한다	-14468
▁지루했던	-14469
▁찍었을까	-14470
▁최소한의	-14471
▁코스트너	-14472
▁타이타닉	-14473
▁하루종일	-14474
▁하루하루	-14475
▁할머니가	-14476
▁흔해빠진	-14477
이었습니다	-14478
~~~~~~	-14479
▁1,2,3	-14480
▁감동이네요	-14481
▁내용도없고	-14482
▁네이버에서	-14483
▁느낄수있는	-14484
▁다시보기로	-14485
▁대단하다고	-14486
▁되돌아보게	-14487
▁볼만한영화	-14488
▁사랑이라는	-14489
▁생각해보면	-14490
▁어쩔수없이	-14491
▁억지스러움	-14492
▁이건아니다	-14493
▁충격적이다	-14494
▁프로그램이	-14495
▁훌륭합니다	-14496
▁감동적이예요	-14497
▁내인생최고의	-14498
▁등장인물들이	-14499
▁무섭지도않고	-14500
▁아름다운영화	-14501
▁행복했습니다	-14502
▁흥미진진하게	-14503
★☆★☆★☆★☆	-14504
~~~~~~~~~~~~~~~~	-14505
==	-14506
?.	-14507
SF	-14508
ly	-14509
os	-14510
xx	-14511
~3	-14512
▁껍	-14513
▁꾀	-14514
▁밧	-14515
▁얕	-14516
▁헝	-14517
▁힛	-14518
갈수	-14519
감성	-14520
같지	-14521
겹고	-14522
고어	-14523
광수	-14524
길바	-14525
나나	-14526
내놔	-14527
내라	-14528
다녀	-14529
단의	-14530
더블	-14531
된거	-14532
둘다	-14533
드니	-14534
드릴	-14535
레터	-14536
리암	-14537
릿한	-14538
막극	-14539
만치	-14540
문학	-14541
뭉클	-14542
뭐라	-14543
민우	-14544
밀한	-14545
보가	-14546
블리	-14547
산다	-14548
살짝	-14549
상상	-14550
상식	-14551
세번	-14552
세월	-14553
세트	-14554
셨나	-14555
소서	-14556
스테	-14557
슬링	-14558
습니	-14559
시킴	-14560
씁쓸	-14561
아씨	-14562
아웃	-14563
안보	-14564
어려	-14565
어준	-14566
어쩜	-14567
연예	-14568
외엔	-14569
의도	-14570
이용	-14571
자니	-14572
장군	-14573
조각	-14574
지경	-14575
지라	-14576
쯤은	-14577
취급	-14578
코비	-14579
크래	-14580
폭발	-14581
화로	-14582
확인	-14583
황당	-14584
회사	-14585
?;;	-14586
▁1%	-14587
▁22	-14588
▁No	-14589
▁ᄉᄀ	-14590
▁ᄌᄅ	-14591
▁가물	-14592
▁개도	-14593
▁고루	-14594
▁고만	-14595
▁구림	-14596
▁그레	-14597
▁극을	-14598
▁깨어	-14599
▁낄낄	-14600
▁낮을	-14601
▁놀이	-14602
▁높고	-14603
▁놓칠	-14604
▁누굴	-14605
▁대립	-14606
▁동심	-14607
▁드릅	-14608
▁들었	-14609
▁들은	-14610
▁멈출	-14611
▁못하	-14612
▁무튼	-14613
▁박하	-14614
▁박한	-14615
▁배제	-14616
▁밴드	-14617
▁변명	-14618
▁변함	-14619
▁보편	-14620
▁살릴	-14621
▁생김	-14622
▁소수	-14623
▁손오	-14624
▁송중	-14625
▁수습	-14626
▁수영	-14627
▁스폰	-14628
▁쌍욕	-14629
▁안의	-14630
▁않냐	-14631
▁언더	-14632
▁얻은	-14633
▁에디	-14634
▁옷을	-14635
▁요란	-14636
▁우월	-14637
▁운전	-14638
▁위선	-14639
▁유년	-14640
▁은행	-14641
▁이틀	-14642
▁자부	-14643
▁작년	-14644
▁전범	-14645
▁접한	-14646
▁주의	-14647
▁지껄	-14648
▁지능	-14649
▁지식	-14650
▁짜고	-14651
▁찌푸	-14652
▁청순	-14653
▁최수	-14654
▁최신	-14655
▁충족	-14656
▁치면	-14657
▁침몰	-14658
▁파일	-14659
▁프랭	-14660
▁한듯	-14661
▁한회	-14662
▁해군	-14663
▁후려	-14664
▁흡사	-14665
게리온	-14666
굉장히	-14667
귀엽고	-14668
그만큼	-14669
나이에	-14670
남네요	-14671
된영화	-14672
드럽게	-14673
들이여	-14674
라마바	-14675
못한다	-14676
반전도	-14677
사랑의	-14678
새로운	-14679
시기를	-14680
아먹는	-14681
엄마가	-14682
없다는	-14683
여자는	-14684
영환줄	-14685
예쁘고	-14686
으라면	-14687
있는게	-14688
자체는	-14689
잼있게	-14690
점수를	-14691
좋았던	-14692
지가않	-14693
출연진	-14694
해야만	-14695
...2	-14696
▁sbs	-14697
▁가깝다	-14698
▁가난한	-14699
▁가지게	-14700
▁강혜정	-14701
▁개명작	-14702
▁것으로	-14703
▁경찰이	-14704
▁곳곳에	-14705
▁그래두	-14706
▁극치를	-14707
▁근래에	-14708
▁기대됨	-14709
▁김래원	-14710
▁꼬라지	-14711
▁내생의	-14712
▁노무현	-14713
▁놀라고	-14714
▁뇌리에	-14715
▁느낌과	-14716
▁다녀온	-14717
▁담백한	-14718
▁대박임	-14719
▁대학교	-14720
▁돌아온	-14721
▁되버린	-14722
▁두려움	-14723
▁뒤통수	-14724
▁따라서	-14725
▁뜬금포	-14726
▁마피아	-14727
▁맛있는	-14728
▁모니카	-14729
▁모여서	-14730
▁묘사가	-14731
▁뭐하자	-14732
▁미개한	-14733
▁미성년	-14734
▁미치지	-14735
▁바뀌고	-14736
▁밖에는	-14737
▁발견한	-14738
▁베토벤	-14739
▁별점은	-14740
▁보라는	-14741
▁본다는	-14742
▁본사람	-14743
▁봤더만	-14744
▁봤어도	-14745
▁부끄러	-14746
▁부성애	-14747
▁비교도	-14748
▁뽀로로	-14749
▁뿐이고	-14750
▁사소한	-14751
▁사실은	-14752
▁사이에	-14753
▁상황과	-14754
▁샌들러	-14755
▁생각날	-14756
▁생뚱맞	-14757
▁성공한	-14758
▁스릴은	-14759
▁시절을	-14760
▁신동엽	-14761
▁아까웠	-14762
▁아깝게	-14763
▁아는데	-14764
▁아직은	-14765
▁안쓰러	-14766
▁어렵고	-14767
▁어쩌구	-14768
▁어쩐지	-14769
▁엉뚱한	-14770
▁여동생	-14771
▁역사는	-14772
▁열연이	-14773
▁였어요	-14774
▁예전의	-14775
▁오드리	-14776
▁오페라	-14777
▁욕심이	-14778
▁울나라	-14779
▁울림이	-14780
▁웨스턴	-14781
▁유머도	-14782
▁유해진	-14783
▁이감독	-14784
▁이것을	-14785
▁이러냐	-14786
▁이루는	-14787
▁이름에	-14788
▁이용해	-14789
▁이유도	-14790
▁인간에	-14791
▁인내심	-14792
▁있다가	-14793
▁자체의	-14794
▁잠수함	-14795
▁재능이	-14796
▁저지른	-14797
▁좋은듯	-14798
▁주다니	-14799
▁주연이	-14800
▁주제곡	-14801
▁죽어나	-14802
▁즐거워	-14803
▁지못미	-14804
▁진실이	-14805
▁짜증날	-14806
▁초콜릿	-14807
▁추억돋	-14808
▁추억에	-14809
▁친구와	-14810
▁친일파	-14811
▁코믹도	-14812
▁콘서트	-14813
▁파트너	-14814
▁포스가	-14815
▁풍부한	-14816
▁하고자	-14817
▁하기도	-14818
▁하나다	-14819
▁한국식	-14820
▁한국이	-14821
▁한지민	-14822
▁했네요	-14823
▁호기심	-14824
▁히틀러	-14825
★★★★	-14826
거같아서	-14827
그렇다고	-14828
나오는거	-14829
남는영화	-14830
답답하고	-14831
드라마도	-14832
들에게도	-14833
본방사수	-14834
스타일이	-14835
아무것도	-14836
이었다면	-14837
있었지만	-14838
잘봤어요	-14839
재밌었음	-14840
적이었다	-14841
점준거중	-14842
점줍니다	-14843
좋아해서	-14844
중간중간	-14845
하더군요	-14846
해야하나	-14847
했더라면	-14848
...10	-14849
▁4000	-14850
▁개나소나	-14851
▁권선징악	-14852
▁기대하며	-14853
▁기발하고	-14854
▁기본적인	-14855
▁늑대인간	-14856
▁늘어지는	-14857
▁돈아까움	-14858
▁말도안돼	-14859
▁매력있고	-14860
▁명작중의	-14861
▁별점테러	-14862
▁보았네요	-14863
▁볼수없는	-14864
▁봤던건데	-14865
▁불가능한	-14866
▁빠져든다	-14867
▁산만하다	-14868
▁생각나고	-14869
▁생각해볼	-14870
▁스타일은	-14871
▁스토리며	-14872
▁식스센스	-14873
▁싶어지는	-14874
▁아쉬운건	-14875
▁아침부터	-14876
▁안나오나	-14877
▁안젤리나	-14878
▁알았네요	-14879
▁암걸리는	-14880
▁압도적인	-14881
▁어이없어	-14882
▁엄마한테	-14883
▁열받아서	-14884
▁올레티비	-14885
▁왜이러냐	-14886
▁유치원생	-14887
▁이거보면	-14888
▁이쁘네요	-14889
▁이정도의	-14890
▁인도영화	-14891
▁임팩트가	-14892
▁있다는걸	-14893
▁정신없이	-14894
▁제목처럼	-14895
▁제외하면	-14896
▁주인공인	-14897
▁처음보는	-14898
▁크리스마	-14899
▁편안하게	-14900
▁포스터를	-14901
▁표정연기	-14902
▁피해자가	-14903
▁필요없고	-14904
▁하는구나	-14905
▁현실성도	-14906
▁흡입력이	-14907
것만으로도	-14908
▁감동이에요	-14909
▁궁금하네요	-14910
▁기대했건만	-14911
▁나았습니다	-14912
▁나홀로집에	-14913
▁드라마중에	-14914
▁사이코패스	-14915
▁시간아까운	-14916
▁실망입니다	-14917
▁싶을정도로	-14918
▁아니더라도	-14919
▁안남기는데	-14920
▁에니메이션	-14921
▁영화보다는	-14922
▁인터스텔라	-14923
▁자극적이고	-14924
▁재미없던데	-14925
▁재밌음ᄏᄏ	-14926
▁주인공으로	-14927
▁스토리전개가	-14928
▁기대안하고봤는데	-14929
ag	-14930
ᄉᄉ	-14931
▁ᄁ	-14932
▁★	-14933
▁굵	-14934
▁낡	-14935
▁란	-14936
▁빤	-14937
▁썻	-14938
▁쟤	-14939
▁째	-14940
▁쩜	-14941
▁쫙	-14942
▁퀄	-14943
▁킥	-14944
값이	-14945
갔음	-14946
같애	-14947
걸음	-14948
겁나	-14949
국을	-14950
그걸	-14951
기들	-14952
길을	-14953
꺼임	-14954
났고	-14955
내돈	-14956
노무	-14957
노의	-14958
놓는	-14959
눈을	-14960
단지	-14961
덕환	-14962
드레	-14963
든데	-14964
란게	-14965
러지	-14966
론을	-14967
루요	-14968
마에	-14969
마을	-14970
많네	-14971
먹어	-14972
먼의	-14973
못할	-14974
민정	-14975
발로	-14976
발음	-14977
범이	-14978
변화	-14979
본적	-14980
비로	-14981
비언	-14982
빨로	-14983
세대	-14984
세용	-14985
슴다	-14986
승리	-14987
시로	-14988
신과	-14989
실제	-14990
애씨	-14991
앤더	-14992
양반	-14993
어찌	-14994
없던	-14995
에여	-14996
오의	-14997
왕짱	-14998
울이	-14999
익은	-15000
잭맨	-15001
전투	-15002
제의	-15003
제이	-15004
조가	-15005
조폭	-15006
졸잼	-15007
종의	-15008
좋앗	-15009
줬던	-15010
진한	-15011
짜고	-15012
쩌네	-15013
쩔어	-15014
착한	-15015
찮은	-15016
참나	-15017
칙한	-15018
캐리	-15019
클레	-15020
탄생	-15021
포기	-15022
흑흑	-15023
희망	-15024
..)	-15025
..-	-15026
art	-15027
▁26	-15028
▁88	-15029
▁sm	-15030
▁강우	-15031
▁개망	-15032
▁건담	-15033
▁겪는	-15034
▁계시	-15035
▁고쳐	-15036
▁곽지	-15037
▁관점	-15038
▁금성	-15039
▁기반	-15040
▁기절	-15041
▁깔깔	-15042
▁꾸밈	-15043
▁꾸역	-15044
▁끄고	-15045
▁끌지	-15046
▁끝장	-15047
▁낚이	-15048
▁남한	-15049
▁낫네	-15050
▁내놔	-15051
▁네임	-15052
▁노인	-15053
▁님들	-15054
▁당한	-15055
▁두서	-15056
▁등에	-15057
▁따지	-15058
▁똥싸	-15059
▁리더	-15060
▁리부	-15061
▁말까	-15062
▁망상	-15063
▁먹어	-15064
▁멸망	-15065
▁몰고	-15066
▁바램	-15067
▁박철	-15068
▁반짝	-15069
▁배두	-15070
▁베끼	-15071
▁베니	-15072
▁베일	-15073
▁보낼	-15074
▁부패	-15075
▁불교	-15076
▁빌어	-15077
▁빨려	-15078
▁사장	-15079
▁살았	-15080
▁살자	-15081
▁살지	-15082
▁살해	-15083
▁샤말	-15084
▁서른	-15085
▁서우	-15086
▁서유	-15087
▁섞여	-15088
▁세대	-15089
▁소련	-15090
▁소외	-15091
▁숀펜	-15092
▁수목	-15093
▁아리	-15094
▁안경	-15095
▁안내	-15096
▁안듬	-15097
▁안믿	-15098
▁알면	-15099
▁야쿠	-15100
▁얘네	-15101
▁연구	-15102
▁영호	-15103
▁오열	-15104
▁오줌	-15105
▁일기	-15106
▁입을	-15107
▁잉여	-15108
▁작업	-15109
▁잠안	-15110
▁장기	-15111
▁장인	-15112
▁장점	-15113
▁재벌	-15114
▁저건	-15115
▁저격	-15116
▁조롱	-15117
▁조명	-15118
▁좋구	-15119
▁좌좀	-15120
▁주구	-15121
▁주장	-15122
▁질이	-15123
▁질주	-15124
▁처벌	-15125
▁최우	-15126
▁추적	-15127
▁침략	-15128
▁탈락	-15129
▁터지	-15130
▁토르	-15131
▁토미	-15132
▁트렌	-15133
▁편히	-15134
▁할일	-15135
▁해소	-15136
▁현장	-15137
▁획기	-15138
▁효민	-15139
▁흘릴	-15140
같았다	-15141
개막장	-15142
것인지	-15143
관람가	-15144
나오지	-15145
다니엘	-15146
대에서	-15147
더구만	-15148
됐지만	-15149
들었다	-15150
따구로	-15151
떄문에	-15152
렸을때	-15153
만해도	-15154
박하고	-15155
번이상	-15156
보여주	-15157
본적이	-15158
부분을	-15159
세기에	-15160
소리만	-15161
소설을	-15162
십니까	-15163
아프다	-15164
안보고	-15165
역사상	-15166
연출이	-15167
울었다	-15168
의식이	-15169
이런걸	-15170
인데요	-15171
인생을	-15172
있는듯	-15173
있는지	-15174
자신이	-15175
자체도	-15176
재미로	-15177
전개도	-15178
좋았고	-15179
주는거	-15180
치면서	-15181
테스크	-15182
하게만	-15183
한거다	-15184
햇어요	-15185
했기에	-15186
...;	-15187
~♥~♥	-15188
▁6.5	-15189
▁개봉할	-15190
▁개짜증	-15191
▁개쩐다	-15192
▁거부감	-15193
▁것일까	-15194
▁결말만	-15195
▁그래요	-15196
▁그정도	-15197
▁극대화	-15198
▁금요일	-15199
▁기분나	-15200
▁긴박감	-15201
▁꽝이다	-15202
▁꾸준히	-15203
▁나같은	-15204
▁나오냐	-15205
▁나타내	-15206
▁남아도	-15207
▁내면을	-15208
▁노출도	-15209
▁놀라움	-15210
▁놀랍고	-15211
▁누구를	-15212
▁단어가	-15213
▁담겨져	-15214
▁대기업	-15215
▁두가지	-15216
▁두려워	-15217
▁뒤돌아	-15218
▁따분한	-15219
▁리스트	-15220
▁마동석	-15221
▁막무가	-15222
▁말이야	-15223
▁말장난	-15224
▁맙소사	-15225
▁명작중	-15226
▁목적이	-15227
▁못한게	-15228
▁무표정	-15229
▁뭉클한	-15230
▁뭐이리	-15231
▁미치게	-15232
▁미친거	-15233
▁믿을수	-15234
▁바람피	-15235
▁보지만	-15236
▁봉준호	-15237
▁봤는대	-15238
▁부실한	-15239
▁불쌍함	-15240
▁빌려서	-15241
▁빠지고	-15242
▁뻔뻔한	-15243
▁뻔하디	-15244
▁사랑할	-15245
▁사회가	-15246
▁새로울	-15247
▁색감도	-15248
▁소설이	-15249
▁쇼생크	-15250
▁시걸의	-15251
▁싶었음	-15252
▁쒸레기	-15253
▁쓸쓸한	-15254
▁악역이	-15255
▁안가네	-15256
▁안되지	-15257
▁알게되	-15258
▁어느것	-15259
▁언니가	-15260
▁얼굴만	-15261
▁여름에	-15262
▁여운과	-15263
▁여인의	-15264
▁여태껏	-15265
▁영혼이	-15266
▁오디션	-15267
▁외로움	-15268
▁요즘엔	-15269
▁우정이	-15270
▁월드컵	-15271
▁유아인	-15272
▁이슬람	-15273
▁인물을	-15274
▁인연이	-15275
▁있었지	-15276
▁정서에	-15277
▁정재영	-15278
▁제레미	-15279
▁좀비물	-15280
▁주변에	-15281
▁주었다	-15282
▁중국이	-15283
▁줘야지	-15284
▁짠하고	-15285
▁철학이	-15286
▁춤추는	-15287
▁케이스	-15288
▁코믹물	-15289
▁쿠엔틴	-15290
▁파치노	-15291
▁편안한	-15292
▁포장한	-15293
▁폴리스	-15294
▁하더니	-15295
▁행복은	-15296
▁흥행이	-15297
대한민국	-15298
방송에서	-15299
본영화중	-15300
봐야겠다	-15301
시리즈를	-15302
아니지만	-15303
아이들이	-15304
에서부터	-15305
지도않은	-15306
지루해서	-15307
진심으로	-15308
하긴한데	-15309
▁1980	-15310
▁결혼하고	-15311
▁그럴듯한	-15312
▁그림체도	-15313
▁그립네요	-15314
▁나오지도	-15315
▁남깁니다	-15316
▁녹아있는	-15317
▁느껴져서	-15318
▁대부분의	-15319
▁댓글알바	-15320
▁드러나는	-15321
▁들어가서	-15322
▁만드는데	-15323
▁매끄럽지	-15324
▁메시지도	-15325
▁명작이지	-15326
▁목소리는	-15327
▁밀려오는	-15328
▁반복되는	-15329
▁별로였던	-15330
▁부족했다	-15331
▁불우이웃	-15332
▁브라이언	-15333
▁살아있다	-15334
▁상관없는	-15335
▁서스펜스	-15336
▁소소하게	-15337
▁스릴러도	-15338
▁스토리만	-15339
▁시리즈물	-15340
▁시청자가	-15341
▁실망스러	-15342
▁실화라고	-15343
▁아까운데	-15344
▁안무서움	-15345
▁안무섭다	-15346
▁안주는데	-15347
▁압권이다	-15348
▁영화ᄏᄏ	-15349
▁영화보단	-15350
▁오래도록	-15351
▁오토바이	-15352
▁외국영화	-15353
▁우울할때	-15354
▁음악까지	-15355
▁이유없이	-15356
▁있었으나	-15357
▁재미까지	-15358
▁적절하게	-15359
▁조잡하다	-15360
▁좋아하던	-15361
▁중심으로	-15362
▁쥬라기공	-15363
▁지루했고	-15364
▁진지하고	-15365
▁찾아가는	-15366
▁촌스럽지	-15367
▁최고예요	-15368
▁파격적인	-15369
▁표현하는	-15370
▁풀어가는	-15371
▁프로젝트	-15372
▁흥미롭지	-15373
나다라마바	-15374
스럽습니다	-15375
영화라지만	-15376
재미없어요	-15377
재밌었는데	-15378
재밌었어요	-15379
추천합니다	-15380
하긴하지만	-15381
▁개연성없는	-15382
▁관객들에게	-15383
▁괜찮은영화	-15384
▁느껴지네요	-15385
▁심리묘사가	-15386
▁아담샌들러	-15387
▁안나왔으면	-15388
▁에반게리온	-15389
▁여주인공도	-15390
▁영화였네요	-15391
▁이딴영화가	-15392
▁잔인하기만	-15393
▁잘만든영화	-15394
▁재미없으면	-15395
▁저예산으로	-15396
▁지루하기도	-15397
▁토이스토리	-15398
▁하지마루요	-15399
▁안좋아하는데	-15400
!'	-15401
GM	-15402
OD	-15403
gh	-15404
gm	-15405
ry	-15406
~5	-15407
~6	-15408
▁v	-15409
▁z	-15410
▁꽥	-15411
▁닦	-15412
▁댓	-15413
▁떳	-15414
▁띠	-15415
▁래	-15416
▁룰	-15417
▁르	-15418
▁몹	-15419
▁뺀	-15420
▁뻑	-15421
▁뻘	-15422
▁엎	-15423
▁텔	-15424
▁펄	-15425
각을	-15426
갈등	-15427
거북	-15428
경씨	-15429
경험	-15430
계에	-15431
공간	-15432
공룡	-15433
관은	-15434
그가	-15435
꾸역	-15436
노는	-15437
노쉬	-15438
단말	-15439
데가	-15440
도현	-15441
됐음	-15442
된게	-15443
된듯	-15444
될까	-15445
디의	-15446
락을	-15447
량이	-15448
레알	-15449
려원	-15450
렸어	-15451
리리	-15452
마미	-15453
매일	-15454
모도	-15455
모험	-15456
민족	-15457
바꾸	-15458
바에	-15459
발랄	-15460
배를	-15461
봤고	-15462
분투	-15463
생명	-15464
성인	-15465
성장	-15466
세를	-15467
세에	-15468
셨다	-15469
스랑	-15470
스맨	-15471
싶어	-15472
아련	-15473
아픔	-15474
안다	-15475
예뻐	-15476
예전	-15477
옥빈	-15478
올려	-15479
와도	-15480
용석	-15481
울수	-15482
워라	-15483
워야	-15484
윤아	-15485
이럴	-15486
이루	-15487
일드	-15488
자살	-15489
잡이	-15490
잼씀	-15491
전도	-15492
져라	-15493
졌어	-15494
조합	-15495
줬음	-15496
지노	-15497
쯔쯔	-15498
차드	-15499
최근	-15500
춰진	-15501
치에	-15502
카의	-15503
캔들	-15504
쿠삭	-15505
쿼터	-15506
크크	-15507
투표	-15508
트랙	-15509
티네	-15510
폐지	-15511
피해	-15512
한명	-15513
호강	-15514
▁2.	-15515
▁27	-15516
▁3.	-15517
▁93	-15518
▁am	-15519
▁up	-15520
▁가다	-15521
▁개가	-15522
▁개운	-15523
▁것의	-15524
▁곁에	-15525
▁계단	-15526
▁골라	-15527
▁관능	-15528
▁구나	-15529
▁구입	-15530
▁그후	-15531
▁근친	-15532
▁긴급	-15533
▁깊다	-15534
▁나른	-15535
▁남들	-15536
▁니미	-15537
▁대륙	-15538
▁대처	-15539
▁더러	-15540
▁던지	-15541
▁되요	-15542
▁디젤	-15543
▁딸과	-15544
▁뗄수	-15545
▁뜨고	-15546
▁뜻이	-15547
▁말곤	-15548
▁맞을	-15549
▁머니	-15550
▁모래	-15551
▁몸짓	-15552
▁문채	-15553
▁박스	-15554
▁백미	-15555
▁버스	-15556
▁벌레	-15557
▁보냐	-15558
▁보수	-15559
▁브금	-15560
▁브리	-15561
▁서영	-15562
▁서태	-15563
▁세이	-15564
▁셜록	-15565
▁소나	-15566
▁속아	-15567
▁속터	-15568
▁손이	-15569
▁스테	-15570
▁슴가	-15571
▁싶고	-15572
▁싼티	-15573
▁쌍벽	-15574
▁쓰면	-15575
▁안줄	-15576
▁않길	-15577
▁알라	-15578
▁애는	-15579
▁억압	-15580
▁얻을	-15581
▁여정	-15582
▁와나	-15583
▁외에	-15584
▁웃다	-15585
▁웃어	-15586
▁웬지	-15587
▁유도	-15588
▁유튜	-15589
▁이가	-15590
▁이국	-15591
▁이뿌	-15592
▁인과	-15593
▁잃게	-15594
▁작렬	-15595
▁잠재	-15596
▁장백	-15597
▁장선	-15598
▁장화	-15599
▁장황	-15600
▁재료	-15601
▁재연	-15602
▁재판	-15603
▁저능	-15604
▁전의	-15605
▁정경	-15606
▁제맛	-15607
▁조성	-15608
▁좌빨	-15609
▁주네	-15610
▁주저	-15611
▁중견	-15612
▁지날	-15613
▁진출	-15614
▁질러	-15615
▁짙은	-15616
▁책은	-15617
▁추석	-15618
▁춤을	-15619
▁치부	-15620
▁쿠바	-15621
▁클럽	-15622
▁탈을	-15623
▁투입	-15624
▁하실	-15625
▁학예	-15626
▁한게	-15627
▁해설	-15628
▁해운	-15629
▁호화	-15630
▁활동	-15631
감독과	-15632
거같고	-15633
거리며	-15634
거린다	-15635
나는데	-15636
내시간	-15637
드래곤	-15638
따위로	-15639
또보고	-15640
많아서	-15641
무서움	-15642
베스트	-15643
보는중	-15644
보여준	-15645
부르는	-15646
사랑에	-15647
사랑이	-15648
셨어요	-15649
쇼스키	-15650
시네마	-15651
시대가	-15652
시절의	-15653
싸이코	-15654
아닐까	-15655
억지로	-15656
엇으면	-15657
었을듯	-15658
연기짱	-15659
영화야	-15660
완성도	-15661
으려다	-15662
이상한	-15663
작가의	-15664
작품은	-15665
절하게	-15666
점이라	-15667
지모르	-15668
차이가	-15669
초반에	-15670
티스트	-15671
편이나	-15672
할께요	-15673
핵노잼	-15674
했을듯	-15675
*^^*	-15676
~!~!	-15677
▁ᄊᄅᄀ	-15678
▁ᅮᅮᅮ	-15679
▁가족은	-15680
▁감정에	-15681
▁강력한	-15682
▁개망작	-15683
▁갱스터	-15684
▁건질게	-15685
▁공포와	-15686
▁과거에	-15687
▁관람가	-15688
▁그걸로	-15689
▁그러다	-15690
▁기분을	-15691
▁기억남	-15692
▁길들여	-15693
▁김수로	-15694
▁끌리는	-15695
▁나까지	-15696
▁나라는	-15697
▁나온게	-15698
▁나혼자	-15699
▁남자랑	-15700
▁낫다고	-15701
▁높은거	-15702
▁다큐가	-15703
▁다큐로	-15704
▁대단해	-15705
▁대사에	-15706
▁대작이	-15707
▁댓글이	-15708
▁데스노	-15709
▁도가니	-15710
▁돋았다	-15711
▁돌아간	-15712
▁되겠다	-15713
▁드릅게	-15714
▁드리고	-15715
▁마니아	-15716
▁만들까	-15717
▁만화로	-15718
▁많이나	-15719
▁매력과	-15720
▁모아서	-15721
▁못본게	-15722
▁못봤다	-15723
▁못해도	-15724
▁미묘한	-15725
▁박유천	-15726
▁박해일	-15727
▁발전을	-15728
▁보아야	-15729
▁분노를	-15730
▁불끄고	-15731
▁불멸의	-15732
▁불편함	-15733
▁비교할	-15734
▁빠순이	-15735
▁빠지지	-15736
▁사건이	-15737
▁사랑함	-15738
▁살아갈	-15739
▁설명은	-15740
▁설정을	-15741
▁성폭행	-15742
▁소설로	-15743
▁속시원	-15744
▁순수함	-15745
▁스트레	-15746
▁시청율	-15747
▁싱크로	-15748
▁아픔과	-15749
▁악당이	-15750
▁안보길	-15751
▁안봤다	-15752
▁안하는	-15753
▁않겠다	-15754
▁암걸릴	-15755
▁애들용	-15756
▁애잔한	-15757
▁양심도	-15758
▁어울려	-15759
▁어울림	-15760
▁없는거	-15761
▁없는것	-15762
▁없이도	-15763
▁여행을	-15764
▁역겹고	-15765
▁역량이	-15766
▁열정을	-15767
▁요즘에	-15768
▁우리들	-15769
▁울버린	-15770
▁웃긴데	-15771
▁원작도	-15772
▁원작인	-15773
▁은은한	-15774
▁이기는	-15775
▁이들을	-15776
▁이자벨	-15777
▁이하의	-15778
▁일본어	-15779
▁일으킨	-15780
▁입가에	-15781
▁있도록	-15782
▁자연의	-15783
▁잼없어	-15784
▁전부인	-15785
▁좋겠음	-15786
▁주는거	-15787
▁주는건	-15788
▁주셔서	-15789
▁지겹고	-15790
▁지들이	-15791
▁질질끄	-15792
▁짱인듯	-15793
▁채널을	-15794
▁초호화	-15795
▁최악은	-15796
▁최지우	-15797
▁출연작	-15798
▁토할뻔	-15799
▁포기한	-15800
▁표현은	-15801
▁프리퀄	-15802
▁한국을	-15803
▁한두번	-15804
▁합리화	-15805
▁현대판	-15806
겠습니까	-15807
생각나서	-15808
시간가는	-15809
시간짜리	-15810
영화보고	-15811
으로부터	-15812
이나네요	-15813
이영화가	-15814
인들에게	-15815
주인공은	-15816
처음으로	-15817
최악이다	-15818
해피엔딩	-15819
~~!!!	-15820
~~~^^	-15821
▁감안해도	-15822
▁것입니다	-15823
▁관객들이	-15824
▁교훈적인	-15825
▁나에게도	-15826
▁남습니다	-15827
▁내인생의	-15828
▁누군가가	-15829
▁눈물나는	-15830
▁다시보면	-15831
▁다좋은데	-15832
▁되었지만	-15833
▁로드리게	-15834
▁막무가내	-15835
▁만들었음	-15836
▁명작으로	-15837
▁몇년전에	-15838
▁못만드나	-15839
▁바보같은	-15840
▁벗어나지	-15841
▁별로던데	-15842
▁보았어요	-15843
▁볼만했던	-15844
▁빠져들어	-15845
▁성냥팔이	-15846
▁시각으로	-15847
▁시끄럽고	-15848
▁시원시원	-15849
▁시점에서	-15850
▁아깝다고	-15851
▁아련하고	-15852
▁안무섭고	-15853
▁애들한테	-15854
▁어쩌라는	-15855
▁억지스럽	-15856
▁없으면서	-15857
▁영화에는	-15858
▁예상되는	-15859
▁완벽했다	-15860
▁웃기기도	-15861
▁유머러스	-15862
▁이럴수가	-15863
▁있는건지	-15864
▁있었다면	-15865
▁자막으로	-15866
▁잘생겼다	-15867
▁재밌으면	-15868
▁저질영화	-15869
▁제목으로	-15870
▁좋았을걸	-15871
▁짜증났음	-15872
▁팬이지만	-15873
▁해주네요	-15874
▁현실감이	-15875
▁후반부는	-15876
▁후회된다	-15877
▁가족드라마	-15878
▁괜찮았지만	-15879
▁누구에게나	-15880
▁등장인물들	-15881
▁떨어지네요	-15882
▁생각됩니다	-15883
▁소름돋았다	-15884
▁스토리까지	-15885
▁시리즈중에	-15886
▁아름답네요	-15887
▁안드로메다	-15888
▁이런드라마	-15889
▁일본영화가	-15890
▁잘어울리는	-15891
▁재미더럽게	-15892
▁제시카알바	-15893
▁처음이었다	-15894
▁평론가들이	-15895
▁포스터보고	-15896
▁하이라이트	-15897
▁기대안했는데	-15898
▁모르겠습니다	-15899
▁재미없었어요	-15900
▁하나만으로도	-15901
oooooooo	-15902
▁좋은영화입니다	-15903
♥♥♥♥♥♥♥♥	-15904
;;;;;;;;;;;;;;;;	-15905
▁ᄏᄏᄏᄏᄏᄏᄏᄏᄏᄏᄏᄏᄏᄏᄏ	-15906
/3	-15907
~.	-15908
~^	-15909
▁Z	-15910
▁ᄎ	-15911
▁뉘	-15912
▁둥	-15913
▁득	-15914
▁랜	-15915
▁료	-15916
▁샬	-15917
▁샹	-15918
▁솟	-15919
▁촉	-15920
▁훅	-15921
▁휩	-15922
가기	-15923
가물	-15924
거짓	-15925
겠니	-15926
고리	-15927
과연	-15928
관념	-15929
관심	-15930
구멍	-15931
귀가	-15932
그릇	-15933
김기	-15934
깊이	-15935
남친	-15936
났네	-15937
네스	-15938
노동	-15939
느낄	-15940
님과	-15941
댄스	-15942
동의	-15943
돼서	-15944
되니	-15945
되야	-15946
드류	-15947
디다	-15948
딱지	-15949
뜬금	-15950
란의	-15951
랄라	-15952
력의	-15953
렸을	-15954
로게	-15955
마를	-15956
만남	-15957
말투	-15958
먹기	-15959
먹음	-15960
모델	-15961
모어	-15962
무술	-15963
바퀴	-15964
방울	-15965
백만	-15966
벌써	-15967
별이	-15968
부들	-15969
분간	-15970
분열	-15971
불패	-15972
빵빵	-15973
사장	-15974
사투	-15975
상업	-15976
성격	-15977
소문	-15978
시각	-15979
신사	-15980
싶음	-15981
쓸데	-15982
양은	-15983
여성	-15984
연씨	-15985
영혼	-15986
예쁜	-15987
오바	-15988
왜케	-15989
운다	-15990
위는	-15991
으시	-15992
자본	-15993
잘안	-15994
젊은	-15995
조용	-15996
좀더	-15997
주혁	-15998
죽은	-15999
줄도	-16000
즈업	-16001
지던	-16002
지상	-16003
질에	-16004
체류	-16005
출신	-16006
칠이	-16007
카드	-16008
코난	-16009
크게	-16010
타인	-16011
태가	-16012
터클	-16013
통이	-16014
피디	-16015
하도	-16016
해줌	-16017
행동	-16018
황후	-16019
히지	-16020
!""	-16021
--;	-16022
her	-16023
▁do	-16024
▁go	-16025
▁ᄉᄉ	-16026
▁가요	-16027
▁갖추	-16028
▁개쩔	-16029
▁결제	-16030
▁공식	-16031
▁귀한	-16032
▁김대	-16033
▁깨우	-16034
▁나네	-16035
▁남상	-16036
▁낯설	-16037
▁넣고	-16038
▁놀아	-16039
▁당할	-16040
▁대구	-16041
▁대만	-16042
▁도로	-16043
▁뒤집	-16044
▁똥망	-16045
▁러닝	-16046
▁만듦	-16047
▁매니	-16048
▁멍때	-16049
▁못찾	-16050
▁물리	-16051
▁미남	-16052
▁바둑	-16053
▁박물	-16054
▁배고	-16055
▁병원	-16056
▁비급	-16057
▁비둘	-16058
▁비포	-16059
▁뻔해	-16060
▁사골	-16061
▁서글	-16062
▁세븐	-16063
▁소속	-16064
▁솔찍	-16065
▁스콜	-16066
▁아끼	-16067
▁알앗	-16068
▁양키	-16069
▁얼어	-16070
▁여군	-16071
▁연령	-16072
▁옮겨	-16073
▁용감	-16074
▁용의	-16075
▁울려	-16076
▁유기	-16077
▁육체	-16078
▁으악	-16079
▁이글	-16080
▁인위	-16081
▁자가	-16082
▁잘짜	-16083
▁잡지	-16084
▁잭슨	-16085
▁잼남	-16086
▁저만	-16087
▁저번	-16088
▁정성	-16089
▁조건	-16090
▁주식	-16091
▁주인	-16092
▁죽지	-16093
▁준수	-16094
▁줬어	-16095
▁집합	-16096
▁짓게	-16097
▁짓을	-16098
▁차갑	-16099
▁참내	-16100
▁최선	-16101
▁케미	-16102
▁크라	-16103
▁타는	-16104
▁탐욕	-16105
▁폰부	-16106
▁프랑	-16107
▁해병	-16108
▁향기	-16109
▁헐크	-16110
▁형성	-16111
▁형식	-16112
▁확신	-16113
감정이	-16114
거라곤	-16115
결말은	-16116
그렇다	-16117
나보네	-16118
내인생	-16119
느낌의	-16120
되는지	-16121
되었던	-16122
래이션	-16123
멋있다	-16124
모로우	-16125
미니즘	-16126
보다더	-16127
시켰다	-16128
씁니다	-16129
아이들	-16130
안나옴	-16131
여자의	-16132
영화들	-16133
영화와	-16134
오피스	-16135
이구나	-16136
이네여	-16137
인건지	-16138
인이다	-16139
일텐데	-16140
작품을	-16141
잘어울	-16142
준영화	-16143
지마요	-16144
질질끌	-16145
충분히	-16146
칩니다	-16147
하구요	-16148
하도록	-16149
하셔서	-16150
해줬다	-16151
회에서	-16152
3456	-16153
▁0.1	-16154
▁Bad	-16155
▁but	-16156
▁for	-16157
▁not	-16158
▁각본을	-16159
▁갑이다	-16160
▁같았음	-16161
▁같으니	-16162
▁개그는	-16163
▁걸작을	-16164
▁것보다	-16165
▁결혼식	-16166
▁경쾌한	-16167
▁고마워	-16168
▁고스트	-16169
▁공포감	-16170
▁공효진	-16171
▁과언이	-16172
▁교도소	-16173
▁군대가	-16174
▁그런걸	-16175
▁나쁘다	-16176
▁나서도	-16177
▁나았을	-16178
▁나온건	-16179
▁나이를	-16180
▁나지만	-16181
▁나타난	-16182
▁낚였어	-16183
▁남동생	-16184
▁남들이	-16185
▁노다메	-16186
▁놓치지	-16187
▁다있냐	-16188
▁다있어	-16189
▁댓글에	-16190
▁들어요	-16191
▁들었던	-16192
▁들여다	-16193
▁디자인	-16194
▁따스한	-16195
▁때로는	-16196
▁류덕환	-16197
▁리차드	-16198
▁많이들	-16199
▁말처럼	-16200
▁맞나요	-16201
▁몸매는	-16202
▁못보겠	-16203
▁못하면	-16204
▁민주화	-16205
▁바뀌는	-16206
▁베를린	-16207
▁보지않	-16208
▁부모가	-16209
▁부족해	-16210
▁사는게	-16211
▁색다르	-16212
▁성장기	-16213
▁세기의	-16214
▁슬픔과	-16215
▁신은경	-16216
▁심금을	-16217
▁아이는	-16218
▁안만들	-16219
▁알려진	-16220
▁앨리스	-16221
▁엔딩도	-16222
▁여자랑	-16223
▁역사와	-16224
▁영화보	-16225
▁예술적	-16226
▁오늘의	-16227
▁오랫만	-16228
▁올리기	-16229
▁우리와	-16230
▁우리집	-16231
▁울린다	-16232
▁워싱턴	-16233
▁위안부	-16234
▁유오성	-16235
▁의지가	-16236
▁이런류	-16237
▁이렇다	-16238
▁이렇지	-16239
▁이름도	-16240
▁이민정	-16241
▁이민호	-16242
▁이수근	-16243
▁이용한	-16244
▁이제껏	-16245
▁이지만	-16246
▁인디언	-16247
▁있는건	-16248
▁자리를	-16249
▁자식을	-16250
▁자전거	-16251
▁자존심	-16252
▁저에게	-16253
▁전작을	-16254
▁전체를	-16255
▁정점을	-16256
▁제외한	-16257
▁조금더	-16258
▁조화가	-16259
▁졸작을	-16260
▁주지훈	-16261
▁지나고	-16262
▁지나면	-16263
▁지상파	-16264
▁지진희	-16265
▁짓거리	-16266
▁짱짱짱	-16267
▁찌질이	-16268
▁찍어서	-16269
▁찍으면	-16270
▁초월한	-16271
▁총으로	-16272
▁출연료	-16273
▁킹왕짱	-16274
▁탕웨이	-16275
▁평가는	-16276
▁풍기는	-16277
▁하나씩	-16278
▁하더라	-16279
▁하품만	-16280
▁학생들	-16281
▁함께한	-16282
▁해야할	-16283
▁호러물	-16284
▁화면에	-16285
▁힘들고	-16286
떨어지고	-16287
배우들은	-16288
보지마셈	-16289
스러움이	-16290
영화라는	-16291
영화로는	-16292
영화인지	-16293
왠만하면	-16294
을수없는	-16295
이정도면	-16296
좋겠어요	-16297
좋았는데	-16298
지금봐도	-16299
지못하고	-16300
짜증나서	-16301
한영화다	-16302
해야한다	-16303
-_-;;	-16304
..;;;	-16305
▁this	-16306
▁감안하고	-16307
▁감정표현	-16308
▁귀엽네요	-16309
▁그대로의	-16310
▁그러는데	-16311
▁극장판이	-16312
▁나뿐인가	-16313
▁나오는건	-16314
▁나오니까	-16315
▁나올법한	-16316
▁나이먹고	-16317
▁남자친구	-16318
▁내용이라	-16319
▁내인생에	-16320
▁내취향은	-16321
▁너무했다	-16322
▁넘어가는	-16323
▁놀랍네요	-16324
▁눈물나게	-16325
▁다르지만	-16326
▁담겨있는	-16327
▁당시에도	-16328
▁대단하고	-16329
▁레즈비언	-16330
▁마지막을	-16331
▁만든거지	-16332
▁만큼이나	-16333
▁바이올린	-16334
▁방황하는	-16335
▁별로라고	-16336
▁보는건지	-16337
▁봤던영화	-16338
▁봤을때는	-16339
▁부분들이	-16340
▁부족함이	-16341
▁불법체류	-16342
▁블루레이	-16343
▁비교된다	-16344
▁비디오용	-16345
▁사라지는	-16346
▁사람에겐	-16347
▁생각되는	-16348
▁생각없는	-16349
▁설득력이	-16350
▁섹시하고	-16351
▁순간순간	-16352
▁순수하게	-16353
▁순수함이	-16354
▁슬펐어요	-16355
▁시간때우	-16356
▁시덥잖은	-16357
▁시시하고	-16358
▁시어머니	-16359
▁시작된다	-16360
▁신기하고	-16361
▁씁쓸하다	-16362
▁알고싶다	-16363
▁알수있다	-16364
▁어거지로	-16365
▁어느하나	-16366
▁어렷을때	-16367
▁어른들을	-16368
▁어우러져	-16369
▁여자애가	-16370
▁연기들이	-16371
▁영화군요	-16372
▁영화로만	-16373
▁올라갈때	-16374
▁올리비아	-16375
▁유치하지	-16376
▁이거밖에	-16377
▁이때부터	-16378
▁이영화도	-16379
▁이해안감	-16380
▁있었네요	-16381
▁있었다는	-16382
▁잘하시고	-16383
▁재밌더라	-16384
▁저버리지	-16385
▁전달하는	-16386
▁정신없는	-16387
▁정체성을	-16388
▁조연들의	-16389
▁종교적인	-16390
▁좋겠는데	-16391
▁중요하다	-16392
▁지루한건	-16393
▁질질끄는	-16394
▁추천하는	-16395
▁친구한테	-16396
▁코미디와	-16397
▁쿵푸팬더	-16398
▁평점으로	-16399
▁할말없다	-16400
▁할수있는	-16401
뻔한스토리	-16402
영화보면서	-16403
재밌습니다	-16404
최고입니다	-16405
ᅲᅲᅲᅲᅲᅲ	-16406
▁다섯손가락	-16407
▁다시보고싶	-16408
▁드라마지만	-16409
▁만들어놓고	-16410
▁만들어주는	-16411
▁무엇보다도	-16412
▁보고나서도	-16413
▁사람으로써	-16414
▁생각한다면	-16415
▁소름끼치게	-16416
▁시사회에서	-16417
▁재미없어도	-16418
▁중반까지는	-16419
▁카리스마가	-16420
▁테러리스트	-16421
▁한국영화를	-16422
▁한국영화에	-16423
▁한국영화중	-16424
나다라마바사	-16425
▁기대이상으로	-16426
▁보게되었는데	-16427
▁어처구니없는	-16428
▁킬링타임으로	-16429
▁흥미진진하다	-16430
99999999	-16431
▁기대하고봤는데	-16432
▁평점조절위원회	-16433
▁시간가는줄모르고	-16434
-)	-16435
-1	-16436
.<	-16437
/2	-16438
~♡	-16439
▁@	-16440
▁괘	-16441
▁깬	-16442
▁딜	-16443
▁밨	-16444
▁삘	-16445
▁쌀	-16446
▁썅	-16447
▁씻	-16448
▁젬	-16449
▁큼	-16450
▁탔	-16451
▁톤	-16452
▁휼	-16453
강력	-16454
거가	-16455
거고	-16456
것과	-16457
고의	-16458
공을	-16459
과거	-16460
관의	-16461
광이	-16462
그로	-16463
끈다	-16464
끈한	-16465
나은	-16466
날뻔	-16467
넬로	-16468
노소	-16469
니는	-16470
다섯	-16471
단계	-16472
당함	-16473
더가	-16474
될지	-16475
두환	-16476
듣는	-16477
들게	-16478
따로	-16479
라며	-16480
란드	-16481
람쥐	-16482
렴풋	-16483
로움	-16484
리냐	-16485
림의	-16486
망신	-16487
목을	-16488
묘사	-16489
무한	-16490
미야	-16491
미지	-16492
버젼	-16493
법을	-16494
벗고	-16495
베일	-16496
보려	-16497
보인	-16498
봣던	-16499
불편	-16500
비씨	-16501
빙빙	-16502
산을	-16503
생긴	-16504
서를	-16505
서사	-16506
세연	-16507
세영	-16508
세의	-16509
시코	-16510
아닙	-16511
안볼	-16512
애의	-16513
에의	-16514
여왕	-16515
열에	-16516
였죠	-16517
예모	-16518
오를	-16519
올림	-16520
용을	-16521
우며	-16522
으루	-16523
이정	-16524
이치	-16525
재석	-16526
저의	-16527
정아	-16528
조치	-16529
지좀	-16530
진모	-16531
질뻔	-16532
짧은	-16533
채영	-16534
천히	-16535
치며	-16536
키드	-16537
태어	-16538
토의	-16539
통을	-16540
툭튀	-16541
티티	-16542
파일	-16543
폭탄	-16544
표절	-16545
한숨	-16546
향을	-16547
호크	-16548
흘러	-16549
OOD	-16550
ime	-16551
ᄒᄃᄃ	-16552
▁SM	-16553
▁on	-16554
▁갈망	-16555
▁강동	-16556
▁강수	-16557
▁갖는	-16558
▁같애	-16559
▁걸고	-16560
▁공동	-16561
▁교감	-16562
▁구석	-16563
▁기름	-16564
▁김두	-16565
▁김준	-16566
▁꾸며	-16567
▁나게	-16568
▁너의	-16569
▁넘나	-16570
▁년이	-16571
▁놀랬	-16572
▁높여	-16573
▁느려	-16574
▁늦은	-16575
▁닮아	-16576
▁답습	-16577
▁답을	-16578
▁대로	-16579
▁대세	-16580
▁더해	-16581
▁돈에	-16582
▁동경	-16583
▁되네	-16584
▁될지	-16585
▁등을	-16586
▁디게	-16587
▁딴거	-16588
▁루이	-16589
▁면을	-16590
▁몇명	-16591
▁모리	-16592
▁모지	-16593
▁목을	-16594
▁못잡	-16595
▁무당	-16596
▁무모	-16597
▁무자	-16598
▁묵직	-16599
▁뭘본	-16600
▁밍밍	-16601
▁반의	-16602
▁백번	-16603
▁비약	-16604
▁빠졌	-16605
▁사연	-16606
▁사운	-16607
▁상쾌	-16608
▁생길	-16609
▁서지	-16610
▁세기	-16611
▁수단	-16612
▁식당	-16613
▁신발	-16614
▁아포	-16615
▁안할	-16616
▁안함	-16617
▁애쓰	-16618
▁애쓴	-16619
▁없죠	-16620
▁에혀	-16621
▁여긴	-16622
▁오정	-16623
▁오죽	-16624
▁올인	-16625
▁울음	-16626
▁위기	-16627
▁유준	-16628
▁유희	-16629
▁윤재	-16630
▁윤진	-16631
▁이브	-16632
▁일대	-16633
▁일도	-16634
▁자녀	-16635
▁자매	-16636
▁자폐	-16637
▁잡다	-16638
▁장담	-16639
▁재활	-16640
▁잼게	-16641
▁잼써	-16642
▁잼이	-16643
▁적인	-16644
▁전용	-16645
▁조미	-16646
▁조악	-16647
▁좁은	-16648
▁종말	-16649
▁주려	-16650
▁주민	-16651
▁죽임	-16652
▁지연	-16653
▁지쳐	-16654
▁직원	-16655
▁짐작	-16656
▁집안	-16657
▁쫓아	-16658
▁찐한	-16659
▁차기	-16660
▁청소	-16661
▁축하	-16662
▁치중	-16663
▁캡틴	-16664
▁킬빌	-16665
▁타워	-16666
▁톡톡	-16667
▁퇴마	-16668
▁틀에	-16669
▁편향	-16670
▁포커	-16671
▁한층	-16672
▁함축	-16673
▁허우	-16674
▁형이	-16675
▁홍경	-16676
▁후후	-16677
▁훌쩍	-16678
▁휼륭	-16679
가야지	-16680
가에서	-16681
같다는	-16682
거같은	-16683
것들은	-16684
겟지만	-16685
관계를	-16686
괜찮은	-16687
귀여운	-16688
귀엽다	-16689
그래요	-16690
기대를	-16691
나왔다	-16692
났네요	-16693
는지는	-16694
다시는	-16695
대단한	-16696
더라는	-16697
도좋고	-16698
되다니	-16699
들처럼	-16700
라고는	-16701
라는건	-16702
랐는데	-16703
머리가	-16704
박자가	-16705
배우는	-16706
보기로	-16707
보여서	-16708
부리는	-16709
부에서	-16710
분까지	-16711
살면서	-16712
시간의	-16713
시하는	-16714
아프고	-16715
애들도	-16716
었다니	-16717
었으나	-16718
오그라	-16719
유치한	-16720
을정도	-16721
이구만	-16722
주의의	-16723
진부한	-16724
짜증남	-16725
짱짱맨	-16726
편이랑	-16727
프스키	-16728
하는걸	-16729
해버린	-16730
했어야	-16731
▁1~2	-16732
▁^-^	-16733
▁^^*	-16734
▁bgm	-16735
▁bor	-16736
▁가볍지	-16737
▁가족들	-16738
▁가족에	-16739
▁갈리는	-16740
▁감독에	-16741
▁감정과	-16742
▁강우석	-16743
▁개고생	-16744
▁개허접	-16745
▁거의다	-16746
▁결말로	-16747
▁결말의	-16748
▁결혼을	-16749
▁경험이	-16750
▁굿바이	-16751
▁귀엽게	-16752
▁그런게	-16753
▁그림도	-16754
▁그보다	-16755
▁그사람	-16756
▁기묘한	-16757
▁김정은	-16758
▁김창완	-16759
▁꺼버린	-16760
▁나탈리	-16761
▁남아요	-16762
▁느껴야	-16763
▁달라서	-16764
▁담아내	-16765
▁데이트	-16766
▁된장녀	-16767
▁따라올	-16768
▁마디로	-16769
▁만든듯	-16770
▁말기를	-16771
▁말하기	-16772
▁망하는	-16773
▁망했다	-16774
▁맞먹는	-16775
▁모두의	-16776
▁몰입할	-16777
▁몸매가	-16778
▁못알아	-16779
▁무고한	-16780
▁무능력	-16781
▁무슨죄	-16782
▁문제다	-16783
▁뭐이런	-16784
▁뭔지도	-16785
▁바치는	-16786
▁배슬기	-16787
▁배역이	-16788
▁범죄를	-16789
▁보려면	-16790
▁복수는	-16791
▁본인은	-16792
▁볼때는	-16793
▁봤건만	-16794
▁불면증	-16795
▁브로디	-16796
▁비극을	-16797
▁비운의	-16798
▁비참한	-16799
▁설레고	-16800
▁속으로	-16801
▁스러운	-16802
▁아프게	-16803
▁안되냐	-16804
▁알면서	-16805
▁알았지	-16806
▁알지만	-16807
▁애니의	-16808
▁어렴풋	-16809
▁어른을	-16810
▁여진구	-16811
▁역사가	-16812
▁영웅이	-16813
▁영환지	-16814
▁예술로	-16815
▁예술이	-16816
▁오마쥬	-16817
▁올해의	-16818
▁욕망을	-16819
▁울트라	-16820
▁웅장한	-16821
▁유익한	-16822
▁의리로	-16823
▁이보단	-16824
▁이상형	-16825
▁이어서	-16826
▁일본을	-16827
▁있을지	-16828
▁있음을	-16829
▁자격이	-16830
▁자체다	-16831
▁잘하시	-16832
▁재미에	-16833
▁재미짐	-16834
▁저렴한	-16835
▁전개로	-16836
▁절실히	-16837
▁정서가	-16838
▁정준호	-16839
▁정체가	-16840
▁정확한	-16841
▁조인성	-16842
▁존쿠삭	-16843
▁존트라	-16844
▁종교를	-16845
▁지금에	-16846
▁지르고	-16847
▁진부함	-16848
▁진실된	-16849
▁짜증을	-16850
▁찝찝함	-16851
▁채민서	-16852
▁최고야	-16853
▁최악인	-16854
▁치밀어	-16855
▁케로로	-16856
▁키드먼	-16857
▁토마스	-16858
▁팬이라	-16859
▁평점과	-16860
▁포스트	-16861
▁피노키	-16862
▁필요도	-16863
▁하는짓	-16864
▁하여튼	-16865
▁현재를	-16866
▁형제의	-16867
▁호흡이	-16868
▁희생을	-16869
▁히스레	-16870
▁힘들듯	-16871
나오는데	-16872
드라마다	-16873
명작이다	-16874
수준이다	-16875
시리즈의	-16876
영화라니	-16877
왜이렇게	-16878
유치하고	-16879
입장에서	-16880
지지않는	-16881
하는건데	-16882
해보이는	-16883
?....	-16884
▁1990	-16885
▁1998	-16886
▁1999	-16887
▁9~10	-16888
▁가슴속에	-16889
▁거기다가	-16890
▁견자단이	-16891
▁골때리는	-16892
▁공간에서	-16893
▁관객들을	-16894
▁괜찮다고	-16895
▁괜찮을듯	-16896
▁그랬지만	-16897
▁그이하도	-16898
▁깊이있는	-16899
▁꾸역꾸역	-16900
▁끝났으면	-16901
▁나오겠지	-16902
▁나한테는	-16903
▁너무한거	-16904
▁담백하게	-16905
▁답답하게	-16906
▁대리만족	-16907
▁대부분이	-16908
▁돈아깝고	-16909
▁동생이랑	-16910
▁되었어요	-16911
▁되었으면	-16912
▁두번이나	-16913
▁들었어요	-16914
▁떨어져서	-16915
▁또보고싶	-16916
▁마녀사냥	-16917
▁말해준다	-16918
▁맘에든다	-16919
▁맞지않는	-16920
▁머리속에	-16921
▁모습에서	-16922
▁모자이크	-16923
▁무서워요	-16924
▁미화시킨	-16925
▁보셨으면	-16926
▁보여지는	-16927
▁비슷하다	-16928
▁비슷해서	-16929
▁빠짐없이	-16930
▁서정적인	-16931
▁성지순례	-16932
▁수준으로	-16933
▁슈퍼액션	-16934
▁시시하다	-16935
▁신선했고	-16936
▁쓰잘데기	-16937
▁아쉬웠던	-16938
▁아주그냥	-16939
▁않았어요	-16940
▁액션씬은	-16941
▁야한장면	-16942
▁어렸을땐	-16943
▁어색하지	-16944
▁연쇄살인	-16945
▁영화라도	-16946
▁영화사에	-16947
▁영화제작	-16948
▁예고편을	-16949
▁오리지날	-16950
▁원한다면	-16951
▁위대하다	-16952
▁이것밖에	-16953
▁이렇게나	-16954
▁이번에도	-16955
▁이제그만	-16956
▁인간들의	-16957
▁인피니트	-16958
▁일어나서	-16959
▁있는거지	-16960
▁자신에게	-16961
▁작품성도	-16962
▁잔인하다	-16963
▁재밋던데	-16964
▁제작진은	-16965
▁좋은작품	-16966
▁주구장창	-16967
▁중간까지	-16968
▁중학생때	-16969
▁지나가는	-16970
▁지루한데	-16971
▁촌스럽다	-16972
▁최악으로	-16973
▁치밀하고	-16974
▁친구에게	-16975
▁팬으로서	-16976
▁평점조작	-16977
▁하는영화	-16978
▁행복하다	-16979
감동적이다	-16980
본영화중에	-16981
이런영화를	-16982
▁결정적으로	-16983
▁그로테스크	-16984
▁기대되네요	-16985
▁마지막에는	-16986
▁만들어버린	-16987
▁보고싶어서	-16988
▁볼수있어서	-16989
▁스티븐시걸	-16990
▁쓰레기통에	-16991
▁아기자기한	-16992
▁아니었는데	-16993
▁아름다워요	-16994
▁액션영화가	-16995
▁연기때문에	-16996
▁연기력으로	-16997
▁영화인가요	-16998
▁영화임에도	-16999
▁유치하다고	-17000
▁인상깊었던	-17001
▁전달하려는	-17002
▁짜증나네요	-17003
▁찾아봤는데	-17004
▁최악이네요	-17005
▁한쿡영화의	-17006
▁허무맹랑한	-17007
▁흘러나오는	-17008
▁보고있습니다	-17009
▁처음부터끝까지	-17010
!!!!!!!!!!!!!!	-17011
?(	-17012
PD	-17013
bl	-17014
ke	-17015
ᄂᄂ	-17016
▁“	-17017
▁깃	-17018
▁꼼	-17019
▁뱉	-17020
▁쎄	-17021
▁쑤	-17022
▁씩	-17023
▁엣	-17024
▁즈	-17025
▁짭	-17026
▁쯧	-17027
▁쳤	-17028
▁칙	-17029
▁틸	-17030
▁펠	-17031
▁햄	-17032
가까	-17033
감만	-17034
강의	-17035
걸륜	-17036
것네	-17037
겄다	-17038
곡이	-17039
광록	-17040
궁창	-17041
그럴	-17042
글구	-17043
기본	-17044
꼬박	-17045
꿈을	-17046
날듯	-17047
다나	-17048
다행	-17049
데드	-17050
되기	-17051
듣기	-17052
디아	-17053
련다	-17054
로소	-17055
리자	-17056
마무	-17057
마부	-17058
맞게	-17059
먹먹	-17060
모독	-17061
민씨	-17062
반의	-17063
본능	-17064
본데	-17065
볼걸	-17066
부른	-17067
부짖	-17068
분쯤	-17069
살의	-17070
성만	-17071
성재	-17072
성형	-17073
세끼	-17074
소라	-17075
슬펐	-17076
시시	-17077
십쇼	-17078
싱어	-17079
악당	-17080
안감	-17081
안한	-17082
애는	-17083
앵글	-17084
어제	-17085
었군	-17086
연결	-17087
오와	-17088
올드	-17089
와닿	-17090
와우	-17091
왕의	-17092
왕자	-17093
우를	-17094
으실	-17095
이병	-17096
이쁜	-17097
이서	-17098
인터	-17099
자한	-17100
잼잼	-17101
조리	-17102
조심	-17103
조작	-17104
존스	-17105
좋을	-17106
주냐	-17107
죽이	-17108
준비	-17109
진웅	-17110
질로	-17111
쨌든	-17112
카타	-17113
칼립	-17114
컨셉	-17115
콩콩	-17116
크에	-17117
태를	-17118
테고	-17119
통해	-17120
튼의	-17121
평해	-17122
풍경	-17123
프라	-17124
프의	-17125
피언	-17126
하심	-17127
학대	-17128
할말	-17129
혹한	-17130
ang	-17131
ive	-17132
▁94	-17133
▁It	-17134
▁Th	-17135
▁ch	-17136
▁tr	-17137
▁we	-17138
▁가려	-17139
▁가질	-17140
▁강남	-17141
▁개미	-17142
▁개척	-17143
▁거참	-17144
▁거칠	-17145
▁걷는	-17146
▁걸려	-17147
▁검사	-17148
▁고난	-17149
▁곤란	-17150
▁과도	-17151
▁관찰	-17152
▁괴기	-17153
▁괴리	-17154
▁교양	-17155
▁구린	-17156
▁길어	-17157
▁김아	-17158
▁낚여	-17159
▁남았	-17160
▁눈시	-17161
▁늙어	-17162
▁다다	-17163
▁다뤄	-17164
▁다뤘	-17165
▁다코	-17166
▁대니	-17167
▁덮어	-17168
▁땜시	-17169
▁떠들	-17170
▁똥꼬	-17171
▁많았	-17172
▁말것	-17173
▁말론	-17174
▁맑은	-17175
▁망침	-17176
▁모범	-17177
▁목표	-17178
▁무명	-17179
▁무신	-17180
▁물결	-17181
▁미지	-17182
▁민간	-17183
▁반미	-17184
▁받쳐	-17185
▁배낀	-17186
▁법을	-17187
▁보낸	-17188
▁보삼	-17189
▁붕괴	-17190
▁빌린	-17191
▁산뜻	-17192
▁삼천	-17193
▁상승	-17194
▁선한	-17195
▁세뇌	-17196
▁수상	-17197
▁수천	-17198
▁스웨	-17199
▁스쳐	-17200
▁슬슬	-17201
▁심함	-17202
▁쓰래	-17203
▁쓸모	-17204
▁아낌	-17205
▁아트	-17206
▁안재	-17207
▁애청	-17208
▁엇갈	-17209
▁에단	-17210
▁여인	-17211
▁열어	-17212
▁오른	-17213
▁오컬	-17214
▁올림	-17215
▁왤캐	-17216
▁우웩	-17217
▁울림	-17218
▁울뻔	-17219
▁유우	-17220
▁유인	-17221
▁유진	-17222
▁은희	-17223
▁음란	-17224
▁이면	-17225
▁이빨	-17226
▁이안	-17227
▁입에	-17228
▁입이	-17229
▁잡탕	-17230
▁잤음	-17231
▁장군	-17232
▁장수	-17233
▁저랑	-17234
▁정권	-17235
▁정지	-17236
▁제격	-17237
▁제길	-17238
▁제인	-17239
▁종이	-17240
▁주요	-17241
▁주위	-17242
▁지긋	-17243
▁지역	-17244
▁진다	-17245
▁찬란	-17246
▁창문	-17247
▁책읽	-17248
▁처리	-17249
▁춤추	-17250
▁취권	-17251
▁치킨	-17252
▁클릭	-17253
▁팬들	-17254
▁푹빠	-17255
▁하길	-17256
▁할것	-17257
▁헌신	-17258
▁황진	-17259
▁회복	-17260
같은건	-17261
개드림	-17262
거같네	-17263
거기다	-17264
게없다	-17265
구성이	-17266
기면서	-17267
나가고	-17268
더이다	-17269
됐으면	-17270
되지만	-17271
들여서	-17272
레쉬맨	-17273
레스트	-17274
레이터	-17275
력으로	-17276
렸다는	-17277
말인지	-17278
모든게	-17279
베이터	-17280
보비치	-17281
셨는데	-17282
시디어	-17283
심하게	-17284
아쉬운	-17285
안본다	-17286
얘기가	-17287
어디가	-17288
어설픈	-17289
어지고	-17290
얼굴이	-17291
에비해	-17292
였을까	-17293
영화만	-17294
영화지	-17295
으리라	-17296
음에도	-17297
이나는	-17298
익스피	-17299
인에게	-17300
잘만든	-17301
전문가	-17302
통으로	-17303
투성이	-17304
페이스	-17305
하겠네	-17306
해보는	-17307
했던거	-17308
했으니	-17309
화까지	-17310
^^;;	-17311
reat	-17312
▁cgv	-17313
▁top	-17314
▁ᄋᄋᄋ	-17315
▁가문의	-17316
▁감동먹	-17317
▁감정은	-17318
▁같은거	-17319
▁거시기	-17320
▁건가요	-17321
▁겁나게	-17322
▁것같다	-17323
▁결과가	-17324
▁경험을	-17325
▁고민을	-17326
▁고질라	-17327
▁공감대	-17328
▁교훈은	-17329
▁그것뿐	-17330
▁그놈의	-17331
▁그리움	-17332
▁그토록	-17333
▁기준이	-17334
▁길거리	-17335
▁김옥빈	-17336
▁김윤석	-17337
▁깎아내	-17338
▁꼴보기	-17339
▁끝가지	-17340
▁나오긴	-17341
▁난잡한	-17342
▁남자인	-17343
▁내일이	-17344
▁노출은	-17345
▁놀라게	-17346
▁눈물은	-17347
▁다른데	-17348
▁다섯개	-17349
▁다음날	-17350
▁다이빙	-17351
▁다큐는	-17352
▁담담한	-17353
▁답없다	-17354
▁덤으로	-17355
▁동물의	-17356
▁됐어요	-17357
▁되었던	-17358
▁두말할	-17359
▁따지면	-17360
▁똑같네	-17361
▁루즈한	-17362
▁류승룡	-17363
▁마모루	-17364
▁만나면	-17365
▁만났다	-17366
▁만들자	-17367
▁말던가	-17368
▁말라고	-17369
▁맘에들	-17370
▁매끄럽	-17371
▁모르면	-17372
▁못보는	-17373
▁못했음	-17374
▁문소리	-17375
▁문화적	-17376
▁물체가	-17377
▁미화한	-17378
▁밑바닥	-17379
▁배역을	-17380
▁배우나	-17381
▁별론데	-17382
▁보는지	-17383
▁본거지	-17384
▁본인의	-17385
▁봐야될	-17386
▁봣어요	-17387
▁비교를	-17388
▁빠르기	-17389
▁사람에	-17390
▁삶이란	-17391
▁새끼들	-17392
▁생기는	-17393
▁서인국	-17394
▁성룡은	-17395
▁성우들	-17396
▁세계가	-17397
▁숭고한	-17398
▁스릴과	-17399
▁스토커	-17400
▁슬펐던	-17401
▁시작해	-17402
▁싫어요	-17403
▁싱거운	-17404
▁아니란	-17405
▁아빠를	-17406
▁안나온	-17407
▁안나와	-17408
▁앉아서	-17409
▁알았어	-17410
▁암유발	-17411
▁애정이	-17412
▁야하다	-17413
▁어른도	-17414
▁없군요	-17415
▁없었나	-17416
▁없을것	-17417
▁엉망이	-17418
▁여기선	-17419
▁역겨워	-17420
▁연극을	-17421
▁열정과	-17422
▁옛날엔	-17423
▁욕나올	-17424
▁유승준	-17425
▁음모론	-17426
▁의도로	-17427
▁이름은	-17428
▁인간과	-17429
▁있었을	-17430
▁적당함	-17431
▁전기세	-17432
▁전하는	-17433
▁절묘한	-17434
▁제작자	-17435
▁좀비가	-17436
▁좋던데	-17437
▁주연급	-17438
▁죽겠다	-17439
▁집중을	-17440
▁짜맞춘	-17441
▁짠하다	-17442
▁쪽바리	-17443
▁차이를	-17444
▁착하고	-17445
▁초대박	-17446
▁초딩용	-17447
▁최강희	-17448
▁추억은	-17449
▁친구의	-17450
▁케서방	-17451
▁크레이	-17452
▁타임머	-17453
▁톱스타	-17454
▁편집도	-17455
▁편집을	-17456
▁평점높	-17457
▁표현의	-17458
▁풍경이	-17459
▁하겠다	-17460
▁하우스	-17461
▁할려고	-17462
▁허니잼	-17463
▁현실적	-17464
▁화나는	-17465
같습니다	-17466
다시한번	-17467
들때문에	-17468
등장인물	-17469
때문인지	-17470
사부일체	-17471
스트레스	-17472
아주아주	-17473
재미있어	-17474
줄알았음	-17475
지는영화	-17476
편보다는	-17477
하겠는데	-17478
해야하는	-17479
▁Best	-17480
▁GOOD	-17481
▁가족들과	-17482
▁감독이다	-17483
▁공감하고	-17484
▁관객들의	-17485
▁그려냈다	-17486
▁기대하는	-17487
▁기억으로	-17488
▁깜짝깜짝	-17489
▁나옵니다	-17490
▁난잡하고	-17491
▁내용없는	-17492
▁냉정하게	-17493
▁노력하는	-17494
▁단편영화	-17495
▁데려다가	-17496
▁돈아까운	-17497
▁동성애를	-17498
▁떨어졌다	-17499
▁또하나의	-17500
▁뛰어나고	-17501
▁로맨스는	-17502
▁리암니슨	-17503
▁만들던가	-17504
▁만들려면	-17505
▁매력있다	-17506
▁매혹적인	-17507
▁멋있어서	-17508
▁모르겠는	-17509
▁몰입감도	-17510
▁미친영화	-17511
▁별로에요	-17512
▁보기전에	-17513
▁보다보니	-17514
▁보여주기	-17515
▁부담없이	-17516
▁부족했던	-17517
▁분들에게	-17518
▁불쌍하고	-17519
▁비교해서	-17520
▁사랑이다	-17521
▁살아가고	-17522
▁상태에서	-17523
▁생각났다	-17524
▁선사하는	-17525
▁소소하고	-17526
▁시청자들	-17527
▁쓰레기에	-17528
▁아니구나	-17529
▁아니였다	-17530
▁아니자나	-17531
▁아쉬울뿐	-17532
▁알려지지	-17533
▁알았어요	-17534
▁야한영화	-17535
▁연예인이	-17536
▁연출까지	-17537
▁영화보기	-17538
▁영화였던	-17539
▁영화이고	-17540
▁예상대로	-17541
▁요소들이	-17542
▁이게무슨	-17543
▁이영화로	-17544
▁일깨워준	-17545
▁자연스레	-17546
▁장난치는	-17547
▁장면에선	-17548
▁재밌는거	-17549
▁전설적인	-17550
▁전작보다	-17551
▁전해지는	-17552
▁전혀없는	-17553
▁존재하지	-17554
▁줄거리만	-17555
▁짜증나요	-17556
▁챙겨보는	-17557
▁추억으로	-17558
▁코엔형제	-17559
▁평점알바	-17560
▁필요없이	-17561
▁하면서도	-17562
▁한국애니	-17563
▁한국전쟁	-17564
▁한마디만	-17565
▁후속작이	-17566
영화중하나	-17567
이런영화는	-17568
재미있네요	-17569
재밌는영화	-17570
점주고싶다	-17571
▁가슴아프고	-17572
▁감동이었다	-17573
▁기본적으로	-17574
▁느낌이었다	-17575
▁또보고싶다	-17576
▁만들었다고	-17577
▁몇번을봐도	-17578
▁반지의제왕	-17579
▁별로였는데	-17580
▁별로였어요	-17581
▁사람들에겐	-17582
▁생각이든다	-17583
▁생각하면서	-17584
▁쓰레기라는	-17585
▁연기자들이	-17586
▁우리나라도	-17587
▁움직이거나	-17588
▁이런영화도	-17589
▁이해안되는	-17590
▁자랑스럽다	-17591
▁재밌게봤던	-17592
▁잼있었어요	-17593
▁키아누리브	-17594
▁하나입니다	-17595
재미있었어요	-17596
▁다시보고싶다	-17597
▁뭐하자는건지	-17598
▁보고싶어지는	-17599
▁쓰레기영화는	-17600
▁애니메이션의	-17601
▁.......	-17602
▁가나다라마바사	-17603
▁마지막장면에서	-17604
!!!!!!!!!!	-17605
).	-17606
)/	-17607
,4	-17608
2.	-17609
::	-17610
UT	-17611
VE	-17612
ol	-17613
~4	-17614
ᄇᄇ	-17615
ᄌᄒ	-17616
▁긁	-17617
▁깐	-17618
▁놨	-17619
▁닫	-17620
▁릴	-17621
▁므	-17622
▁뱃	-17623
▁뱅	-17624
▁뻐	-17625
▁엥	-17626
▁옜	-17627
▁퀼	-17628
거려	-17629
고가	-17630
국에	-17631
그룹	-17632
나입	-17633
난감	-17634
남고	-17635
낼수	-17636
넘넘	-17637
녀는	-17638
니를	-17639
단한	-17640
담이	-17641
답지	-17642
당께	-17643
대소	-17644
댄다	-17645
독특	-17646
량한	-17647
름이	-17648
리니	-17649
마조	-17650
말라	-17651
망생	-17652
매매	-17653
머가	-17654
먹지	-17655
멋짐	-17656
멍청	-17657
모드	-17658
미나	-17659
미치	-17660
밀라	-17661
바르	-17662
바엔	-17663
반대	-17664
방학	-17665
밴드	-17666
벌레	-17667
범인	-17668
베르	-17669
베스	-17670
변태	-17671
별반	-17672
볼땐	-17673
부끄	-17674
부여	-17675
브이	-17676
새키	-17677
색히	-17678
서가	-17679
세로	-17680
섹시	-17681
션스	-17682
소수	-17683
송이	-17684
수리	-17685
스넌	-17686
시리	-17687
신혜	-17688
씨엔	-17689
아비	-17690
어게	-17691
어릴	-17692
어에	-17693
언젠	-17694
업이	-17695
역활	-17696
연속	-17697
오면	-17698
왔음	-17699
움직	-17700
유럽	-17701
은채	-17702
일로	-17703
잇어	-17704
자매	-17705
잘함	-17706
잡아	-17707
잭슨	-17708
적을	-17709
전한	-17710
점씩	-17711
점인	-17712
종을	-17713
좋네	-17714
중근	-17715
중심	-17716
짱나	-17717
찌질	-17718
차를	-17719
찮게	-17720
처드	-17721
초도	-17722
출한	-17723
캐릭	-17724
커녕	-17725
코를	-17726
크레	-17727
투더	-17728
튀는	-17729
특수	-17730
티나	-17731
티의	-17732
하노	-17733
하에	-17734
한부	-17735
호구	-17736
호와	-17737
호호	-17738
호흡	-17739
화의	-17740
환경	-17741
..'	-17742
?!!	-17743
ess	-17744
ith	-17745
ock	-17746
~~♥	-17747
▁4,	-17748
▁NO	-17749
▁가네	-17750
▁감격	-17751
▁거라	-17752
▁겉만	-17753
▁견뎌	-17754
▁결여	-17755
▁계기	-17756
▁고아	-17757
▁광주	-17758
▁구식	-17759
▁굴러	-17760
▁그곳	-17761
▁그릇	-17762
▁근대	-17763
▁글래	-17764
▁기생	-17765
▁김유	-17766
▁김청	-17767
▁꼬맹	-17768
▁나약	-17769
▁나치	-17770
▁너를	-17771
▁네이	-17772
▁노트	-17773
▁눈도	-17774
▁능청	-17775
▁다짐	-17776
▁닭살	-17777
▁도는	-17778
▁됐지	-17779
▁되려	-17780
▁됬다	-17781
▁때우	-17782
▁마시	-17783
▁마인	-17784
▁막막	-17785
▁맛은	-17786
▁매길	-17787
▁목사	-17788
▁미셸	-17789
▁바꿨	-17790
▁바비	-17791
▁박재	-17792
▁반면	-17793
▁받지	-17794
▁발버	-17795
▁버젼	-17796
▁벅차	-17797
▁변질	-17798
▁보냈	-17799
▁복귀	-17800
▁복싱	-17801
▁볼일	-17802
▁부풀	-17803
▁분류	-17804
▁뷰티	-17805
▁비됴	-17806
▁비춰	-17807
▁사업	-17808
▁사촌	-17809
▁상을	-17810
▁서동	-17811
▁성기	-17812
▁스튜	-17813
▁시놉	-17814
▁시퀀	-17815
▁식겁	-17816
▁써서	-17817
▁안정	-17818
▁애인	-17819
▁얼음	-17820
▁여럿	-17821
▁여우	-17822
▁온통	-17823
▁올린	-17824
▁왜캐	-17825
▁요한	-17826
▁운지	-17827
▁원더	-17828
▁위협	-17829
▁이뭐	-17830
▁이분	-17831
▁이서	-17832
▁이입	-17833
▁입체	-17834
▁자이	-17835
▁잘되	-17836
▁잠자	-17837
▁장사	-17838
▁재조	-17839
▁잼난	-17840
▁전원	-17841
▁정선	-17842
▁조한	-17843
▁졸린	-17844
▁죄가	-17845
▁주신	-17846
▁지은	-17847
▁지친	-17848
▁직쏘	-17849
▁진작	-17850
▁차가	-17851
▁통일	-17852
▁퇴폐	-17853
▁특색	-17854
▁핀처	-17855
▁했냐	-17856
▁허비	-17857
▁환영	-17858
▁힛걸	-17859
감독을	-17860
결론은	-17861
고있는	-17862
기때문	-17863
김기덕	-17864
끝나서	-17865
나중에	-17866
났지만	-17867
눈물을	-17868
더니만	-17869
도저히	-17870
됐어요	-17871
랬는데	-17872
로맨틱	-17873
리가라	-17874
만이쁨	-17875
말도안	-17876
매력이	-17877
버렸어	-17878
봤을땐	-17879
분보다	-17880
상과학	-17881
순수한	-17882
싶었다	-17883
쓰래기	-17884
아이를	-17885
아자차	-17886
어진다	-17887
었기에	-17888
엔딩이	-17889
여기서	-17890
여주는	-17891
연출력	-17892
오면서	-17893
워싱턴	-17894
원으로	-17895
의미로	-17896
이니깐	-17897
이상의	-17898
인거지	-17899
입니당	-17900
있구나	-17901
있었음	-17902
있으니	-17903
있을때	-17904
자리에	-17905
장면에	-17906
잼있다	-17907
점밖에	-17908
주의가	-17909
지르고	-17910
추억이	-17911
치지만	-17912
콘서트	-17913
터지고	-17914
팬인데	-17915
하게도	-17916
하니깐	-17917
한테도	-17918
합니당	-17919
▁-.-	-17920
▁You	-17921
▁^^;	-17922
▁갈등과	-17923
▁개웃김	-17924
▁거장의	-17925
▁겨울에	-17926
▁경찰은	-17927
▁고현정	-17928
▁공산당	-17929
▁관련된	-17930
▁구분이	-17931
▁궁금함	-17932
▁귀신은	-17933
▁그랬어	-17934
▁그영화	-17935
▁긴박한	-17936
▁나라면	-17937
▁나와요	-17938
▁나타나	-17939
▁낫네요	-17940
▁낮은듯	-17941
▁내용만	-17942
▁노력을	-17943
▁놀랬다	-17944
▁눈부신	-17945
▁느껴진	-17946
▁다르고	-17947
▁다르지	-17948
▁다른게	-17949
▁다큐의	-17950
▁대화가	-17951
▁돌리고	-17952
▁되야지	-17953
▁되었고	-17954
▁드라큐	-17955
▁드러난	-17956
▁들으면	-17957
▁들지만	-17958
▁떄문에	-17959
▁떠나지	-17960
▁떠오르	-17961
▁러셀크	-17962
▁로빈윌	-17963
▁류승완	-17964
▁만나게	-17965
▁만들엇	-17966
▁만으로	-17967
▁많은듯	-17968
▁맘대로	-17969
▁멍하니	-17970
▁멜깁슨	-17971
▁멜로물	-17972
▁모호한	-17973
▁몰라요	-17974
▁묘사한	-17975
▁무심코	-17976
▁바꿔서	-17977
▁바이블	-17978
▁박현지	-17979
▁방송에	-17980
▁방어율	-17981
▁변하는	-17982
▁변화가	-17983
▁보지는	-17984
▁부모의	-17985
▁분들도	-17986
▁불친절	-17987
▁비교적	-17988
▁빠진다	-17989
▁뻔하지	-17990
▁사랑한	-17991
▁상어가	-17992
▁상처가	-17993
▁상큼한	-17994
▁서세원	-17995
▁선택이	-17996
▁성동일	-17997
▁소방관	-17998
▁솔찍히	-17999
▁수작을	-18000
▁수준에	-18001
▁수준임	-18002
▁순간의	-18003
▁시기에	-18004
▁신경을	-18005
▁아내가	-18006
▁아이엠	-18007
▁않으며	-18008
▁알바냐	-18009
▁애국심	-18010
▁어려움	-18011
▁억지가	-18012
▁에리카	-18013
▁여운은	-18014
▁여지껏	-18015
▁영혼의	-18016
▁영화ᄏ	-18017
▁영화니	-18018
▁영화엔	-18019
▁옆에서	-18020
▁오늘날	-18021
▁오묘한	-18022
▁와중에	-18023
▁요근래	-18024
▁요소도	-18025
▁용기가	-18026
▁우스꽝	-18027
▁울다가	-18028
▁울부짖	-18029
▁웃기게	-18030
▁웨슬리	-18031
▁유튜브	-18032
▁유행어	-18033
▁윤계상	-18034
▁윤은혜	-18035
▁이나라	-18036
▁이상이	-18037
▁이세상	-18038
▁인생과	-18039
▁입에서	-18040
▁있으신	-18041
▁자다가	-18042
▁장예모	-18043
▁장점을	-18044
▁재밋엇	-18045
▁잼있네	-18046
▁전투씬	-18047
▁조금도	-18048
▁조지클	-18049
▁종류의	-18050
▁좋겠네	-18051
▁좋아도	-18052
▁죄없는	-18053
▁주말의	-18054
▁주연을	-18055
▁죽어야	-18056
▁죽음에	-18057
▁중국인	-18058
▁중국판	-18059
▁중년의	-18060
▁지린다	-18061
▁추천할	-18062
▁크로우	-18063
▁클레이	-18064
▁타인의	-18065
▁태권도	-18066
▁티라노	-18067
▁파리의	-18068
▁파이널	-18069
▁판치는	-18070
▁페이스	-18071
▁편견이	-18072
▁표한다	-18073
▁풍경과	-18074
▁하나경	-18075
▁하던지	-18076
▁한국말	-18077
▁한니발	-18078
▁한이다	-18079
▁한참을	-18080
▁할텐데	-18081
▁화이트	-18082
▁후회가	-18083
▁후회안	-18084
▁흘렀다	-18085
▁흥미도	-18086
▁힐러리	-18087
고싶어서	-18088
그나저나	-18089
긴장감도	-18090
꿀잼꿀잼	-18091
디에이터	-18092
보여주고	-18093
분보다가	-18094
선생님이	-18095
아쉽지만	-18096
어이없음	-18097
었던영화	-18098
여자들이	-18099
영화보는	-18100
으로서의	-18101
이야말로	-18102
적이어서	-18103
지루했다	-18104
하기위해	-18105
한거같다	-18106
할때마다	-18107
흥미진진	-18108
....!	-18109
▁ever	-18110
▁가능성을	-18111
▁가물가물	-18112
▁감동있는	-18113
▁같았는데	-18114
▁같았어요	-18115
▁개봉한지	-18116
▁견자단의	-18117
▁공상과학	-18118
▁구로사와	-18119
▁국내에서	-18120
▁깨달음을	-18121
▁나왔어요	-18122
▁느와르의	-18123
▁늘어지고	-18124
▁다봤는데	-18125
▁단언컨데	-18126
▁동방불패	-18127
▁막장이다	-18128
▁만든거냐	-18129
▁만들었니	-18130
▁만점짜리	-18131
▁만화같은	-18132
▁망작이다	-18133
▁망쳐놓은	-18134
▁매력적임	-18135
▁매트릭스	-18136
▁멍청하고	-18137
▁못하네요	-18138
▁못하는게	-18139
▁무서웠던	-18140
▁미국영화	-18141
▁밀려온다	-18142
▁발연기는	-18143
▁방식으로	-18144
▁보고싶지	-18145
▁보지마요	-18146
▁복잡하고	-18147
▁볼만하네	-18148
▁불과하다	-18149
▁불쾌하고	-18150
▁사실이다	-18151
▁상상력에	-18152
▁상영시간	-18153
▁서바이벌	-18154
▁섹시하다	-18155
▁순수했던	-18156
▁숨어있는	-18157
▁스펙터클	-18158
▁시사하는	-18159
▁싱크로율	-18160
▁싸이코패	-18161
▁쓰레기라	-18162
▁아까웠음	-18163
▁아오이유	-18164
▁아프네요	-18165
▁안나지만	-18166
▁애들영화	-18167
▁어딜봐서	-18168
▁영화구나	-18169
▁영화내용	-18170
▁영화여서	-18171
▁영화이긴	-18172
▁예쁘네요	-18173
▁오다기리	-18174
▁우롱하는	-18175
▁우주전쟁	-18176
▁울컥했다	-18177
▁유발하는	-18178
▁음악영화	-18179
▁이제까지	-18180
▁자극적이	-18181
▁자리에서	-18182
▁자신들의	-18183
▁장난으로	-18184
▁장면으로	-18185
▁재미라도	-18186
▁재미있었	-18187
▁전반적인	-18188
▁정신없고	-18189
▁정신이상	-18190
▁제작진의	-18191
▁좋았을듯	-18192
▁죽어가는	-18193
▁즐거웠던	-18194
▁지날수록	-18195
▁지니어스	-18196
▁지루하긴	-18197
▁지저분한	-18198
▁집착하는	-18199
▁찾아보니	-18200
▁처절하게	-18201
▁최악이네	-18202
▁추구하는	-18203
▁친구들과	-18204
▁코믹요소	-18205
▁트라우마	-18206
▁펼쳐지는	-18207
▁풀어내는	-18208
▁할말없음	-18209
▁함께하는	-18210
▁행복했다	-18211
▁호기심에	-18212
너무좋아요	-18213
되었습니다	-18214
말도안되는	-18215
하나하나가	-18216
▁거듭할수록	-18217
▁기대했지만	-18218
▁리얼리티가	-18219
▁만들었다는	-18220
▁매력적으로	-18221
▁무서운영화	-18222
▁보러갔는데	-18223
▁보여주는데	-18224
▁봐야겠어요	-18225
▁사람에게는	-18226
▁사실적이고	-18227
▁수작이라고	-18228
▁스크린에서	-18229
▁아니올시다	-18230
▁에피소드가	-18231
▁여러가지로	-18232
▁영화치고는	-18233
▁의학드라마	-18234
▁작품이네요	-18235
▁장난아니다	-18236
▁재밌긴한데	-18237
▁죄송하지만	-18238
▁지금에서야	-18239
▁지루하다는	-18240
▁지루했지만	-18241
▁카타르시스	-18242
▁행복합니다	-18243
▁훈훈해지는	-18244
▁흥미로웠다	-18245
재밌게봤는데	-18246
▁ᄒᄒᄒᄒᄒᄒ	-18247
▁다운받았는데	-18248
▁드라마였어요	-18249
▁등장인물들의	-18250
▁마지막장면은	-18251
▁비현실적이고	-18252
▁시간때우기용	-18253
▁여자주인공이	-18254
▁감동이었습니다	-18255
▁드라마였습니다	-18256
▁........	-18257
▁~~~~~~~~	-18258
▁ᅲᅲᅲᅲᅲᅲᅲᅲᅲᅲ	-18259
-_	-18260
.♥	-18261
27	-18262
ia	-18263
ri	-18264
▁닳	-18265
▁됫	-18266
▁딥	-18267
▁셔	-18268
▁씌	-18269
▁앜	-18270
▁얹	-18271
▁윗	-18272
▁죤	-18273
▁켈	-18274
▁켜	-18275
▁텐	-18276
▁템	-18277
▁튼	-18278
▁풉	-18279
▁핏	-18280
간데	-18281
것임	-18282
겨우	-18283
겨워	-18284
겨진	-18285
계가	-18286
공연	-18287
구마	-18288
국제	-18289
기간	-18290
기게	-18291
기며	-18292
길동	-18293
끼들	-18294
나여	-18295
낚시	-18296
놈에	-18297
누님	-18298
니와	-18299
닐때	-18300
님도	-18301
단체	-18302
담한	-18303
답고	-18304
대대	-18305
던게	-18306
두리	-18307
드에	-18308
드와	-18309
등의	-18310
란도	-18311
러드	-18312
렇지	-18313
레비	-18314
렸고	-18315
루치	-18316
르면	-18317
마져	-18318
만난	-18319
만약	-18320
말곤	-18321
말자	-18322
맛을	-18323
머프	-18324
민주	-18325
박자	-18326
반성	-18327
버가	-18328
버거	-18329
번의	-18330
보아	-18331
북한	-18332
삼아	-18333
생에	-18334
설수	-18335
세주	-18336
셔도	-18337
수술	-18338
쉬튼	-18339
시끄	-18340
쓰나	-18341
쓰렉	-18342
아동	-18343
아류	-18344
안될	-18345
야마	-18346
에노	-18347
역대	-18348
온나	-18349
왜이	-18350
용의	-18351
우슬	-18352
은게	-18353
인양	-18354
임은	-18355
작렬	-18356
장과	-18357
재림	-18358
잼잇	-18359
적도	-18360
전화	-18361
정과	-18362
정권	-18363
정돈	-18364
정부	-18365
조로	-18366
쥔공	-18367
지리	-18368
지션	-18369
질주	-18370
짜로	-18371
찾는	-18372
쳐라	-18373
코는	-18374
크릿	-18375
타가	-18376
테랑	-18377
포먼	-18378
품달	-18379
하랴	-18380
형은	-18381
혹시	-18382
화된	-18383
환을	-18384
흔한	-18385
히다	-18386
히로	-18387
..(	-18388
.;;	-18389
199	-18390
way	-18391
~90	-18392
▁87	-18393
▁92	-18394
▁im	-18395
▁ok	-18396
▁~!	-18397
▁간에	-18398
▁갇혀	-18399
▁강도	-18400
▁강아	-18401
▁겪은	-18402
▁견줄	-18403
▁계몽	-18404
▁계신	-18405
▁고대	-18406
▁고사	-18407
▁공영	-18408
▁과제	-18409
▁교수	-18410
▁구속	-18411
▁구해	-18412
▁권총	-18413
▁그날	-18414
▁극적	-18415
▁글쓰	-18416
▁금발	-18417
▁기부	-18418
▁김병	-18419
▁김우	-18420
▁김진	-18421
▁깨고	-18422
[...]
